{
   "Α": 0,
   "α": 1,
   "Β": 2,
   "β": 3,
   "Γ": 4,
   "γ": 5,
   "Δ": 6,
   "δ": 7,
   "Ε": 8,
   "ε": 9,
   "Ζ": 10,
   "ζ": 11,
   "Η": 12,
   "η": 13,
   "Θ": 14,
   "θ": 15,
   "Ι": 16,
   "ι": 17,
   "Κ": 18,
   "κ": 19,
   "Λ": 20,
   "λ": 21,
   "Μ": 22,
   "μ": 23,
   "Ν": 24,
   "ν": 25,
   "Ξ": 26,
   "ξ": 27,
   "Ο": 28,
   "ο": 29,
   "Π": 30,
   "π": 31,
   "Ρ": 32,
   "ρ": 33,
   "Σ": 34,
   "σ": 35,
   "ς": 36,
   "Τ": 37,
   "τ": 38,
   "Υ": 39,
   "υ": 40,
   "Φ": 41,
   "φ": 42,
   "Χ": 43,
   "χ": 44,
   "Ψ": 45,
   "ψ": 46,
   "Ω": 47,
   "ω": 48,
   "а": 49,
   "б": 50,
   "в": 51,
   "г": 52,
   "д": 53,
   "е": 54,
   "ж": 55,
   "з": 56,
   "и": 57,
   "й": 58,
   "к": 59,
   "л": 60,
   "м": 61,
   "н": 62,
   "о": 63,
   "п": 64,
   "р": 65,
   "с": 66,
   "т": 67,
   "у": 68,
   "ф": 69,
   "х": 70,
   "ц": 71,
   "ч": 72,
   "ш": 73,
   "щ": 74,
   "ъ": 75,
   "ь": 76,
   "ю": 77,
   "я": 78,
   "ϐ": 79,
   "ƨ": 80,
   "ɡ": 81,
   "ȝ": 82,
   "u": 83,
   "ŭ": 84,
   "k": 85,
   "ʌ": 86,
   "o": 87,
   "n": 88,
   "m": 89,
   "ɸ": 90,
   "ɯ": 91,
   "ƅ": 92,
   "А": 93,
   "Б": 94,
   "В": 95,
   "Г": 96,
   "Д": 97,
   "Е": 98,
   "Ё": 99,
   "ё": 100,
   "Ж": 101,
   "З": 102,
   "И": 103,
   "Й": 104,
   "К": 105,
   "Л": 106,
   "М": 107,
   "Н": 108,
   "О": 109,
   "П": 110,
   "Р": 111,
   "С": 112,
   "Т": 113,
   "У": 114,
   "Ф": 115,
   "Х": 116,
   "Ц": 117,
   "Ч": 118,
   "Ш": 119,
   "Щ": 120,
   "Ъ": 121,
   "Ы": 122,
   "ы": 123,
   "Ь": 124,
   "Э": 125,
   "э": 126,
   "Ю": 127,
   "Я": 128,
   "あ": 129,
   "い": 130,
   "う": 131,
   "え": 132,
   "お": 133,
   "か": 134,
   "き": 135,
   "く": 136,
   "け": 137,
   "こ": 138,
   "さ": 139,
   "し": 140,
   "す": 141,
   "せ": 142,
   "そ": 143,
   "た": 144,
   "ち": 145,
   "つ": 146,
   "て": 147,
   "と": 148,
   "な": 149,
   "に": 150,
   "ぬ": 151,
   "ね": 152,
   "の": 153,
   "は": 154,
   "ひ": 155,
   "ふ": 156,
   "へ": 157,
   "ほ": 158,
   "ま": 159,
   "み": 160,
   "む": 161,
   "め": 162,
   "も": 163,
   "や": 164,
   "ゆ": 165,
   "よ": 166,
   "ら": 167,
   "り": 168,
   "る": 169,
   "れ": 170,
   "ろ": 171,
   "わ": 172,
   "ゐ": 173,
   "ゑ": 174,
   "を": 175,
   "ア": 176,
   "イ": 177,
   "ウ": 178,
   "エ": 179,
   "オ": 180,
   "カ": 181,
   "キ": 182,
   "ク": 183,
   "ケ": 184,
   "コ": 185,
   "サ": 186,
   "シ": 187,
   "ス": 188,
   "セ": 189,
   "ソ": 190,
   "タ": 191,
   "チ": 192,
   "ツ": 193,
   "テ": 194,
   "ト": 195,
   "ナ": 196,
   "ニ": 197,
   "ヌ": 198,
   "ネ": 199,
   "ノ": 200,
   "ハ": 201,
   "ヒ": 202,
   "フ": 203,
   "ヘ": 204,
   "ホ": 205,
   "マ": 206,
   "ミ": 207,
   "ム": 208,
   "メ": 209,
   "モ": 210,
   "ヤ": 211,
   "ユ": 212,
   "ヨ": 213,
   "ラ": 214,
   "リ": 215,
   "ル": 216,
   "レ": 217,
   "ロ": 218,
   "ワ": 219,
   "ヰ": 220,
   "ヱ": 221,
   "ヲ": 222,
   "🪉": 223,
   "🪏": 224,
   "🪾": 225,
   "🫆": 226,
   "🫜": 227,
   "🫟": 228,
   "🫩": 229,
   "<emoji>": 230,
   "s": 231,
   "e": 232,
   "g": 233,
   "r": 234,
   "d": 235,
   "i": 236,
   "t": 237,
   "a": 238,
   "h": 239,
   "f": 240,
   "c": 241,
   ".": 242,
   "j": 243,
   ":": 244,
   "l": 245,
   "v": 246,
   "q": 247,
   "y": 248,
   "p": 249,
   "[": 250,
   "]": 251,
   "(": 252,
   "/": 253,
   ")": 254,
   "¡": 255,
   "!": 256,
   "z": 257,
   "ó": 258,
   "b": 259,
   "é": 260,
   ",": 261,
   "$": 262,
   "w": 263,
   "á": 264,
   "¿": 265,
   "?": 266,
   "í": 267,
   "<": 268,
   "@": 269,
   ">": 270,
   "\\": 271,
   "x": 272,
   "ñ": 273,
   "-": 274,
   "+": 275,
   "ú": 276,
   "_": 277,
   "%": 278,
   "Ú": 279,
   "€": 280,
   "˜": 281,
   "️": 282,
   "ã": 283,
   "'": 284,
   "{": 285,
   "}": 286,
   "&": 287,
   ";": 288,
   "Á": 289,
   "–": 290,
   "⪰": 291,
   "‍": 292,
   "£": 293,
   "ί": 294,
   "ύ": 295,
   "έ": 296,
   "ή": 297,
   "ώ": 298,
   "س": 299,
   "ة": 300,
   "ɛ": 301,
   "ɑ": 302,
   "ɪ": 303,
   "ʁ": 304,
   "ᶦ": 305,
   "ɢ": 306,
   "ɳ": 307,
   "ɴ": 308,
   "ɾ": 309,
   "ʃ": 310,
   "ɲ": 311,
   "ɩ": 312,
   "ɬ": 313,
   "⌫": 314,
   "ό": 315,
   "◞": 316,
   "ä": 317,
   "š": 318,
   "č": 319,
   "ü": 320,
   "ç": 321,
   "’": 322,
   "Č": 323,
   "ř": 324,
   "ö": 325,
   "ô": 326,
   "É": 327,
   "à": 328,
   "ć": 329,
   "æ": 330,
   "å": 331,
   "ø": 332,
   "Ø": 333,
   "ţ": 334,
   "ă": 335,
   "â": 336,
   "⁄": 337,
   "⁠": 338,
   "≈": 339,
   "√": 340,
   "−": 341,
   "×": 342,
   "≤": 343,
   "⋅": 344,
   "±": 345,
   "~": 346,
   "ū": 347,
   "ā": 348,
   "ī": 349,
   "—": 350,
   "𝕏": 351,
   "░": 352,
   "っ": 353,
   "ー": 354,
   "è": 355,
   "ē": 356,
   "ḥ": 357,
   "ἀ": 358,
   " ": 359,
   "ṭ": 360,
   "⁡": 361,
   "|": 362,
   "“": 363,
   "”": 364,
   "德": 365,
   "ō": 366,
   "ý": 367,
   "ὁ": 368,
   "ṟ": 369,
   "ʼ": 370,
   "ὶ": 371,
   "ὲ": 372,
   "ἐ": 373,
   "ά": 374,
   "ὰ": 375,
   "ῦ": 376,
   "·": 377,
   "ἡ": 378,
   "ʿ": 379,
   "ḍ": 380,
   "ṣ": 381,
   "ṛ": 382,
   "ṇ": 383,
   "ṃ": 384,
   "प": 385,
   "ु": 386,
   "ण": 387,
   "्": 388,
   "य": 389,
   "ा": 390,
   "ṅ": 391,
   "…": 392,
   "ˈ": 393,
   "̌": 394,
   "ŋ": 395,
   "ː": 396,
   "ǎ": 397,
   "Ä": 398,
   "Å": 399,
   "長": 400,
   "山": 401,
   "洋": 402,
   "子": 403,
   "春": 404,
   "蜩": 405,
   "捨": 406,
   "じ": 407,
   "ょ": 408,
   "ん": 409,
   "女": 410,
   "節": 411,
   "噓": 412,
   "だ": 413,
   "・": 414,
   "ャ": 415,
   "ボ": 416,
   "ン": 417,
   "密": 418,
   "「": 419,
   "」": 420,
   "瞬": 421,
   "間": 422,
   "ァ": 423,
   "ジ": 424,
   "ゴ": 425,
   "ド": 426,
   "ィ": 427,
   "素": 428,
   "顔": 429,
   "で": 430,
   "雲": 431,
   "ヴ": 432,
   "悲": 433,
   "恋": 434,
   "人": 435,
   "火": 436,
   "反": 437,
   "逆": 438,
   "グ": 439,
   "ッ": 440,
   "瞳": 441,
   "中": 442,
   "ェ": 443,
   "肩": 444,
   "幅": 445,
   "未": 446,
   "来": 447,
   "海": 448,
   "降": 449,
   "雪": 450,
   "酒": 451,
   "蒼": 452,
   "月": 453,
   "私": 454,
   "が": 455,
   "生": 456,
   "育": 457,
   "倖": 458,
   "劇": 459,
   "場": 460,
   "版": 461,
   "江": 462,
   "戸": 463,
   "色": 464,
   "頃": 465,
   "浪": 466,
   "花": 467,
   "夢": 468,
   "情": 469,
   "話": 470,
   "プ": 471,
   "父": 472,
   "詩": 473,
   "桶": 474,
   "屋": 475,
   "八": 476,
   "ぁ": 477,
   "園": 478,
   "ぐ": 479,
   "傘": 480,
   "ば": 481,
   "紅": 482,
   "遠": 483,
   "野": 484,
   "物": 485,
   "語": 486,
   "逢": 487,
   "艶": 488,
   "姿": 489,
   "吹": 490,
   "愛": 491,
   "嵐": 492,
   "峡": 493,
   "炭": 494,
   "坑": 495,
   "嘘": 496,
   "名": 497,
   "残": 498,
   "絆": 499,
   "松": 500,
   "舟": 501,
   "唄": 502,
   "新": 503,
   "宿": 504,
   "追": 505,
   "分": 506,
   "悦": 507,
   "楽": 508,
   "望": 509,
   "郷": 510,
   "泣": 511,
   "街": 512,
   "瀬": 513,
   "晩": 514,
   "夏": 515,
   "博": 516,
   "多": 517,
   "笠": 518,
   "木": 519,
   "曽": 520,
   "翌": 521,
   "檜": 522,
   "一": 523,
   "度": 524,
   "守": 525,
   "津": 526,
   "軽": 527,
   "十": 528,
   "三": 529,
   "湖": 530,
   "金": 531,
   "毘": 532,
   "羅": 533,
   "段": 534,
   "橋": 535,
   "、": 536,
   "旅": 537,
   "別": 538,
   "上": 539,
   "手": 540,
   "ぱ": 541,
   "味": 542,
   "線": 543,
   "夜": 544,
   "桜": 545,
   "ブ": 546,
   "今": 547,
   "～": 548,
   "年": 549,
   "組": 550,
   "下": 551,
   "町": 552,
   "銀": 553,
   "座": 554,
   "ぇ": 555,
   "美": 556,
   "飲": 557,
   "ゃ": 558,
   "白": 559,
   "神": 560,
   "地": 561,
   "昭": 562,
   "和": 563,
   "　": 564,
   "周": 565,
   "記": 566,
   "念": 567,
   "ポ": 568,
   "ベ": 569,
   "演": 570,
   "歌": 571,
   "ë": 572,
   "̃": 573,
   "ɔ": 574,
   "ı": 575,
   "‡": 576,
   "​": 577,
   "º": 578,
   "«": 579,
   "»": 580,
   "―": 581,
   "ś": 582,
   "Í": 583,
   "‘": 584,
   "²": 585,
   "트": 586,
   "레": 587,
   "저": 588,
   "°": 589,
   "‹": 590,
   "›": 591,
   "→": 592,
   "Ó": 593,
   "ª": 594,
   "′": 595,
   "″": 596,
   "­": 597,
   "ß": 598,
   "ɜ": 599,
   "ə": 600,
   "吉": 601,
   "澤": 602,
   "最": 603,
   "後": 604,
   "決": 605,
   "戦": 606,
   "î": 607,
   "ê": 608,
   "½": 609,
   "†": 610,
   "õ": 611,
   "Š": 612,
   "ŷ": 613,
   "³": 614,
   "株": 615,
   "式": 616,
   "会": 617,
   "社": 618,
   "ビ": 619,
   "東": 620,
   "京": 621,
   "ℓ": 622,
   "^": 623,
   "ĭ": 624,
   "汉": 625,
   "语": 626,
   "漢": 627,
   "ǔ": 628,
   "文": 629,
   "官": 630,
   "话": 631,
   "国": 632,
   "國": 633,
   "普": 634,
   "通": 635,
   "ữ": 636,
   "茶": 637,
   "點": 638,
   "心": 639,
   "橘": 640,
   "华": 641,
   "華": 642,
   "台": 643,
   "方": 644,
   "言": 645,
   "点": 646,
   "ì": 647,
   "ɻ": 648,
   "ʔ": 649,
   "窟": 650,
   "窿": 651,
   "孔": 652,
   "ǒ": 653,
   "石": 654,
   "头": 655,
   "頭": 656,
   "膏": 657,
   "灰": 658,
   "英": 659,
   "油": 660,
   "字": 661,
   "词": 662,
   "詞": 663,
   "堡": 664,
   "包": 665,
   "门": 666,
   "员": 667,
   "門": 668,
   "員": 669,
   "电": 670,
   "邮": 671,
   "件": 672,
   "電": 673,
   "郵": 674,
   "ǐ": 675,
   "了": 676,
   "还": 677,
   "還": 678,
   "已": 679,
   "经": 680,
   "經": 681,
   "蜜": 682,
   "狮": 683,
   "獅": 684,
   "马": 685,
   "馬": 686,
   "猪": 687,
   "豬": 688,
   "犬": 689,
   "鹅": 690,
   "鵝": 691,
   "葡": 692,
   "萄": 693,
   "榴": 694,
   "佛": 695,
   "菩": 696,
   "萨": 697,
   "薩": 698,
   "胡": 699,
   "同": 700,
   "琵": 701,
   "琶": 702,
   "酪": 703,
   "律": 704,
   "风": 705,
   "風": 706,
   "ǜ": 707,
   "奔": 708,
   "腾": 709,
   "騰": 710,
   "赛": 711,
   "百": 712,
   "賽": 713,
   "以": 714,
   "列": 715,
   "巴": 716,
   "黎": 717,
   "粉": 718,
   "丝": 719,
   "絲": 720,
   "ě": 721,
   "黑": 722,
   "客": 723,
   "母": 724,
   "製": 725,
   "济": 726,
   "濟": 727,
   "経": 728,
   "済": 729,
   "冇": 730,
   "係": 731,
   "日": 732,
   "水": 733,
   "沖": 734,
   "氵": 735,
   "ʻ": 736,
   "﻿": 737,
   "Î": 738,
   "ș": 739,
   "ė": 740,
   "ń": 741,
   " ": 742,
   "Ł": 743,
   "ț": 744,
   "ž": 745,
   "Ć": 746,
   "Ž": 747,
   "∫": 748,
   "⇒": 749,
   "△": 750,
   "ÿ": 751,
   "‐": 752,
   "de": 753,
   "en": 754,
   "er": 755,
   "in": 756,
   "an": 757,
   "es": 758,
   "on": 759,
   "or": 760,
   "ar": 761,
   "th": 762,
   "as": 763,
   "al": 764,
   "os": 765,
   "ti": 766,
   "la": 767,
   "re": 768,
   "ci": 769,
   "el": 770,
   "is": 771,
   "te": 772,
   "the": 773,
   "un": 774,
   "ic": 775,
   "ad": 776,
   "to": 777,
   "ro": 778,
   "co": 779,
   "of": 780,
   "ed": 781,
   "ta": 782,
   "con": 783,
   "se": 784,
   "ue": 785,
   "and": 786,
   "tr": 787,
   "ch": 788,
   "le": 789,
   "ing": 790,
   "ur": 791,
   "it": 792,
   "am": 793,
   "us": 794,
   "at": 795,
   "com": 796,
   "ent": 797,
   "ón": 798,
   "ter": 799,
   "ac": 800,
   "si": 801,
   "tion": 802,
   "do": 803,
   "que": 804,
   "for": 805,
   "ma": 806,
   "lo": 807,
   "par": 808,
   "su": 809,
   "ri": 810,
   "por": 811,
   "pro": 812,
   "em": 813,
   "di": 814,
   "los": 815,
   "no": 816,
   "vi": 817,
   "li": 818,
   "ción": 819,
   "del": 820,
   "so": 821,
   "cu": 822,
   "per": 823,
   "ab": 824,
   "ex": 825,
   "res": 826,
   "il": 827,
   "las": 828,
   "ver": 829,
   "po": 830,
   "gr": 831,
   "mo": 832,
   "des": 833,
   "est": 834,
   "ce": 835,
   "ve": 836,
   "da": 837,
   "man": 838,
   "be": 839,
   "ist": 840,
   "pe": 841,
   "ado": 842,
   "qu": 843,
   "me": 844,
   "ne": 845,
   "bi": 846,
   "tu": 847,
   "ente": 848,
   "ca": 849,
   "ly": 850,
   "ía": 851,
   "pa": 852,
   "para": 853,
   "mi": 854,
   "una": 855,
   "der": 856,
   "ha": 857,
   "ct": 858,
   "ted": 859,
   "pu": 860,
   "st": 861,
   "ica": 862,
   "go": 863,
   "im": 864,
   "ir": 865,
   "gh": 866,
   "ith": 867,
   "gu": 868,
   "lu": 869,
   "ho": 870,
   "cion": 871,
   "ia": 872,
   "ten": 873,
   "are": 874,
   "ap": 875,
   "ou": 876,
   "ser": 877,
   "du": 878,
   "that": 879,
   "id": 880,
   "ts": 881,
   "ada": 882,
   "can": 883,
   "ation": 884,
   "ales": 885,
   "como": 886,
   "mer": 887,
   "den": 888,
   "má": 889,
   "vo": 890,
   "dis": 891,
   "ra": 892,
   "ge": 893,
   "with": 894,
   "io": 895,
   "inter": 896,
   "iz": 897,
   "we": 898,
   "fic": 899,
   "ul": 900,
   "mar": 901,
   "cia": 902,
   "tra": 903,
   "fe": 904,
   "ber": 905,
   "ces": 906,
   "pl": 907,
   "wh": 908,
   "bo": 909,
   "ban": 910,
   "by": 911,
   "pr": 912,
   "ple": 913,
   "fi": 914,
   "car": 915,
   "pos": 916,
   "tic": 917,
   "jo": 918,
   "was": 919,
   "min": 920,
   "tes": 921,
   "pres": 922,
   "bu": 923,
   "gen": 924,
   "fer": 925,
   "med": 926,
   "pri": 927,
   "bre": 928,
   "más": 929,
   "inc": 930,
   "ment": 931,
   "our": 932,
   "wor": 933,
   "lar": 934,
   "ther": 935,
   "son": 936,
   "uni": 937,
   "mic": 938,
   "ga": 939,
   "ble": 940,
   "cial": 941,
   "br": 942,
   "ity": 943,
   "mon": 944,
   "has": 945,
   "men": 946,
   "chem": 947,
   "au": 948,
   "je": 949,
   "mu": 950,
   "mente": 951,
   "sh": 952,
   "va": 953,
   "ke": 954,
   "pre": 955,
   "na": 956,
   "vis": 957,
   "pla": 958,
   "fin": 959,
   "'s": 960,
   "qui": 961,
   "pi": 962,
   "op": 963,
   "ba": 964,
   "vir": 965,
   "esta": 966,
   "all": 967,
   "ados": 968,
   "tem": 969,
   "cor": 970,
   "oft": 971,
   "rom": 972,
   "ciones": 973,
   "cri": 974,
   "fr": 975,
   "ol": 976,
   "án": 977,
   "bl": 978,
   "gi": 979,
   "ven": 980,
   "ando": 981,
   "from": 982,
   "fue": 983,
   "up": 984,
   "cr": 985,
   "bank": 986,
   "dos": 987,
   "ard": 988,
   "ele": 989,
   "ori": 990,
   "gan": 991,
   "cas": 992,
   "ine": 993,
   "ari": 994,
   "ación": 995,
   "ni": 996,
   "tro": 997,
   "sion": 998,
   "ante": 999,
   "forma": 1000,
   "ich": 1001,
   "tin": 1002,
   "mil": 1003,
   "sus": 1004,
   "may": 1005,
   "én": 1006,
   "ores": 1007,
   "vel": 1008,
   "form": 1009,
   "ese": 1010,
   "nu": 1011,
   "sig": 1012,
   "és": 1013,
   "ans": 1014,
   "tions": 1015,
   "port": 1016,
   "ws": 1017,
   "tur": 1018,
   "dad": 1019,
   "red": 1020,
   "ros": 1021,
   "pen": 1022,
   "tri": 1023,
   "hi": 1024,
   "af": 1025,
   "one": 1026,
   "net": 1027,
   "lan": 1028,
   "cen": 1029,
   "produ": 1030,
   "cam": 1031,
   "sa": 1032,
   "offic": 1033,
   "ys": 1034,
   "era": 1035,
   "ico": 1036,
   "amer": 1037,
   "und": 1038,
   "chemist": 1039,
   "ty": 1040,
   "sta": 1041,
   "inclu": 1042,
   "ase": 1043,
   "ght": 1044,
   "añ": 1045,
   "les": 1046,
   "he": 1047,
   "cur": 1048,
   "cre": 1049,
   "hu": 1050,
   "office": 1051,
   "pan": 1052,
   "its": 1053,
   "ere": 1054,
   "win": 1055,
   "ical": 1056,
   "nor": 1057,
   "mis": 1058,
   "tor": 1059,
   "indi": 1060,
   "ear": 1061,
   "ded": 1062,
   "ob": 1063,
   "idad": 1064,
   "mos": 1065,
   "ers": 1066,
   "micros": 1067,
   "this": 1068,
   "tiv": 1069,
   "microsoft": 1070,
   "gram": 1071,
   "ento": 1072,
   "ph": 1073,
   "ld": 1074,
   "parti": 1075,
   "which": 1076,
   "tras": 1077,
   "your": 1078,
   "mor": 1079,
   "ting": 1080,
   "enta": 1081,
   "cer": 1082,
   "eron": 1083,
   "seg": 1084,
   "mbi": 1085,
   "fu": 1086,
   "out": 1087,
   "ion": 1088,
   "ag": 1089,
   "aliz": 1090,
   "alg": 1091,
   "aron": 1092,
   "ary": 1093,
   "ant": 1094,
   "ell": 1095,
   "fa": 1096,
   "lon": 1097,
   "ican": 1098,
   "entre": 1099,
   "program": 1100,
   "hab": 1101,
   "fir": 1102,
   "have": 1103,
   "aba": 1104,
   "trans": 1105,
   "ghts": 1106,
   "spe": 1107,
   "you": 1108,
   "dur": 1109,
   "bel": 1110,
   "not": 1111,
   "coun": 1112,
   "primer": 1113,
   "ish": 1114,
   "pon": 1115,
   "isla": 1116,
   "rights": 1117,
   "ins": 1118,
   "tos": 1119,
   "log": 1120,
   "ck": 1121,
   "este": 1122,
   "tien": 1123,
   "virus": 1124,
   "val": 1125,
   "wn": 1126,
   "ctor": 1127,
   "nue": 1128,
   "om": 1129,
   "sin": 1130,
   "tt": 1131,
   "ack": 1132,
   "mbién": 1133,
   "también": 1134,
   "feren": 1135,
   "cul": 1136,
   "human": 1137,
   "work": 1138,
   "ero": 1139,
   "bas": 1140,
   "fo": 1141,
   "ís": 1142,
   "cl": 1143,
   "expl": 1144,
   "lla": 1145,
   "ie": 1146,
   "cal": 1147,
   "ión": 1148,
   "windo": 1149,
   "ual": 1150,
   "mun": 1151,
   "ill": 1152,
   "entes": 1153,
   "gran": 1154,
   "windows": 1155,
   "ding": 1156,
   "also": 1157,
   "tros": 1158,
   "tive": 1159,
   "internet": 1160,
   "um": 1161,
   "tw": 1162,
   "anti": 1163,
   "ps": 1164,
   "ay": 1165,
   "bor": 1166,
   "mus": 1167,
   "pas": 1168,
   "other": 1169,
   "web": 1170,
   "new": 1171,
   "sub": 1172,
   "ino": 1173,
   "adas": 1174,
   "inci": 1175,
   "don": 1176,
   "nation": 1177,
   "ami": 1178,
   "tal": 1179,
   "ina": 1180,
   "desde": 1181,
   "american": 1182,
   "​​": 1183,
   "sen": 1184,
   "gar": 1185,
   "been": 1186,
   "explor": 1187,
   "esti": 1188,
   "bar": 1189,
   "endo": 1190,
   "try": 1191,
   "ju": 1192,
   "amente": 1193,
   "sex": 1194,
   "ze": 1195,
   "ced": 1196,
   "ger": 1197,
   "ware": 1198,
   "cono": 1199,
   "tru": 1200,
   "cio": 1201,
   "et": 1202,
   "use": 1203,
   "ya": 1204,
   "version": 1205,
   "pal": 1206,
   "ind": 1207,
   "inv": 1208,
   "person": 1209,
   "int": 1210,
   "leg": 1211,
   "posi": 1212,
   "cho": 1213,
   "hist": 1214,
   "word": 1215,
   "jun": 1216,
   "gro": 1217,
   "ang": 1218,
   "low": 1219,
   "oc": 1220,
   "vers": 1221,
   "princi": 1222,
   "vic": 1223,
   "mas": 1224,
   "ms": 1225,
   "some": 1226,
   "ador": 1227,
   "ner": 1228,
   "hasta": 1229,
   "sobre": 1230,
   "informa": 1231,
   "publ": 1232,
   "fica": 1233,
   "pue": 1234,
   "reg": 1235,
   "ved": 1236,
   "ún": 1237,
   "eu": 1238,
   "fre": 1239,
   "za": 1240,
   "ok": 1241,
   "gener": 1242,
   "char": 1243,
   "antes": 1244,
   "explorer": 1245,
   "ance": 1246,
   "ement": 1247,
   "gin": 1248,
   "cias": 1249,
   "encia": 1250,
   "land": 1251,
   "ario": 1252,
   "ure": 1253,
   "tre": 1254,
   "actu": 1255,
   "ally": 1256,
   "ater": 1257,
   "años": 1258,
   "rela": 1259,
   "mes": 1260,
   "vari": 1261,
   "ren": 1262,
   "versi": 1263,
   "ties": 1264,
   "ction": 1265,
   "time": 1266,
   "light": 1267,
   "cción": 1268,
   "che": 1269,
   "sur": 1270,
   "contin": 1271,
   "compu": 1272,
   "atur": 1273,
   "ace": 1274,
   "ll": 1275,
   "cons": 1276,
   "but": 1277,
   "bro": 1278,
   "sys": 1279,
   "oper": 1280,
   "fun": 1281,
   "xi": 1282,
   "iden": 1283,
   "national": 1284,
   "fem": 1285,
   "porno": 1286,
   "ess": 1287,
   "system": 1288,
   "cep": 1289,
   "soci": 1290,
   "parte": 1291,
   "ido": 1292,
   "were": 1293,
   "cent": 1294,
   "cess": 1295,
   "mit": 1296,
   "had": 1297,
   "eng": 1298,
   "their": 1299,
   "eda": 1300,
   "ye": 1301,
   "organ": 1302,
   "such": 1303,
   "age": 1304,
   "her": 1305,
   "lin": 1306,
   "espe": 1307,
   "consi": 1308,
   "cional": 1309,
   "titu": 1310,
   "durante": 1311,
   "ían": 1312,
   "tica": 1313,
   "adi": 1314,
   "pol": 1315,
   "dades": 1316,
   "ach": 1317,
   "able": 1318,
   "tar": 1319,
   "compan": 1320,
   "sup": 1321,
   "ton": 1322,
   "first": 1323,
   "sis": 1324,
   "mayor": 1325,
   "tan": 1326,
   "traba": 1327,
   "media": 1328,
   "ep": 1329,
   "euro": 1330,
   "graf": 1331,
   "cos": 1332,
   "pero": 1333,
   "ér": 1334,
   "das": 1335,
   "chin": 1336,
   "miento": 1337,
   "jer": 1338,
   "ín": 1339,
   "please": 1340,
   "jor": 1341,
   "ícu": 1342,
   "pañ": 1343,
   "esto": 1344,
   "over": 1345,
   "soft": 1346,
   "ías": 1347,
   "ío": 1348,
   "ama": 1349,
   "used": 1350,
   "rit": 1351,
   "medi": 1352,
   "tain": 1353,
   "dire": 1354,
   "equi": 1355,
   "ud": 1356,
   "ies": 1357,
   "htt": 1358,
   "part": 1359,
   "art": 1360,
   "tas": 1361,
   "idos": 1362,
   "od": 1363,
   "han": 1364,
   "zo": 1365,
   "software": 1366,
   "his": 1367,
   "tern": 1368,
   "gui": 1369,
   "ali": 1370,
   "ory": 1371,
   "lle": 1372,
   "dic": 1373,
   "cted": 1374,
   "cha": 1375,
   "inst": 1376,
   "fil": 1377,
   "contro": 1378,
   "prize": 1379,
   "perio": 1380,
   "dio": 1381,
   "ember": 1382,
   "india": 1383,
   "mb": 1384,
   "gre": 1385,
   "almente": 1386,
   "tiene": 1387,
   "tical": 1388,
   "if": 1389,
   "vent": 1390,
   "chinese": 1391,
   "than": 1392,
   "act": 1393,
   "company": 1394,
   "plan": 1395,
   "está": 1396,
   "ww": 1397,
   "arro": 1398,
   "more": 1399,
   "law": 1400,
   "bri": 1401,
   "grafía": 1402,
   "tivo": 1403,
   "eli": 1404,
   "acter": 1405,
   "otros": 1406,
   "istry": 1407,
   "lion": 1408,
   "cla": 1409,
   "kno": 1410,
   "año": 1411,
   "end": 1412,
   "ka": 1413,
   "ini": 1414,
   "llo": 1415,
   "ior": 1416,
   "ame": 1417,
   "tema": 1418,
   "plo": 1419,
   "chemistry": 1420,
   "ja": 1421,
   "cultur": 1422,
   "algor": 1423,
   "ade": 1424,
   "super": 1425,
   "sho": 1426,
   "ving": 1427,
   "ast": 1428,
   "social": 1429,
   "estu": 1430,
   "depen": 1431,
   "sign": 1432,
   "vor": 1433,
   "fran": 1434,
   "they": 1435,
   "cus": 1436,
   "respon": 1437,
   "crip": 1438,
   "algorith": 1439,
   "embre": 1440,
   "clas": 1441,
   "gru": 1442,
   "comple": 1443,
   "ous": 1444,
   "país": 1445,
   "bio": 1446,
   "regi": 1447,
   "origin": 1448,
   "pués": 1449,
   "después": 1450,
   "tral": 1451,
   "mac": 1452,
   "ject": 1453,
   "zó": 1454,
   "gender": 1455,
   "tico": 1456,
   "day": 1457,
   "inf": 1458,
   "cy": 1459,
   "sal": 1460,
   "repres": 1461,
   "vie": 1462,
   "ments": 1463,
   "conoci": 1464,
   "desarro": 1465,
   "referen": 1466,
   "ef": 1467,
   "ves": 1468,
   "ick": 1469,
   "ult": 1470,
   "bus": 1471,
   "ong": 1472,
   "accoun": 1473,
   "hor": 1474,
   "cto": 1475,
   "ations": 1476,
   "year": 1477,
   "dif": 1478,
   "algun": 1479,
   "vide": 1480,
   "mbre": 1481,
   "much": 1482,
   "ham": 1483,
   "dist": 1484,
   "ely": 1485,
   "ticas": 1486,
   "twe": 1487,
   "ig": 1488,
   "ista": 1489,
   "van": 1490,
   "favor": 1491,
   "later": 1492,
   "team": 1493,
   "into": 1494,
   "cada": 1495,
   "reino": 1496,
   "hy": 1497,
   "vol": 1498,
   "siglo": 1499,
   "speed": 1500,
   "tribu": 1501,
   "tir": 1502,
   "itter": 1503,
   "segun": 1504,
   "mento": 1505,
   "computer": 1506,
   "most": 1507,
   "group": 1508,
   "univers": 1509,
   "data": 1510,
   "hn": 1511,
   "play": 1512,
   "ning": 1513,
   "twitter": 1514,
   "quer": 1515,
   "reci": 1516,
   "will": 1517,
   "icas": 1518,
   "ál": 1519,
   "bir": 1520,
   "wa": 1521,
   "icos": 1522,
   "chi": 1523,
   "cuenta": 1524,
   "import": 1525,
   "sido": 1526,
   "edad": 1527,
   "wo": 1528,
   "popu": 1529,
   "ased": 1530,
   "pare": 1531,
   "cual": 1532,
   "femin": 1533,
   "europe": 1534,
   "under": 1535,
   "ciu": 1536,
   "arios": 1537,
   "public": 1538,
   "bil": 1539,
   "primera": 1540,
   "tech": 1541,
   "langu": 1542,
   "defin": 1543,
   "cap": 1544,
   "tex": 1545,
   "ence": 1546,
   "king": 1547,
   "cir": 1548,
   "ture": 1549,
   "these": 1550,
   "ould": 1551,
   "would": 1552,
   "prote": 1553,
   "sistema": 1554,
   "din": 1555,
   "pel": 1556,
   "ped": 1557,
   "proble": 1558,
   "km": 1559,
   "nobel": 1560,
   "rele": 1561,
   "ismo": 1562,
   "line": 1563,
   "entos": 1564,
   "america": 1565,
   "cli": 1566,
   "har": 1567,
   "shi": 1568,
   "war": 1569,
   "puede": 1570,
   "tener": 1571,
   "sing": 1572,
   "who": 1573,
   "pes": 1574,
   "información": 1575,
   "elec": 1576,
   "ming": 1577,
   "after": 1578,
   "fund": 1579,
   "estados": 1580,
   "fect": 1581,
   "ana": 1582,
   "organiz": 1583,
   "ley": 1584,
   "acu": 1585,
   "ale": 1586,
   "estado": 1587,
   "exper": 1588,
   "many": 1589,
   "disco": 1590,
   "liz": 1591,
   "exam": 1592,
   "nacional": 1593,
   "ds": 1594,
   "oria": 1595,
   "realiz": 1596,
   "https": 1597,
   "mujer": 1598,
   "opti": 1599,
   "dy": 1600,
   "cuando": 1601,
   "ital": 1602,
   "there": 1603,
   "hel": 1604,
   "pli": 1605,
   "acti": 1606,
   "estro": 1607,
   "series": 1608,
   "well": 1609,
   "fol": 1610,
   "consider": 1611,
   "nombre": 1612,
   "rou": 1613,
   "ating": 1614,
   "visión": 1615,
   "ínsu": 1616,
   "penínsu": 1617,
   "ril": 1618,
   "termin": 1619,
   "john": 1620,
   "brit": 1621,
   "devel": 1622,
   "grap": 1623,
   "bajo": 1624,
   "mul": 1625,
   "usu": 1626,
   "docu": 1627,
   "known": 1628,
   "ason": 1629,
   "about": 1630,
   "network": 1631,
   "versión": 1632,
   "sp": 1633,
   "wer": 1634,
   "ust": 1635,
   "ose": 1636,
   "amiento": 1637,
   "fueron": 1638,
   "pornografía": 1639,
   "ate": 1640,
   "cat": 1641,
   "auto": 1642,
   "moneda": 1643,
   "álbu": 1644,
   "iter": 1645,
   "any": 1646,
   "ide": 1647,
   "support": 1648,
   "born": 1649,
   "bla": 1650,
   "asure": 1651,
   "tween": 1652,
   "between": 1653,
   "way": 1654,
   "call": 1655,
   "adores": 1656,
   "blo": 1657,
   "ii": 1658,
   "north": 1659,
   "partici": 1660,
   "dec": 1661,
   "miz": 1662,
   "doctor": 1663,
   "ward": 1664,
   "view": 1665,
   "donde": 1666,
   "ris": 1667,
   "istas": 1668,
   "ben": 1669,
   "tric": 1670,
   "when": 1671,
   "ated": 1672,
   "chan": 1673,
   "equipo": 1674,
   "britán": 1675,
   "peo": 1676,
   "mismo": 1677,
   "sep": 1678,
   "día": 1679,
   "ida": 1680,
   "ño": 1681,
   "cios": 1682,
   "mado": 1683,
   "users": 1684,
   "central": 1685,
   "general": 1686,
   "uti": 1687,
   "cel": 1688,
   "señ": 1689,
   "states": 1690,
   "ste": 1691,
   "main": 1692,
   "cin": 1693,
   "tation": 1694,
   "grupo": 1695,
   "two": 1696,
   "mundo": 1697,
   "tele": 1698,
   "dr": 1699,
   "fes": 1700,
   "grá": 1701,
   "mal": 1702,
   "identi": 1703,
   "world": 1704,
   "ile": 1705,
   "exten": 1706,
   "teg": 1707,
   "casa": 1708,
   "ura": 1709,
   "arse": 1710,
   "zon": 1711,
   "emplo": 1712,
   "nuestro": 1713,
   "musk": 1714,
   "bin": 1715,
   "así": 1716,
   "principal": 1717,
   "aun": 1718,
   "activ": 1719,
   "trabajo": 1720,
   "lí": 1721,
   "ciudad": 1722,
   "link": 1723,
   "conta": 1724,
   "siti": 1725,
   "estra": 1726,
   "als": 1727,
   "lanz": 1728,
   "lones": 1729,
   "very": 1730,
   "empres": 1731,
   "ás": 1732,
   "ite": 1733,
   "including": 1734,
   "stand": 1735,
   "ful": 1736,
   "comer": 1737,
   "edu": 1738,
   "moder": 1739,
   "nuevo": 1740,
   "imperio": 1741,
   "sty": 1742,
   "simil": 1743,
   "thou": 1744,
   "rough": 1745,
   "writ": 1746,
   "tres": 1747,
   "unido": 1748,
   "tran": 1749,
   "atos": 1750,
   "álbum": 1751,
   "embar": 1752,
   "concep": 1753,
   "optimiz": 1754,
   "yo": 1755,
   "millones": 1756,
   "hack": 1757,
   "península": 1758,
   "bay": 1759,
   "cular": 1760,
   "using": 1761,
   "vas": 1762,
   "dear": 1763,
   "ano": 1764,
   "úl": 1765,
   "where": 1766,
   "sm": 1767,
   "open": 1768,
   "ció": 1769,
   "unidos": 1770,
   "vice": 1771,
   "fuer": 1772,
   "sigui": 1773,
   "ice": 1774,
   "poli": 1775,
   "ges": 1776,
   "develop": 1777,
   "free": 1778,
   "uso": 1779,
   "iso": 1780,
   "tiem": 1781,
   "contr": 1782,
   "dete": 1783,
   "ists": 1784,
   "noun": 1785,
   "test": 1786,
   "event": 1787,
   "tter": 1788,
   "cour": 1789,
   "var": 1790,
   "ej": 1791,
   "yp": 1792,
   "aunque": 1793,
   "sexual": 1794,
   "character": 1795,
   "similar": 1796,
   "mat": 1797,
   "follow": 1798,
   "ily": 1799,
   "now": 1800,
   "product": 1801,
   "gra": 1802,
   "nueva": 1803,
   "descri": 1804,
   "only": 1805,
   "ore": 1806,
   "lio": 1807,
   "todo": 1808,
   "mail": 1809,
   "bat": 1810,
   "tional": 1811,
   "gua": 1812,
   "alcan": 1813,
   "lic": 1814,
   "últi": 1815,
   "segur": 1816,
   "ism": 1817,
   "sy": 1818,
   "mber": 1819,
   "terior": 1820,
   "plica": 1821,
   "san": 1822,
   "pun": 1823,
   "secur": 1824,
   "information": 1825,
   "book": 1826,
   "continu": 1827,
   "cier": 1828,
   "latin": 1829,
   "international": 1830,
   "fore": 1831,
   "code": 1832,
   "aj": 1833,
   "uego": 1834,
   "fici": 1835,
   "tiva": 1836,
   "example": 1837,
   "historia": 1838,
   "indepen": 1839,
   "archi": 1840,
   "popular": 1841,
   "uld": 1842,
   "announ": 1843,
   "project": 1844,
   "có": 1845,
   "promo": 1846,
   "sor": 1847,
   "mejor": 1848,
   "servi": 1849,
   "además": 1850,
   "bur": 1851,
   "united": 1852,
   "led": 1853,
   "fren": 1854,
   "order": 1855,
   "redit": 1856,
   "intro": 1857,
   "ficial": 1858,
   "econ": 1859,
   "unic": 1860,
   "embargo": 1861,
   "uary": 1862,
   "tis": 1863,
   "bier": 1864,
   "high": 1865,
   "introdu": 1866,
   "cab": 1867,
   "dar": 1868,
   "tempor": 1869,
   "logy": 1870,
   "pú": 1871,
   "date": 1872,
   "million": 1873,
   "sit": 1874,
   "real": 1875,
   "ancia": 1876,
   "while": 1877,
   "asse": 1878,
   "plat": 1879,
   "inte": 1880,
   "ima": 1881,
   "éd": 1882,
   "indus": 1883,
   "premi": 1884,
   "pelícu": 1885,
   "cond": 1886,
   "ry": 1887,
   "platform": 1888,
   "estos": 1889,
   "thre": 1890,
   "remo": 1891,
   "comen": 1892,
   "especial": 1893,
   "confir": 1894,
   "extern": 1895,
   "style": 1896,
   "through": 1897,
   "dé": 1898,
   "mó": 1899,
   "jan": 1900,
   "erg": 1901,
   "fac": 1902,
   "infor": 1903,
   "otras": 1904,
   "language": 1905,
   "perfor": 1906,
   "gover": 1907,
   "security": 1908,
   "canal": 1909,
   "gos": 1910,
   "lés": 1911,
   "inglés": 1912,
   "ños": 1913,
   "toon": 1914,
   "fied": 1915,
   "bal": 1916,
   "account": 1917,
   "serie": 1918,
   "back": 1919,
   "clu": 1920,
   "clus": 1921,
   "volu": 1922,
   "itar": 1923,
   "ix": 1924,
   "people": 1925,
   "rus": 1926,
   "then": 1927,
   "según": 1928,
   "cic": 1929,
   "todos": 1930,
   "públ": 1931,
   "sim": 1932,
   "cil": 1933,
   "españ": 1934,
   "cryp": 1935,
   "norte": 1936,
   "common": 1937,
   "wi": 1938,
   "pat": 1939,
   "incre": 1940,
   "urg": 1941,
   "tación": 1942,
   "pay": 1943,
   "poten": 1944,
   "nos": 1945,
   "países": 1946,
   "nam": 1947,
   "ml": 1948,
   "mater": 1949,
   "ru": 1950,
   "ship": 1951,
   "present": 1952,
   "permi": 1953,
   "río": 1954,
   "asia": 1955,
   "based": 1956,
   "top": 1957,
   "ched": 1958,
   "deci": 1959,
   "rece": 1960,
   "tour": 1961,
   "state": 1962,
   "control": 1963,
   "algunos": 1964,
   "dial": 1965,
   "ofi": 1966,
   "profes": 1967,
   "emos": 1968,
   "erra": 1969,
   "ebay": 1970,
   "display": 1971,
   "called": 1972,
   "tradi": 1973,
   "fri": 1974,
   "ones": 1975,
   "see": 1976,
   "video": 1977,
   "icación": 1978,
   "solo": 1979,
   "ez": 1980,
   "vos": 1981,
   "bido": 1982,
   "hacia": 1983,
   "cine": 1984,
   "power": 1985,
   "non": 1986,
   "claim": 1987,
   "ply": 1988,
   "vista": 1989,
   "total": 1990,
   "iones": 1991,
   "process": 1992,
   "even": 1993,
   "gur": 1994,
   "signi": 1995,
   "uel": 1996,
   "www": 1997,
   "rad": 1998,
   "bn": 1999,
   "made": 2000,
   "during": 2001,
   "number": 2002,
   "elf": 2003,
   "ara": 2004,
   "desarrollo": 2005,
   "mien": 2006,
   "gén": 2007,
   "aban": 2008,
   "eld": 2009,
   "enti": 2010,
   "sk": 2011,
   "iness": 2012,
   "point": 2013,
   "representa": 2014,
   "ial": 2015,
   "finan": 2016,
   "conferen": 2017,
   "edas": 2018,
   "anda": 2019,
   "though": 2020,
   "reli": 2021,
   "govern": 2022,
   "categ": 2023,
   "edi": 2024,
   "design": 2025,
   "tí": 2026,
   "versiones": 2027,
   "enla": 2028,
   "cidad": 2029,
   "están": 2030,
   "table": 2031,
   "city": 2032,
   "natur": 2033,
   "ches": 2034,
   "mem": 2035,
   "gas": 2036,
   "junto": 2037,
   "actual": 2038,
   "tel": 2039,
   "mientras": 2040,
   "bert": 2041,
   "west": 2042,
   "off": 2043,
   "appro": 2044,
   "ona": 2045,
   "vez": 2046,
   "polí": 2047,
   "stu": 2048,
   "hay": 2049,
   "acer": 2050,
   "anun": 2051,
   "via": 2052,
   "curso": 2053,
   "segu": 2054,
   "math": 2055,
   "often": 2056,
   "mee": 2057,
   "ien": 2058,
   "like": 2059,
   "ak": 2060,
   "ics": 2061,
   "muy": 2062,
   "tiempo": 2063,
   "cle": 2064,
   "cambi": 2065,
   "sitio": 2066,
   "corre": 2067,
   "sou": 2068,
   "ples": 2069,
   "ras": 2070,
   "til": 2071,
   "algorithms": 2072,
   "model": 2073,
   "ran": 2074,
   "exist": 2075,
   "incluy": 2076,
   "result": 2077,
   "bros": 2078,
   "minis": 2079,
   "ques": 2080,
   "xim": 2081,
   "dió": 2082,
   "había": 2083,
   "bern": 2084,
   "nomin": 2085,
   "bed": 2086,
   "virtu": 2087,
   "ling": 2088,
   "list": 2089,
   "redu": 2090,
   "ceso": 2091,
   "bles": 2092,
   "requi": 2093,
   "ciales": 2094,
   "quien": 2095,
   "comun": 2096,
   "tió": 2097,
   "mbly": 2098,
   "assembly": 2099,
   "sco": 2100,
   "ft": 2101,
   "mad": 2102,
   "empresa": 2103,
   "campe": 2104,
   "estable": 2105,
   "treasure": 2106,
   "uk": 2107,
   "season": 2108,
   "being": 2109,
   "gest": 2110,
   "french": 2111,
   "cause": 2112,
   "mance": 2113,
   "ctions": 2114,
   "site": 2115,
   "ili": 2116,
   "inten": 2117,
   "ña": 2118,
   "uno": 2119,
   "seguridad": 2120,
   "gobier": 2121,
   "announced": 2122,
   "tish": 2123,
   "years": 2124,
   "ates": 2125,
   "tesla": 2126,
   "producción": 2127,
   "mag": 2128,
   "monedas": 2129,
   "apro": 2130,
   "domin": 2131,
   "released": 2132,
   "respe": 2133,
   "medio": 2134,
   "ala": 2135,
   "educa": 2136,
   "energ": 2137,
   "érica": 2138,
   "custo": 2139,
   "commun": 2140,
   "applica": 2141,
   "dent": 2142,
   "exclus": 2143,
   "vil": 2144,
   "ús": 2145,
   "epith": 2146,
   "canción": 2147,
   "mundial": 2148,
   "viruses": 2149,
   "episo": 2150,
   "displaystyle": 2151,
   "geo": 2152,
   "aus": 2153,
   "show": 2154,
   "ket": 2155,
   "conten": 2156,
   "debido": 2157,
   "due": 2158,
   "mujeres": 2159,
   "women": 2160,
   "files": 2161,
   "differ": 2162,
   "since": 2163,
   "ury": 2164,
   "business": 2165,
   "dres": 2166,
   "arti": 2167,
   "wil": 2168,
   "ses": 2169,
   "early": 2170,
   "particular": 2171,
   "expres": 2172,
   "vement": 2173,
   "wever": 2174,
   "pp": 2175,
   "down": 2176,
   "cado": 2177,
   "siendo": 2178,
   "obje": 2179,
   "cuen": 2180,
   "investi": 2181,
   "comp": 2182,
   "gobierno": 2183,
   "dios": 2184,
   "argu": 2185,
   "multi": 2186,
   "ors": 2187,
   "ecu": 2188,
   "however": 2189,
   "lation": 2190,
   "len": 2191,
   "miem": 2192,
   "compañ": 2193,
   "opera": 2194,
   "proye": 2195,
   "col": 2196,
   "second": 2197,
   "ken": 2198,
   "rock": 2199,
   "tics": 2200,
   "ek": 2201,
   "pueden": 2202,
   "gir": 2203,
   "nov": 2204,
   "ficación": 2205,
   "tuvo": 2206,
   "cartoon": 2207,
   "vidu": 2208,
   "performance": 2209,
   "pur": 2210,
   "sible": 2211,
   "febr": 2212,
   "tivos": 2213,
   "member": 2214,
   "jos": 2215,
   "regis": 2216,
   "dere": 2217,
   "}}": 2218,
   "individu": 2219,
   "isbn": 2220,
   "ko": 2221,
   "both": 2222,
   "travel": 2223,
   "condi": 2224,
   "itos": 2225,
   "oficial": 2226,
   "contra": 2227,
   "institu": 2228,
   "nave": 2229,
   "referencias": 2230,
   "mex": 2231,
   "sever": 2232,
   "aga": 2233,
   "ters": 2234,
   "fur": 2235,
   "ental": 2236,
   "vés": 2237,
   "imp": 2238,
   "utiliz": 2239,
   "tiz": 2240,
   "tec": 2241,
   "poder": 2242,
   "región": 2243,
   "hbo": 2244,
   "deri": 2245,
   "german": 2246,
   "major": 2247,
   "right": 2248,
   "official": 2249,
   "get": 2250,
   "user": 2251,
   "ticos": 2252,
   "lugar": 2253,
   "click": 2254,
   "update": 2255,
   "segunda": 2256,
   "porte": 2257,
   "birming": 2258,
   "brow": 2259,
   "ported": 2260,
   "different": 2261,
   "standard": 2262,
   "liter": 2263,
   "determin": 2264,
   "modern": 2265,
   "ai": 2266,
   "come": 2267,
   "star": 2268,
   "invest": 2269,
   "we'": 2270,
   "nú": 2271,
   "actualiz": 2272,
   "invi": 2273,
   "gráfic": 2274,
   "nuestra": 2275,
   "influ": 2276,
   "distribu": 2277,
   "times": 2278,
   "own": 2279,
   "ished": 2280,
   "lay": 2281,
   "found": 2282,
   "propi": 2283,
   "nivel": 2284,
   "través": 2285,
   "usuarios": 2286,
   "recei": 2287,
   "tanto": 2288,
   "lleg": 2289,
   "chos": 2290,
   "puesto": 2291,
   "hora": 2292,
   "éc": 2293,
   "birmingham": 2294,
   "algorithm": 2295,
   "ctive": 2296,
   "region": 2297,
   "field": 2298,
   "unicredit": 2299,
   "look": 2300,
   "ila": 2301,
   "tail": 2302,
   "integr": 2303,
   "consu": 2304,
   "caracter": 2305,
   "scrip": 2306,
   "categor": 2307,
   "ign": 2308,
   "cita": 2309,
   "virt": 2310,
   "defini": 2311,
   "buil": 2312,
   "she": 2313,
   "addi": 2314,
   "ise": 2315,
   "tial": 2316,
   "mientos": 2317,
   "november": 2318,
   "títu": 2319,
   "varios": 2320,
   "constru": 2321,
   "apare": 2322,
   "perío": 2323,
   "uales": 2324,
   "mobi": 2325,
   "mid": 2326,
   "ality": 2327,
   "stre": 2328,
   "share": 2329,
   "sue": 2330,
   "customer": 2331,
   "partir": 2332,
   "iores": 2333,
   "vida": 2334,
   "conse": 2335,
   "logía": 2336,
   "epitheli": 2337,
   "tici": 2338,
   "str": 2339,
   "include": 2340,
   "hard": 2341,
   "aro": 2342,
   "access": 2343,
   "set": 2344,
   "américa": 2345,
   "final": 2346,
   "númer": 2347,
   "zoom": 2348,
   "lish": 2349,
   "english": 2350,
   "regu": 2351,
   "ents": 2352,
   "university": 2353,
   "rich": 2354,
   "read": 2355,
   "chang": 2356,
   "ow": 2357,
   "recor": 2358,
   "vid": 2359,
   "apl": 2360,
   "face": 2361,
   "amazon": 2362,
   "neces": 2363,
   "pobla": 2364,
   "difer": 2365,
   "período": 2366,
   "browser": 2367,
   "cell": 2368,
   "tv": 2369,
   "life": 2370,
   "eth": 2371,
   "three": 2372,
   "each": 2373,
   "refer": 2374,
   "resear": 2375,
   "ings": 2376,
   "ature": 2377,
   "dered": 2378,
   "tienen": 2379,
   "atures": 2380,
   "labor": 2381,
   "reco": 2382,
   "gres": 2383,
   "sión": 2384,
   "dose": 2385,
   "bras": 2386,
   "road": 2387,
   "late": 2388,
   "aster": 2389,
   "vaila": 2390,
   "within": 2391,
   "mé": 2392,
   "club": 2393,
   "esa": 2394,
   "offer": 2395,
   "earth": 2396,
   "atta": 2397,
   "caix": 2398,
   "dinast": 2399,
   "denomin": 2400,
   "amili": 2401,
   "famili": 2402,
   "canada": 2403,
   "mode": 2404,
   "jus": 2405,
   "ot": 2406,
   "server": 2407,
   "critical": 2408,
   "research": 2409,
   "position": 2410,
   "take": 2411,
   "compe": 2412,
   "eno": 2413,
   "ór": 2414,
   "ork": 2415,
   "manera": 2416,
   "escri": 2417,
   "plata": 2418,
   "ror": 2419,
   "ena": 2420,
   "soli": 2421,
   "bater": 2422,
   "yu": 2423,
   "dici": 2424,
   "virtue": 2425,
   "ages": 2426,
   "ker": 2427,
   "several": 2428,
   "appe": 2429,
   "billion": 2430,
   "cultura": 2431,
   "came": 2432,
   "eta": 2433,
   "phone": 2434,
   "my": 2435,
   "medical": 2436,
   "cimiento": 2437,
   "york": 2438,
   "graph": 2439,
   "seman": 2440,
   "gobern": 2441,
   "convir": 2442,
   "tml": 2443,
   "mobile": 2444,
   "same": 2445,
   "equ": 2446,
   "dan": 2447,
   "original": 2448,
   "sell": 2449,
   "side": 2450,
   "anal": 2451,
   "sw": 2452,
   "og": 2453,
   "news": 2454,
   "availa": 2455,
   "colle": 2456,
   "government": 2457,
   "lea": 2458,
   "octo": 2459,
   "ately": 2460,
   "mand": 2461,
   "princip": 2462,
   "ier": 2463,
   "document": 2464,
   "participa": 2465,
   "gación": 2466,
   "ey": 2467,
   "cionales": 2468,
   "nea": 2469,
   "ono": 2470,
   "aqu": 2471,
   "gador": 2472,
   "mayoría": 2473,
   "muchos": 2474,
   "constitu": 2475,
   "dou": 2476,
   "mate": 2477,
   "universal": 2478,
   "british": 2479,
   "could": 2480,
   "chil": 2481,
   "fam": 2482,
   "algunas": 2483,
   "aría": 2484,
   "propor": 2485,
   "situ": 2486,
   "encuen": 2487,
   "bra": 2488,
   "local": 2489,
   "dra": 2490,
   "novi": 2491,
   "compr": 2492,
   "noti": 2493,
   "datos": 2494,
   "bien": 2495,
   "dise": 2496,
   "eran": 2497,
   "cultural": 2498,
   "declar": 2499,
   "phi": 2500,
   "april": 2501,
   "menos": 2502,
   "velo": 2503,
   "estas": 2504,
   "inform": 2505,
   "vuel": 2506,
   "written": 2507,
   "because": 2508,
   "previ": 2509,
   "ler": 2510,
   "mark": 2511,
   "optimization": 2512,
   "i'": 2513,
   "cing": 2514,
   "what": 2515,
   "following": 2516,
   "pass": 2517,
   "centro": 2518,
   "óg": 2519,
   "pt": 2520,
   "obtener": 2521,
   "quier": 2522,
   "tinder": 2523,
   "externos": 2524,
   "omía": 2525,
   "tipo": 2526,
   "liam": 2527,
   "against": 2528,
   "ness": 2529,
   "scho": 2530,
   "report": 2531,
   "ext": 2532,
   "veh": 2533,
   "hen": 2534,
   "director": 2535,
   "service": 2536,
   "posición": 2537,
   "estr": 2538,
   "temas": 2539,
   "teriores": 2540,
   "solu": 2541,
   "dispon": 2542,
   "mada": 2543,
   "grandes": 2544,
   "enlaces": 2545,
   "territ": 2546,
   "ath": 2547,
   "verti": 2548,
   "vely": 2549,
   "june": 2550,
   "banks": 2551,
   "run": 2552,
   "file": 2553,
   "change": 2554,
   "natural": 2555,
   "execu": 2556,
   "action": 2557,
   "itor": 2558,
   "eje": 2559,
   "october": 2560,
   "conven": 2561,
   "valu": 2562,
   "ford": 2563,
   "personal": 2564,
   "entr": 2565,
   "aciones": 2566,
   "contact": 2567,
   "estaba": 2568,
   "ciden": 2569,
   "motor": 2570,
   "ney": 2571,
   "provi": 2572,
   "enter": 2573,
   "further": 2574,
   "best": 2575,
   "below": 2576,
   "sol": 2577,
   "commer": 2578,
   "miembros": 2579,
   "noviembre": 2580,
   "áre": 2581,
   "cali": 2582,
   "agr": 2583,
   "pá": 2584,
   "pho": 2585,
   "estimado": 2586,
   "kam": 2587,
   "religi": 2588,
   "sha": 2589,
   "aug": 2590,
   "colo": 2591,
   "inos": 2592,
   "until": 2593,
   "vision": 2594,
   "european": 2595,
   "capital": 2596,
   "ff": 2597,
   "stra": 2598,
   "vices": 2599,
   "jam": 2600,
   "meeting": 2601,
   "dri": 2602,
   "número": 2603,
   "rá": 2604,
   "programa": 2605,
   "asi": 2606,
   "cambio": 2607,
   "const": 2608,
   "http": 2609,
   "vieron": 2610,
   "tó": 2611,
   "largo": 2612,
   "mexico": 2613,
   "stor": 2614,
   "alter": 2615,
   "history": 2616,
   "ki": 2617,
   "them": 2618,
   "ency": 2619,
   "long": 2620,
   "cies": 2621,
   "bran": 2622,
   "available": 2623,
   "engine": 2624,
   "categoría": 2625,
   "website": 2626,
   "tivas": 2627,
   "mica": 2628,
   "aler": 2629,
   "ác": 2630,
   "base": 2631,
   "vehícu": 2632,
   "senci": 2633,
   "dencia": 2634,
   "characters": 2635,
   "presiden": 2636,
   "legal": 2637,
   "july": 2638,
   "chris": 2639,
   "kes": 2640,
   "systems": 2641,
   "appear": 2642,
   "omas": 2643,
   "child": 2644,
   "pati": 2645,
   "vered": 2646,
   "wes": 2647,
   "make": 2648,
   "detail": 2649,
   "enero": 2650,
   "minu": 2651,
   "mp": 2652,
   "love": 2653,
   "far": 2654,
   "crí": 2655,
   "email": 2656,
   "televisión": 2657,
   "bloque": 2658,
   "carga": 2659,
   "ases": 2660,
   "pir": 2661,
   "diente": 2662,
   "veri": 2663,
   "arte": 2664,
   "oeste": 2665,
   "versions": 2666,
   "century": 2667,
   "element": 2668,
   "ically": 2669,
   "arts": 2670,
   "around": 2671,
   "words": 2672,
   "mach": 2673,
   "cific": 2674,
   "march": 2675,
   "junio": 2676,
   "agos": 2677,
   "hos": 2678,
   "cta": 2679,
   "peque": 2680,
   "unión": 2681,
   "proyecto": 2682,
   "tura": 2683,
   "electr": 2684,
   "represent": 2685,
   "derro": 2686,
   "continente": 2687,
   "teriormente": 2688,
   "antigu": 2689,
   "varias": 2690,
   "sexo": 2691,
   "gol": 2692,
   "vin": 2693,
   "political": 2694,
   "tries": 2695,
   "stru": 2696,
   "sci": 2697,
   "ually": 2698,
   "graphy": 2699,
   "hal": 2700,
   "commit": 2701,
   "manag": 2702,
   "small": 2703,
   "possible": 2704,
   "accounts": 2705,
   "job": 2706,
   "logr": 2707,
   "corpor": 2708,
   "capa": 2709,
   "prop": 2710,
   "az": 2711,
   "ajes": 2712,
   "estar": 2713,
   "vado": 2714,
   "tenía": 2715,
   "diferentes": 2716,
   "dedor": 2717,
   "requer": 2718,
   "amazonas": 2719,
   "january": 2720,
   "critici": 2721,
   "less": 2722,
   "phys": 2723,
   "thern": 2724,
   "roy": 2725,
   "accor": 2726,
   "signific": 2727,
   "shar": 2728,
   "impro": 2729,
   "lations": 2730,
   "those": 2731,
   "tiembre": 2732,
   "septiembre": 2733,
   "features": 2734,
   "bili": 2735,
   "toda": 2736,
   "presenta": 2737,
   "depar": 2738,
   "lado": 2739,
   "internacional": 2740,
   "importante": 2741,
   "dinastía": 2742,
   "segundo": 2743,
   "diciembre": 2744,
   "hacker": 2745,
   "virtues": 2746,
   "justi": 2747,
   "varie": 2748,
   "wards": 2749,
   "bos": 2750,
   "bc": 2751,
   "repla": 2752,
   "head": 2753,
   "pose": 2754,
   "turn": 2755,
   "air": 2756,
   "agosto": 2757,
   "energía": 2758,
   "cá": 2759,
   "bol": 2760,
   "suspen": 2761,
   "deli": 2762,
   "cido": 2763,
   "juego": 2764,
   "activi": 2765,
   "usuario": 2766,
   "dig": 2767,
   "trial": 2768,
   "ios": 2769,
   "disponi": 2770,
   "pró": 2771,
   "sencillo": 2772,
   "guerra": 2773,
   "tubre": 2774,
   "octubre": 2775,
   "década": 2776,
   "oro": 2777,
   "rey": 2778,
   "tember": 2779,
   "september": 2780,
   "said": 2781,
   "acy": 2782,
   "obser": 2783,
   "créd": 2784,
   "tian": 2785,
   "econo": 2786,
   "ined": 2787,
   "green": 2788,
   "hold": 2789,
   "cast": 2790,
   "post": 2791,
   "app": 2792,
   "bill": 2793,
   "western": 2794,
   "ged": 2795,
   "eros": 2796,
   "idas": 2797,
   "dentro": 2798,
   "zas": 2799,
   "sab": 2800,
   "alcanz": 2801,
   "apo": 2802,
   "compro": 2803,
   "coche": 2804,
   "él": 2805,
   "niños": 2806,
   "china": 2807,
   "august": 2808,
   "described": 2809,
   "numer": 2810,
   "ctur": 2811,
   "bility": 2812,
   "experim": 2813,
   "aria": 2814,
   "medic": 2815,
   "confi": 2816,
   "trabaj": 2817,
   "online": 2818,
   "acción": 2819,
   "sos": 2820,
   "xito": 2821,
   "éxito": 2822,
   "check": 2823,
   "banco": 2824,
   "fra": 2825,
   "línea": 2826,
   "ita": 2827,
   "permite": 2828,
   "profesion": 2829,
   "informá": 2830,
   "muchas": 2831,
   "temporada": 2832,
   "formato": 2833,
   "películas": 2834,
   "comenzó": 2835,
   "html": 2836,
   "conser": 2837,
   "programs": 2838,
   "direct": 2839,
   "although": 2840,
   "vio": 2841,
   "material": 2842,
   "sour": 2843,
   "included": 2844,
   "cra": 2845,
   "month": 2846,
   "considered": 2847,
   "board": 2848,
   "urgent": 2849,
   "bió": 2850,
   "mús": 2851,
   "ejecu": 2852,
   "discus": 2853,
   "ísticas": 2854,
   "jap": 2855,
   "produc": 2856,
   "ximo": 2857,
   "ingen": 2858,
   "incl": 2859,
   "versidad": 2860,
   "puer": 2861,
   "ejemplo": 2862,
   "alre": 2863,
   "sí": 2864,
   "istán": 2865,
   "género": 2866,
   "femen": 2867,
   "finales": 2868,
   "loc": 2869,
   "arg": 2870,
   "tent": 2871,
   "trade": 2872,
   "techno": 2873,
   "pul": 2874,
   "bf": 2875,
   "sam": 2876,
   "largest": 2877,
   "according": 2878,
   "abil": 2879,
   "foun": 2880,
   "next": 2881,
   "adminis": 2882,
   "spo": 2883,
   "modo": 2884,
   "abril": 2885,
   "julio": 2886,
   "condu": 2887,
   "ub": 2888,
   "marzo": 2889,
   "sociales": 2890,
   "autor": 2891,
   "posible": 2892,
   "excel": 2893,
   "otro": 2894,
   "alrededor": 2895,
   "unos": 2896,
   "william": 2897,
   "glas": 2898,
   "does": 2899,
   "lands": 2900,
   "incor": 2901,
   "instal": 2902,
   "sti": 2903,
   "machine": 2904,
   "nal": 2905,
   "wal": 2906,
   "before": 2907,
   "review": 2908,
   "ized": 2909,
   "thor": 2910,
   "mission": 2911,
   "anim": 2912,
   "comien": 2913,
   "mercado": 2914,
   "costa": 2915,
   "icaciones": 2916,
   "mayo": 2917,
   "dej": 2918,
   "dese": 2919,
   "llamado": 2920,
   "atu": 2921,
   "siguiente": 2922,
   "aten": 2923,
   "tall": 2924,
   "cualquier": 2925,
   "servicio": 2926,
   "película": 2927,
   "ellos": 2928,
   "revista": 2929,
   "impact": 2930,
   "pop": 2931,
   "term": 2932,
   "nations": 2933,
   "fl": 2934,
   "movement": 2935,
   "ung": 2936,
   "royal": 2937,
   "nia": 2938,
   "ability": 2939,
   "development": 2940,
   "tives": 2941,
   "level": 2942,
   "circu": 2943,
   "press": 2944,
   "polic": 2945,
   "def": 2946,
   "uela": 2947,
   "mel": 2948,
   "estre": 2949,
   "requ": 2950,
   "imple": 2951,
   "fle": 2952,
   "tecno": 2953,
   "portun": 2954,
   "concurso": 2955,
   "fication": 2956,
   "servicios": 2957,
   "londres": 2958,
   "tér": 2959,
   "atura": 2960,
   "escen": 2961,
   "luego": 2962,
   "emi": 2963,
   "kea": 2964,
   "prad": 2965,
   "languages": 2966,
   "tales": 2967,
   "colon": 2968,
   "legisla": 2969,
   "countries": 2970,
   "wing": 2971,
   "establ": 2972,
   "roman": 2973,
   "former": 2974,
   "agre": 2975,
   "economic": 2976,
   "incorpor": 2977,
   "wan": 2978,
   "employe": 2979,
   "david": 2980,
   "cious": 2981,
   "infe": 2982,
   "bit": 2983,
   "todas": 2984,
   "alta": 2985,
   "mathbf": 2986,
   "derechos": 2987,
   "sociedad": 2988,
   "moun": 2989,
   "ikea": 2990,
   "kamprad": 2991,
   "eras": 2992,
   "text": 2993,
   "allow": 2994,
   "russi": 2995,
   "meth": 2996,
   "ines": 2997,
   "discovered": 2998,
   "ories": 2999,
   "ass": 3000,
   "elected": 3001,
   "comercial": 3002,
   "programación": 3003,
   "productor": 3004,
   "personas": 3005,
   "progres": 3006,
   "conference": 3007,
   "jes": 3008,
   "visit": 3009,
   "tube": 3010,
   "principales": 3011,
   "fuerza": 3012,
   "reser": 3013,
   "instru": 3014,
   "urs": 3015,
   "contribu": 3016,
   "premio": 3017,
   "persona": 3018,
   "correo": 3019,
   "subcontinente": 3020,
   "igu": 3021,
   "requerida": 3022,
   "aut": 3023,
   "principalmente": 3024,
   "ec": 3025,
   "primar": 3026,
   "losop": 3027,
   "philosop": 3028,
   "combin": 3029,
   "phy": 3030,
   "logical": 3031,
   "dence": 3032,
   "dom": 3033,
   "crédit": 3034,
   "max": 3035,
   "week": 3036,
   "sive": 3037,
   "name": 3038,
   "regard": 3039,
   "educación": 3040,
   "título": 3041,
   "carr": 3042,
   "confirma": 3043,
   "dor": 3044,
   "mith": 3045,
   "rap": 3046,
   "erte": 3047,
   "econó": 3048,
   "mint": 3049,
   "banda": 3050,
   "edades": 3051,
   "poca": 3052,
   "señal": 3053,
   "habit": 3054,
   "four": 3055,
   "core": 3056,
   "ats": 3057,
   "music": 3058,
   "february": 3059,
   "shor": 3060,
   "limi": 3061,
   "otra": 3062,
   "bilidad": 3063,
   "good": 3064,
   "nuevas": 3065,
   "jue": 3066,
   "escr": 3067,
   "lación": 3068,
   "hackers": 3069,
   "bancar": 3070,
   "pier": 3071,
   "uda": 3072,
   "cán": 3073,
   "británica": 3074,
   "españa": 3075,
   "uniden": 3076,
   "estadouniden": 3077,
   "indo": 3078,
   "osa": 3079,
   "jur": 3080,
   "dge": 3081,
   "ets": 3082,
   "occur": 3083,
   "posed": 3084,
   "elect": 3085,
   "banque": 3086,
   "banka": 3087,
   "glo": 3088,
   "him": 3089,
   "stake": 3090,
   "laun": 3091,
   "loca": 3092,
   "fuera": 3093,
   "hace": 3094,
   "application": 3095,
   "ks": 3096,
   "let": 3097,
   "primeros": 3098,
   "aso": 3099,
   "conf": 3100,
   "marke": 3101,
   "tivamente": 3102,
   "nuevos": 3103,
   "descu": 3104,
   "hacer": 3105,
   "ani": 3106,
   "problema": 3107,
   "estamos": 3108,
   "ónico": 3109,
   "navegador": 3110,
   "división": 3111,
   "población": 3112,
   "episodio": 3113,
   "clás": 3114,
   "sul": 3115,
   "sector": 3116,
   "liber": 3117,
   "ram": 3118,
   "restric": 3119,
   "cient": 3120,
   "hind": 3121,
   "practi": 3122,
   "hand": 3123,
   "adop": 3124,
   "perman": 3125,
   "ently": 3126,
   "demo": 3127,
   "preci": 3128,
   "self": 3129,
   "'t": 3130,
   "música": 3131,
   "conocido": 3132,
   "histori": 3133,
   "ying": 3134,
   "compar": 3135,
   "exclusi": 3136,
   "proporcion": 3137,
   "sistemas": 3138,
   "momento": 3139,
   "tado": 3140,
   "ev": 3141,
   "europa": 3142,
   "vé": 3143,
   "términ": 3144,
   "hiz": 3145,
   "tera": 3146,
   "personajes": 3147,
   "gráfica": 3148,
   "desta": 3149,
   "vy": 3150,
   "ampli": 3151,
   "groups": 3152,
   "absor": 3153,
   "object": 3154,
   "ength": 3155,
   "previous": 3156,
   "ny": 3157,
   "ech": 3158,
   "significant": 3159,
   "culture": 3160,
   "quar": 3161,
   "revolu": 3162,
   "won": 3163,
   "here": 3164,
   "coming": 3165,
   "isi": 3166,
   "público": 3167,
   "nas": 3168,
   "value": 3169,
   "departa": 3170,
   "días": 3171,
   "elim": 3172,
   "infect": 3173,
   "fecha": 3174,
   "money": 3175,
   "edit": 3176,
   "prue": 3177,
   "diri": 3178,
   "fon": 3179,
   "batman": 3180,
   "esco": 3181,
   "convirtió": 3182,
   "occiden": 3183,
   "poco": 3184,
   "contenido": 3185,
   "estudios": 3186,
   "feminist": 3187,
   "inas": 3188,
   "divi": 3189,
   "south": 3190,
   "ib": 3191,
   "developed": 3192,
   "reported": 3193,
   "compon": 3194,
   "acqui": 3195,
   "sions": 3196,
   "sed": 3197,
   "phas": 3198,
   "clos": 3199,
   "outlook": 3200,
   "attem": 3201,
   "ances": 3202,
   "sues": 3203,
   "london": 3204,
   "we're": 3205,
   "every": 3206,
   "details": 3207,
   "evi": 3208,
   "curr": 3209,
   "intel": 3210,
   "plaz": 3211,
   "pios": 3212,
   "encontr": 3213,
   "incluye": 3214,
   "punto": 3215,
   "relacion": 3216,
   "acceso": 3217,
   "quete": 3218,
   "encuentra": 3219,
   "tus": 3220,
   "gina": 3221,
   "prác": 3222,
   "unidades": 3223,
   "apren": 3224,
   "amos": 3225,
   "hemos": 3226,
   "nues": 3227,
   "ayud": 3228,
   "organic": 3229,
   "agua": 3230,
   "xvi": 3231,
   "onces": 3232,
   "lanzó": 3233,
   "atro": 3234,
   "wol": 3235,
   "method": 3236,
   "mbres": 3237,
   "mean": 3238,
   "extre": 3239,
   "bs": 3240,
   "became": 3241,
   "stream": 3242,
   "ku": 3243,
   "december": 3244,
   "committe": 3245,
   "special": 3246,
   "find": 3247,
   "trim": 3248,
   "adamente": 3249,
   "idea": 3250,
   "misma": 3251,
   "jas": 3252,
   "comenz": 3253,
   "youtube": 3254,
   "gencia": 3255,
   "semana": 3256,
   "lis": 3257,
   "ora": 3258,
   "censo": 3259,
   "smith": 3260,
   "financi": 3261,
   "reunión": 3262,
   "gus": 3263,
   "mole": 3264,
   "partido": 3265,
   "veces": 3266,
   "clasi": 3267,
   "mostr": 3268,
   "anunció": 3269,
   "época": 3270,
   "porta": 3271,
   "conqu": 3272,
   "ocas": 3273,
   "court": 3274,
   "certain": 3275,
   "forms": 3276,
   "addition": 3277,
   "changes": 3278,
   "tle": 3279,
   "course": 3280,
   "still": 3281,
   "letter": 3282,
   "ping": 3283,
   "pack": 3284,
   "did": 3285,
   "limit": 3286,
   "siguientes": 3287,
   "priva": 3288,
   "cabo": 3289,
   "lun": 3290,
   "sales": 3291,
   "trat": 3292,
   "udo": 3293,
   "emple": 3294,
   "pub": 3295,
   "francia": 3296,
   "idi": 3297,
   "aproxim": 3298,
   "finalmente": 3299,
   "cieron": 3300,
   "origen": 3301,
   "movi": 3302,
   "nar": 3303,
   "moral": 3304,
   "robert": 3305,
   "physi": 3306,
   "tively": 3307,
   "remain": 3308,
   "large": 3309,
   "effect": 3310,
   "space": 3311,
   "ons": 3312,
   "should": 3313,
   "ink": 3314,
   "grab": 3315,
   "services": 3316,
   "making": 3317,
   "sky": 3318,
   "antivirus": 3319,
   "load": 3320,
   "tax": 3321,
   "exci": 3322,
   "concer": 3323,
   "tria": 3324,
   "lead": 3325,
   "areas": 3326,
   "actualmente": 3327,
   "ander": 3328,
   "concier": 3329,
   "abo": 3330,
   "ctura": 3331,
   "simple": 3332,
   "comunidad": 3333,
   "gido": 3334,
   "redes": 3335,
   "ahora": 3336,
   "esper": 3337,
   "place": 3338,
   "laterra": 3339,
   "inglaterra": 3340,
   "genes": 3341,
   "tuvieron": 3342,
   "entonces": 3343,
   "venez": 3344,
   "oling": 3345,
   "roo": 3346,
   "regular": 3347,
   "warner": 3348,
   "dro": 3349,
   "canadi": 3350,
   "content": 3351,
   "zed": 3352,
   "dies": 3353,
   "itself": 3354,
   "single": 3355,
   "tum": 3356,
   "physical": 3357,
   "references": 3358,
   "arab": 3359,
   "cro": 3360,
   "ports": 3361,
   "tool": 3362,
   "become": 3363,
   "refund": 3364,
   "reason": 3365,
   "sto": 3366,
   "communica": 3367,
   "estudio": 3368,
   "cinco": 3369,
   "osos": 3370,
   "características": 3371,
   "cuer": 3372,
   "orden": 3373,
   "apps": 3374,
   "know": 3375,
   "aplicación": 3376,
   "evento": 3377,
   "compromis": 3378,
   "elimin": 3379,
   "reso": 3380,
   "gio": 3381,
   "atención": 3382,
   "vul": 3383,
   "soporte": 3384,
   "caixa": 3385,
   "canciones": 3386,
   "baterías": 3387,
   "desarrolla": 3388,
   "occidental": 3389,
   "partes": 3390,
   "casi": 3391,
   "metro": 3392,
   "varieties": 3393,
   "afr": 3394,
   "trict": 3395,
   "among": 3396,
   "president": 3397,
   "peter": 3398,
   "thes": 3399,
   "frequ": 3400,
   "uses": 3401,
   "usually": 3402,
   "theory": 3403,
   "alian": 3404,
   "geor": 3405,
   "country": 3406,
   "building": 3407,
   "great": 3408,
   "james": 3409,
   "suc": 3410,
   "just": 3411,
   "mir": 3412,
   "caso": 3413,
   "secu": 3414,
   "andro": 3415,
   "llev": 3416,
   "principios": 3417,
   "anteriores": 3418,
   "adqui": 3419,
   "join": 3420,
   "ello": 3421,
   "compañía": 3422,
   "crypto": 3423,
   "proceso": 3424,
   "dó": 3425,
   "hoy": 3426,
   "pago": 3427,
   "selec": 3428,
   "dito": 3429,
   "ishing": 3430,
   "universidad": 3431,
   "banca": 3432,
   "detect": 3433,
   "mensa": 3434,
   "epithelium": 3435,
   "infancia": 3436,
   "eléc": 3437,
   "catán": 3438,
   "yucatán": 3439,
   "eró": 3440,
   "hizo": 3441,
   "ocu": 3442,
   "argent": 3443,
   "estilo": 3444,
   "pasó": 3445,
   "incluyendo": 3446,
   "yg": 3447,
   "exual": 3448,
   "feminism": 3449,
   "musical": 3450,
   "edia": 3451,
   "crimin": 3452,
   "tors": 3453,
   "califor": 3454,
   "external": 3455,
   "technology": 3456,
   "individual": 3457,
   "ety": 3458,
   "lows": 3459,
   "applications": 3460,
   "excep": 3461,
   "lated": 3462,
   "accep": 3463,
   "sch": 3464,
   "avo": 3465,
   "ns": 3466,
   "pm": 3467,
   "key": 3468,
   "dia": 3469,
   "cámar": 3470,
   "lanzamiento": 3471,
   "texto": 3472,
   "community": 3473,
   "tun": 3474,
   "adul": 3475,
   "español": 3476,
   "llamada": 3477,
   "visite": 3478,
   "alber": 3479,
   "eléctr": 3480,
   "acuñ": 3481,
   "indio": 3482,
   "icamente": 3483,
   "iste": 3484,
   "viol": 3485,
   "syn": 3486,
   "established": 3487,
   "clo": 3488,
   "sometimes": 3489,
   "introduced": 3490,
   "case": 3491,
   "acquired": 3492,
   "dam": 3493,
   "té": 3494,
   "author": 3495,
   "created": 3496,
   "pread": 3497,
   "resul": 3498,
   "put": 3499,
   "council": 3500,
   "documents": 3501,
   "members": 3502,
   "party": 3503,
   "reach": 3504,
   "old": 3505,
   "specific": 3506,
   "hol": 3507,
   "hael": 3508,
   "michael": 3509,
   "care": 3510,
   "invol": 3511,
   "family": 3512,
   "oso": 3513,
   "niño": 3514,
   "corri": 3515,
   "sede": 3516,
   "ias": 3517,
   "rup": 3518,
   "orio": 3519,
   "tarde": 3520,
   "pesar": 3521,
   "distin": 3522,
   "vió": 3523,
   "turismo": 3524,
   "nego": 3525,
   "paquete": 3526,
   "plataforma": 3527,
   "transi": 3528,
   "significa": 3529,
   "elo": 3530,
   "pron": 3531,
   "pad": 3532,
   "adora": 3533,
   "usa": 3534,
   "biochemist": 3535,
   "olingo": 3536,
   "duolingo": 3537,
   "taña": 3538,
   "sexuales": 3539,
   "fís": 3540,
   "incluyen": 3541,
   "véase": 3542,
   "potencia": 3543,
   "igual": 3544,
   "mediante": 3545,
   "diferen": 3546,
   "divers": 3547,
   "exclusion": 3548,
   "tch": 3549,
   "pin": 3550,
   "mbo": 3551,
   "artist": 3552,
   "rm": 3553,
   "pak": 3554,
   "pilo": 3555,
   "span": 3556,
   "justice": 3557,
   "controversi": 3558,
   "california": 3559,
   "cts": 3560,
   "speech": 3561,
   "fili": 3562,
   "period": 3563,
   "cist": 3564,
   "indu": 3565,
   "function": 3566,
   "source": 3567,
   "lig": 3568,
   "northern": 3569,
   "concept": 3570,
   "class": 3571,
   "school": 3572,
   "quarter": 3573,
   "alth": 3574,
   "feature": 3575,
   "ize": 3576,
   "last": 3577,
   "sir": 3578,
   "assist": 3579,
   "acuer": 3580,
   "gri": 3581,
   "empe": 3582,
   "neo": 3583,
   "hon": 3584,
   "area": 3585,
   "trata": 3586,
   "departamento": 3587,
   "haber": 3588,
   "marketing": 3589,
   "bancaria": 3590,
   "vehículo": 3591,
   "onato": 3592,
   "campeonato": 3593,
   "mountain": 3594,
   "manés": 3595,
   "westfield": 3596,
   "alización": 3597,
   "aún": 3598,
   "criter": 3599,
   "cells": 3600,
   "temper": 3601,
   "lego": 3602,
   "familia": 3603,
   "interpre": 3604,
   "problems": 3605,
   "district": 3606,
   "defen": 3607,
   "ables": 3608,
   "adverti": 3609,
   "arch": 3610,
   "commission": 3611,
   "cs": 3612,
   "gs": 3613,
   "diction": 3614,
   "inde": 3615,
   "ole": 3616,
   "propa": 3617,
   "clear": 3618,
   "pari": 3619,
   "includes": 3620,
   "kind": 3621,
   "request": 3622,
   "return": 3623,
   "brand": 3624,
   "sure": 3625,
   "winner": 3626,
   "identity": 3627,
   "correspon": 3628,
   "feed": 3629,
   "latest": 3630,
   "ctos": 3631,
   "operating": 3632,
   "asist": 3633,
   "tido": 3634,
   "ñas": 3635,
   "fal": 3636,
   "gratu": 3637,
   "gun": 3638,
   "investigación": 3639,
   "tarje": 3640,
   "ví": 3641,
   "gadores": 3642,
   "ió": 3643,
   "ífic": 3644,
   "mediados": 3645,
   "latino": 3646,
   "feminists": 3647,
   "millas": 3648,
   "radical": 3649,
   "torney": 3650,
   "attorney": 3651,
   "alterna": 3652,
   "others": 3653,
   "expan": 3654,
   "equival": 3655,
   "measure": 3656,
   "portu": 3657,
   "committee": 3658,
   "kar": 3659,
   "perform": 3660,
   "proto": 3661,
   "recog": 3662,
   "few": 3663,
   "sent": 3664,
   "body": 3665,
   "how": 3666,
   "pleased": 3667,
   "chas": 3668,
   "bib": 3669,
   "gon": 3670,
   "conver": 3671,
   "tual": 3672,
   "lista": 3673,
   "participación": 3674,
   "adquiri": 3675,
   "sug": 3676,
   "istro": 3677,
   "venta": 3678,
   "ella": 3679,
   "ingenier": 3680,
   "estudi": 3681,
   "relación": 3682,
   "foto": 3683,
   "hola": 3684,
   "home": 3685,
   "écn": 3686,
   "técn": 3687,
   "homos": 3688,
   "carre": 3689,
   "profesional": 3690,
   "publicó": 3691,
   "grado": 3692,
   "ambos": 3693,
   "aproximadamente": 3694,
   "sultan": 3695,
   "ata": 3696,
   "estadounidense": 3697,
   "colu": 3698,
   "xp": 3699,
   "blan": 3700,
   "exclusionary": 3701,
   "audi": 3702,
   "indian": 3703,
   "sold": 3704,
   "cru": 3705,
   "ian": 3706,
   "charles": 3707,
   "istic": 3708,
   "compati": 3709,
   "tralia": 3710,
   "australia": 3711,
   "force": 3712,
   "ceo": 3713,
   "entor": 3714,
   "fron": 3715,
   "respec": 3716,
   "another": 3717,
   "emis": 3718,
   "arious": 3719,
   "various": 3720,
   "licen": 3721,
   "without": 3722,
   "paris": 3723,
   "must": 3724,
   "antas": 3725,
   "attached": 3726,
   "belie": 3727,
   "need": 3728,
   "avoid": 3729,
   "quisi": 3730,
   "fec": 3731,
   "unt": 3732,
   "clase": 3733,
   "register": 3734,
   "teni": 3735,
   "experi": 3736,
   "fel": 3737,
   "descrip": 3738,
   "entemente": 3739,
   "vamente": 3740,
   "receive": 3741,
   "clar": 3742,
   "emo": 3743,
   "rápi": 3744,
   "digital": 3745,
   "abili": 3746,
   "tamente": 3747,
   "reno": 3748,
   "seleccion": 3749,
   "productos": 3750,
   "interes": 3751,
   "disponible": 3752,
   "organización": 3753,
   "ayuda": 3754,
   "epithelial": 3755,
   "wolf": 3756,
   "medal": 3757,
   "acel": 3758,
   "cuatro": 3759,
   "yó": 3760,
   "ológ": 3761,
   "siglos": 3762,
   "posteriormente": 3763,
   "ciudades": 3764,
   "estuvo": 3765,
   "​​​": 3766,
   "éndose": 3767,
   "pública": 3768,
   "urban": 3769,
   "broad": 3770,
   "ji": 3771,
   "equality": 3772,
   "links": 3773,
   "generally": 3774,
   "ato": 3775,
   "meas": 3776,
   "visi": 3777,
   "electro": 3778,
   "mann": 3779,
   "market": 3780,
   "having": 3781,
   "sett": 3782,
   "friend": 3783,
   "live": 3784,
   "important": 3785,
   "engineer": 3786,
   "jack": 3787,
   "experiment": 3788,
   "funcion": 3789,
   "ders": 3790,
   "dientes": 3791,
   "estándar": 3792,
   "writing": 3793,
   "tok": 3794,
   "último": 3795,
   "problemas": 3796,
   "nuestros": 3797,
   "mj": 3798,
   "mico": 3799,
   "hindú": 3800,
   "crecimiento": 3801,
   "reconoci": 3802,
   "quienes": 3803,
   "estren": 3804,
   "cuales": 3805,
   "powerpoint": 3806,
   "god": 3807,
   "adap": 3808,
   "civi": 3809,
   "christian": 3810,
   "pros": 3811,
   "bean": 3812,
   "pedia": 3813,
   "canadian": 3814,
   "freed": 3815,
   "usion": 3816,
   "orial": 3817,
   "computers": 3818,
   "techni": 3819,
   "pic": 3820,
   "permit": 3821,
   "lower": 3822,
   "magne": 3823,
   "defined": 3824,
   "onal": 3825,
   "subsi": 3826,
   "scot": 3827,
   "commercial": 3828,
   "py": 3829,
   "ysis": 3830,
   "utili": 3831,
   "achie": 3832,
   "continued": 3833,
   "dates": 3834,
   "initi": 3835,
   "japan": 3836,
   "center": 3837,
   "row": 3838,
   "held": 3839,
   "competi": 3840,
   "approach": 3841,
   "near": 3842,
   "unds": 3843,
   "acuerdo": 3844,
   "mano": 3845,
   "biblio": 3846,
   "remin": 3847,
   "formas": 3848,
   "febrero": 3849,
   "grande": 3850,
   "thir": 3851,
   "alex": 3852,
   "centr": 3853,
   "política": 3854,
   "yos": 3855,
   "estru": 3856,
   "sería": 3857,
   "artícu": 3858,
   "lear": 3859,
   "dirección": 3860,
   "adu": 3861,
   "ará": 3862,
   "secre": 3863,
   "otor": 3864,
   "ventas": 3865,
   "actualización": 3866,
   "sea": 3867,
   "querido": 3868,
   "hac": 3869,
   "revis": 3870,
   "vulner": 3871,
   "electrónico": 3872,
   "d}": 3873,
   "{d}": 3874,
   "mathrm": 3875,
   "kwh": 3876,
   "desnu": 3877,
   "tierra": 3878,
   "islas": 3879,
   "importantes": 3880,
   "antiguo": 3881,
   "jay": 3882,
   "tración": 3883,
   "reinos": 3884,
   "arias": 3885,
   "alcanzó": 3886,
   "mbia": 3887,
   "femenino": 3888,
   "osas": 3889,
   "compil": 3890,
   "scen": 3891,
   "diale": 3892,
   "conserva": 3893,
   "russian": 3894,
   "freedom": 3895,
   "feder": 3896,
   "bridge": 3897,
   "franci": 3898,
   "rev": 3899,
   "paul": 3900,
   "hate": 3901,
   "half": 3902,
   "cros": 3903,
   "ned": 3904,
   "typ": 3905,
   "faster": 3906,
   "mc": 3907,
   "path": 3908,
   "banking": 3909,
   "richard": 3910,
   "short": 3911,
   "conne": 3912,
   "days": 3913,
   "limited": 3914,
   "big": 3915,
   "password": 3916,
   "rest": 3917,
   "anas": 3918,
   "jour": 3919,
   "área": 3920,
   "fundam": 3921,
   "partner": 3922,
   "cris": 3923,
   "nes": 3924,
   "avan": 3925,
   "enfr": 3926,
   "puerto": 3927,
   "registr": 3928,
   "objetivo": 3929,
   "anunci": 3930,
   "bes": 3931,
   "cele": 3932,
   "última": 3933,
   "puesta": 3934,
   "ciencia": 3935,
   "ár": 3936,
   "tecnología": 3937,
   "gracias": 3938,
   "cialmente": 3939,
   "pornográfic": 3940,
   "oid": 3941,
   "manx": 3942,
   "irland": 3943,
   "metros": 3944,
   "fuerte": 3945,
   "musul": 3946,
   "sociedades": 3947,
   "economía": 3948,
   "independiente": 3949,
   "programas": 3950,
   "ándose": 3951,
   "mascul": 3952,
   "regional": 3953,
   "classi": 3954,
   "tai": 3955,
   "item": 3956,
   "race": 3957,
   "programming": 3958,
   "explo": 3959,
   "sequ": 3960,
   "add": 3961,
   "ology": 3962,
   "awards": 3963,
   "gb": 3964,
   "stated": 3965,
   "ways": 3966,
   "water": 3967,
   "été": 3968,
   "société": 3969,
   "thomas": 3970,
   "pie": 3971,
   "ight": 3972,
   "holding": 3973,
   "notes": 3974,
   "effici": 3975,
   "dation": 3976,
   "counter": 3977,
   "andre": 3978,
   "ready": 3979,
   "you'": 3980,
   "cher": 3981,
   "canti": 3982,
   "intelli": 3983,
   "juegos": 3984,
   "siones": 3985,
   "refle": 3986,
   "cand": 3987,
   "immedi": 3988,
   "mali": 3989,
   "ox": 3990,
   "próximo": 3991,
   "ofer": 3992,
   "cerr": 3993,
   "photo": 3994,
   "mez": 3995,
   "payment": 3996,
   "valor": 3997,
   "algo": 3998,
   "destin": 3999,
   "especies": 4000,
   "russell": 4001,
   "manes": 4002,
   "histór": 4003,
   "grupos": 4004,
   "menor": 4005,
   "llegó": 4006,
   "caden": 4007,
   "ira": 4008,
   "mbr": 4009,
   "etc": 4010,
   "retir": 4011,
   "suite": 4012,
   "xico": 4013,
   "criteria": 4014,
   "continent": 4015,
   "auton": 4016,
   "spanish": 4017,
   "replaced": 4018,
   "stan": 4019,
   "automa": 4020,
   "woman": 4021,
   "sites": 4022,
   "logo": 4023,
   "civil": 4024,
   "asing": 4025,
   "lou": 4026,
   "thema": 4027,
   "ether": 4028,
   "mur": 4029,
   "society": 4030,
   "france": 4031,
   "von": 4032,
   "ization": 4033,
   "priv": 4034,
   "employees": 4035,
   "scri": 4036,
   "sun": 4037,
   "colla": 4038,
   "yed": 4039,
   "rang": 4040,
   "related": 4041,
   "ented": 4042,
   "problem": 4043,
   "journal": 4044,
   "investment": 4045,
   "provide": 4046,
   "alert": 4047,
   "estima": 4048,
   "ttery": 4049,
   "today": 4050,
   "puestos": 4051,
   "ciendo": 4052,
   "ota": 4053,
   "atten": 4054,
   "extra": 4055,
   "response": 4056,
   "materi": 4057,
   "crea": 4058,
   "corp": 4059,
   "hecho": 4060,
   "velocidad": 4061,
   "ster": 4062,
   "edición": 4063,
   "talla": 4064,
   "xima": 4065,
   "immediately": 4066,
   "addres": 4067,
   "bon": 4068,
   "gal": 4069,
   "expe": 4070,
   "debe": 4071,
   "cien": 4072,
   "dación": 4073,
   "página": 4074,
   "recom": 4075,
   "señor": 4076,
   "diseño": 4077,
   "detall": 4078,
   "asteroid": 4079,
   "palab": 4080,
   "británicos": 4081,
   "puntos": 4082,
   "budis": 4083,
   "frecu": 4084,
   "distribución": 4085,
   "méxico": 4086,
   "propiedad": 4087,
   "raj": 4088,
   "wik": 4089,
   "venezuela": 4090,
   "morph": 4091,
   "gay": 4092,
   "aire": 4093,
   "douglas": 4094,
   "hill": 4095,
   "mph": 4096,
   "complex": 4097,
   "ambi": 4098,
   "abr": 4099,
   "creen": 4100,
   "terror": 4101,
   "elves": 4102,
   "muni": 4103,
   "squ": 4104,
   "musk's": 4105,
   "ancient": 4106,
   "ures": 4107,
   "five": 4108,
   "itch": 4109,
   "terms": 4110,
   "separa": 4111,
   "cities": 4112,
   "struc": 4113,
   "assu": 4114,
   "ray": 4115,
   "frac": 4116,
   "verse": 4117,
   "acuum": 4118,
   "vacuum": 4119,
   "previously": 4120,
   "constant": 4121,
   "pain": 4122,
   "ross": 4123,
   "subsidi": 4124,
   "bul": 4125,
   "eles": 4126,
   "posts": 4127,
   "gate": 4128,
   "left": 4129,
   "safe": 4130,
   "eas": 4131,
   "uled": 4132,
   "pc": 4133,
   "financial": 4134,
   "issues": 4135,
   "potential": 4136,
   "earli": 4137,
   "reminder": 4138,
   "depart": 4139,
   "messa": 4140,
   "full": 4141,
   "protect": 4142,
   "issue": 4143,
   "help": 4144,
   "insur": 4145,
   "abri": 4146,
   "formación": 4147,
   "cuar": 4148,
   "hr": 4149,
   "mentos": 4150,
   "consejo": 4151,
   "cum": 4152,
   "graphic": 4153,
   "itas": 4154,
   "alto": 4155,
   "ciación": 4156,
   "plus": 4157,
   "aument": 4158,
   "gó": 4159,
   "tarjeta": 4160,
   "detalles": 4161,
   "solici": 4162,
   "tercer": 4163,
   "roode": 4164,
   "manson": 4165,
   "batería": 4166,
   "diseñ": 4167,
   "vuelta": 4168,
   "concepto": 4169,
   "incluso": 4170,
   "pakistán": 4171,
   "matemá": 4172,
   "literatura": 4173,
   "formar": 4174,
   "tori": 4175,
   "géneros": 4176,
   "estaban": 4177,
   "sitios": 4178,
   "dieron": 4179,
   "flu": 4180,
   "arin": 4181,
   "seasons": 4182,
   "nis": 4183,
   "hardware": 4184,
   "install": 4185,
   "pren": 4186,
   "founder": 4187,
   "contain": 4188,
   "basic": 4189,
   "thems": 4190,
   "ison": 4191,
   "aspe": 4192,
   "lgb": 4193,
   "argued": 4194,
   "poly": 4195,
   "mechan": 4196,
   "fact": 4197,
   "exp": 4198,
   "consist": 4199,
   "mathema": 4200,
   "typically": 4201,
   "itz": 4202,
   "gaz": 4203,
   "sey": 4204,
   "guer": 4205,
   "release": 4206,
   "boo": 4207,
   "analysis": 4208,
   "nie": 4209,
   "tivity": 4210,
   "additional": 4211,
   "fully": 4212,
   "step": 4213,
   "recent": 4214,
   "ogle": 4215,
   "google": 4216,
   "fail": 4217,
   "require": 4218,
   "protection": 4219,
   "activity": 4220,
   "sum": 4221,
   "card": 4222,
   "insurance": 4223,
   "selected": 4224,
   "quite": 4225,
   "códi": 4226,
   "siem": 4227,
   "union": 4228,
   "dado": 4229,
   "victor": 4230,
   "modi": 4231,
   "fis": 4232,
   "cerca": 4233,
   "prior": 4234,
   "podr": 4235,
   "infected": 4236,
   "election": 4237,
   "premium": 4238,
   "descar": 4239,
   "muestra": 4240,
   "imagen": 4241,
   "nacionales": 4242,
   "industrial": 4243,
   "enlace": 4244,
   "pó": 4245,
   "oportun": 4246,
   "vía": 4247,
   "zar": 4248,
   "ficar": 4249,
   "salud": 4250,
   "cliente": 4251,
   "juan": 4252,
   "segundos": 4253,
   "carretera": 4254,
   "bretaña": 4255,
   "usar": 4256,
   "traje": 4257,
   "alberga": 4258,
   "función": 4259,
   "capacidad": 4260,
   "etapa": 4261,
   "británico": 4262,
   "afir": 4263,
   "ización": 4264,
   "centros": 4265,
   "territorio": 4266,
   "cone": 4267,
   "comerciales": 4268,
   "conocida": 4269,
   "sola": 4270,
   "sino": 4271,
   "ubic": 4272,
   "ibbean": 4273,
   "caribbean": 4274,
   "alem": 4275,
   "drive": 4276,
   "entertain": 4277,
   "population": 4278,
   "jean": 4279,
   "hindu": 4280,
   "juris": 4281,
   "mented": 4282,
   "invas": 4283,
   "supported": 4284,
   "format": 4285,
   "themselves": 4286,
   "along": 4287,
   "ator": 4288,
   "lor": 4289,
   "match": 4290,
   "lack": 4291,
   "cases": 4292,
   "mass": 4293,
   "independent": 4294,
   "inste": 4295,
   "sil": 4296,
   "minor": 4297,
   "ticle": 4298,
   "chr": 4299,
   "spread": 4300,
   "published": 4301,
   "ints": 4302,
   "collabor": 4303,
   "ised": 4304,
   "treat": 4305,
   "amo": 4306,
   "night": 4307,
   "received": 4308,
   "ppy": 4309,
   "fy": 4310,
   "upcoming": 4311,
   "concerns": 4312,
   "current": 4313,
   "industria": 4314,
   "ciclo": 4315,
   "annu": 4316,
   "calcu": 4317,
   "gente": 4318,
   "charity": 4319,
   "ingeniería": 4320,
   "realizar": 4321,
   "gado": 4322,
   "pta": 4323,
   "escu": 4324,
   "ética": 4325,
   "oportunidad": 4326,
   "carlos": 4327,
   "dido": 4328,
   "resol": 4329,
   "derivado": 4330,
   "escenas": 4331,
   "modelos": 4332,
   "hombres": 4333,
   "casos": 4334,
   "ladas": 4335,
   "locales": 4336,
   "creó": 4337,
   "gió": 4338,
   "mán": 4339,
   "gang": 4340,
   "dice": 4341,
   "originalmente": 4342,
   "espa": 4343,
   "primeras": 4344,
   "antil": 4345,
   "illa": 4346,
   "bomb": 4347,
   "copi": 4348,
   "box": 4349,
   "spoken": 4350,
   "interior": 4351,
   "debut": 4352,
   "dutch": 4353,
   "residen": 4354,
   "declaration": 4355,
   "thesis": 4356,
   "emer": 4357,
   "xx": 4358,
   "bab": 4359,
   "pornography": 4360,
   "audio": 4361,
   "six": 4362,
   "aris": 4363,
   "tup": 4364,
   "evolu": 4365,
   "micro": 4366,
   "neu": 4367,
   "nel": 4368,
   "scienti": 4369,
   "index": 4370,
   "pra": 4371,
   "management": 4372,
   "ball": 4373,
   "bers": 4374,
   "increase": 4375,
   "dance": 4376,
   "dated": 4377,
   "sched": 4378,
   "ites": 4379,
   "interest": 4380,
   "acade": 4381,
   "advan": 4382,
   "detected": 4383,
   "download": 4384,
   "excited": 4385,
   "actions": 4386,
   "jefe": 4387,
   "actividades": 4388,
   "periodo": 4389,
   "pación": 4390,
   "reem": 4391,
   "cambios": 4392,
   "marca": 4393,
   "áreas": 4394,
   "sable": 4395,
   "malware": 4396,
   "ire": 4397,
   "gira": 4398,
   "conferencia": 4399,
   "seguir": 4400,
   "misión": 4401,
   "realizado": 4402,
   "ganar": 4403,
   "micos": 4404,
   "urgente": 4405,
   "proces": 4406,
   "aquí": 4407,
   "ethic": 4408,
   "homosexual": 4409,
   "homer": 4410,
   "irlanda": 4411,
   "tone": 4412,
   "medida": 4413,
   "xix": 4414,
   "habían": 4415,
   "influencia": 4416,
   "lización": 4417,
   "comercio": 4418,
   "títulos": 4419,
   "dioma": 4420,
   "idioma": 4421,
   "mayores": 4422,
   "personaje": 4423,
   "brasil": 4424,
   "portugu": 4425,
   "nt": 4426,
   "wood": 4427,
   "zón": 4428,
   "genous": 4429,
   "hea": 4430,
   "encryp": 4431,
   "boot": 4432,
   "fabr": 4433,
   "gil": 4434,
   "dle": 4435,
   "flo": 4436,
   "bow": 4437,
   "aces": 4438,
   "kan": 4439,
   "screen": 4440,
   "cd": 4441,
   "rein": 4442,
   "gold": 4443,
   "android": 4444,
   "began": 4445,
   "search": 4446,
   "stone": 4447,
   "color": 4448,
   "inner": 4449,
   "planet": 4450,
   "rather": 4451,
   "took": 4452,
   "radio": 4453,
   "quan": 4454,
   "given": 4455,
   "laws": 4456,
   "evidence": 4457,
   "relation": 4458,
   "histor": 4459,
   "meaning": 4460,
   "objects": 4461,
   "magnetic": 4462,
   "omy": 4463,
   "industri": 4464,
   "global": 4465,
   "tom": 4466,
   "subscrip": 4467,
   "cement": 4468,
   "mentation": 4469,
   "phase": 4470,
   "newsletter": 4471,
   "analy": 4472,
   "reference": 4473,
   "exchange": 4474,
   "type": 4475,
   "fix": 4476,
   "east": 4477,
   "policy": 4478,
   "department": 4479,
   "apply": 4480,
   "paper": 4481,
   "código": 4482,
   "cantidad": 4483,
   "anual": 4484,
   "siempre": 4485,
   "nota": 4486,
   "corporation": 4487,
   "viles": 4488,
   "móviles": 4489,
   "zona": 4490,
   "proce": 4491,
   "consul": 4492,
   "plic": 4493,
   "leyes": 4494,
   "colabor": 4495,
   "asistencia": 4496,
   "pantalla": 4497,
   "lanzado": 4498,
   "depor": 4499,
   "scan": 4500,
   "thing": 4501,
   "horas": 4502,
   "participar": 4503,
   "ito": 4504,
   "édico": 4505,
   "decir": 4506,
   "ganó": 4507,
   "diendo": 4508,
   "complete": 4509,
   "prueba": 4510,
   "clic": 4511,
   "socio": 4512,
   "doctorado": 4513,
   "medicina": 4514,
   "promedio": 4515,
   "cuerpo": 4516,
   "especialmente": 4517,
   "cima": 4518,
   "itud": 4519,
   "marath": 4520,
   "afgan": 4521,
   "suele": 4522,
   "primero": 4523,
   "tipos": 4524,
   "historias": 4525,
   "ól": 4526,
   "lán": 4527,
   "argentina": 4528,
   "medios": 4529,
   "movimiento": 4530,
   "canales": 4531,
   "cadena": 4532,
   "tieron": 4533,
   "dedic": 4534,
   "entertainment": 4535,
   "resto": 4536,
   "abe": 4537,
   "ng": 4538,
   "storm": 4539,
   "ux": 4540,
   "african": 4541,
   "doc": 4542,
   "viet": 4543,
   "indigenous": 4544,
   "aca": 4545,
   "peoples": 4546,
   "chal": 4547,
   "island": 4548,
   "iii": 4549,
   "tores": 4550,
   "aband": 4551,
   "ens": 4552,
   "transgender": 4553,
   "pib": 4554,
   "oblig": 4555,
   "gla": 4556,
   "followed": 4557,
   "designed": 4558,
   "tier": 4559,
   "elon": 4560,
   "anima": 4561,
   "scholar": 4562,
   "lunar": 4563,
   "practice": 4564,
   "round": 4565,
   "ither": 4566,
   "quantum": 4567,
   "cit": 4568,
   "distance": 4569,
   "unit": 4570,
   "study": 4571,
   "wide": 4572,
   "chap": 4573,
   "merged": 4574,
   "gor": 4575,
   "stop": 4576,
   "cham": 4577,
   "launched": 4578,
   "sharing": 4579,
   "alized": 4580,
   "ony": 4581,
   "updates": 4582,
   "purch": 4583,
   "traditional": 4584,
   "iring": 4585,
   "credit": 4586,
   "compromised": 4587,
   "arquite": 4588,
   "ruta": 4589,
   "gence": 4590,
   "leading": 4591,
   "anterior": 4592,
   "separ": 4593,
   "cámara": 4594,
   "mucho": 4595,
   "acto": 4596,
   "zado": 4597,
   "recu": 4598,
   "artificial": 4599,
   "completo": 4600,
   "fá": 4601,
   "adé": 4602,
   "inmedia": 4603,
   "martin": 4604,
   "cía": 4605,
   "mandarin": 4606,
   "beer": 4607,
   "eléctrico": 4608,
   "archivos": 4609,
   "consigui": 4610,
   "imá": 4611,
   "suk": 4612,
   "hyun": 4613,
   "carreras": 4614,
   "responsable": 4615,
   "político": 4616,
   "autonomía": 4617,
   "seis": 4618,
   "cito": 4619,
   "grie": 4620,
   "muerte": 4621,
   "patro": 4622,
   "bom": 4623,
   "delhi": 4624,
   "sultanato": 4625,
   "noroeste": 4626,
   "budismo": 4627,
   "ellas": 4628,
   "anteriormente": 4629,
   "popularidad": 4630,
   "yas": 4631,
   "latinoamérica": 4632,
   "supply": 4633,
   "teros": 4634,
   "terf": 4635,
   "atr": 4636,
   "script": 4637,
   "visual": 4638,
   "kong": 4639,
   "produce": 4640,
   "bru": 4641,
   "cipl": 4642,
   "discipl": 4643,
   "primary": 4644,
   "built": 4645,
   "father": 4646,
   "abandon": 4647,
   "girl": 4648,
   "film": 4649,
   "added": 4650,
   "occurred": 4651,
   "francisco": 4652,
   "robin": 4653,
   "criticized": 4654,
   "boy": 4655,
   "diffic": 4656,
   "mm": 4657,
   "directly": 4658,
   "least": 4659,
   "memory": 4660,
   "tically": 4661,
   "claimed": 4662,
   "physicist": 4663,
   "science": 4664,
   "books": 4665,
   "cie": 4666,
   "arian": 4667,
   "iss": 4668,
   "taken": 4669,
   "frame": 4670,
   "fas": 4671,
   "agu": 4672,
   "ining": 4673,
   "working": 4674,
   "solar": 4675,
   "foundation": 4676,
   "success": 4677,
   "bud": 4678,
   "organization": 4679,
   "techn": 4680,
   "hp": 4681,
   "valued": 4682,
   "delay": 4683,
   "client": 4684,
   "conciertos": 4685,
   "mí": 4686,
   "feedback": 4687,
   "annual": 4688,
   "cole": 4689,
   "libre": 4690,
   "aplicaciones": 4691,
   "irse": 4692,
   "campañ": 4693,
   "dre": 4694,
   "conflic": 4695,
   "orios": 4696,
   "enfrent": 4697,
   "hotel": 4698,
   "ut": 4699,
   "contras": 4700,
   "cursos": 4701,
   "escrit": 4702,
   "producto": 4703,
   "cciones": 4704,
   "empresas": 4705,
   "acadé": 4706,
   "acciones": 4707,
   "efici": 4708,
   "publi": 4709,
   "evitar": 4710,
   "ganado": 4711,
   "cidades": 4712,
   "vehículos": 4713,
   "aceler": 4714,
   "desnudo": 4715,
   "término": 4716,
   "ística": 4717,
   "vela": 4718,
   "provo": 4719,
   "ark": 4720,
   "desplaz": 4721,
   "funciones": 4722,
   "patrocin": 4723,
   "tiempos": 4724,
   "condiciones": 4725,
   "lengua": 4726,
   "ctores": 4727,
   "posee": 4728,
   "guay": 4729,
   "cida": 4730,
   "hai": 4731,
   "commons": 4732,
   "extr": 4733,
   "dll": 4734,
   "nin": 4735,
   "depu": 4736,
   "chur": 4737,
   "middle": 4738,
   "police": 4739,
   "fred": 4740,
   "usage": 4741,
   "fox": 4742,
   "ington": 4743,
   "bic": 4744,
   "cis": 4745,
   "rite": 4746,
   "write": 4747,
   "blue": 4748,
   "majority": 4749,
   "multiple": 4750,
   "criticism": 4751,
   "ked": 4752,
   "acquisi": 4753,
   "adopted": 4754,
   "standards": 4755,
   "removed": 4756,
   "essen": 4757,
   "ago": 4758,
   "communications": 4759,
   "havi": 4760,
   "proper": 4761,
   "across": 4762,
   "gation": 4763,
   "cannot": 4764,
   "imper": 4765,
   "definition": 4766,
   "ants": 4767,
   "finite": 4768,
   "velocity": 4769,
   "miles": 4770,
   "pens": 4771,
   "isle": 4772,
   "continental": 4773,
   "wald": 4774,
   "landes": 4775,
   "zbank": 4776,
   "abank": 4777,
   "paign": 4778,
   "wel": 4779,
   "energy": 4780,
   "gether": 4781,
   "wed": 4782,
   "events": 4783,
   "i'm": 4784,
   "ome": 4785,
   "ging": 4786,
   "apple": 4787,
   "too": 4788,
   "soon": 4789,
   "prof": 4790,
   "house": 4791,
   "anth": 4792,
   "technical": 4793,
   "cks": 4794,
   "contest": 4795,
   "don't": 4796,
   "dead": 4797,
   "itales": 4798,
   "guar": 4799,
   "quin": 4800,
   "actualidad": 4801,
   "minutos": 4802,
   "ene": 4803,
   "experien": 4804,
   "tene": 4805,
   "note": 4806,
   "entas": 4807,
   "configur": 4808,
   "equipos": 4809,
   "invitation": 4810,
   "ilidades": 4811,
   "sali": 4812,
   "qued": 4813,
   "informe": 4814,
   "extran": 4815,
   "operativo": 4816,
   "recuper": 4817,
   "ofre": 4818,
   "confirmación": 4819,
   "clientes": 4820,
   "dem": 4821,
   "reserva": 4822,
   "activa": 4823,
   "presencia": 4824,
   "asegur": 4825,
   "org": 4826,
   "ah": 4827,
   "mite": 4828,
   "acces": 4829,
   "llama": 4830,
   "paypal": 4831,
   "mensaje": 4832,
   "seguro": 4833,
   "sexualidad": 4834,
   "caixabank": 4835,
   "menudo": 4836,
   "gangsta": 4837,
   "voz": 4838,
   "multimedia": 4839,
   "comparti": 4840,
   "imágenes": 4841,
   "victori": 4842,
   "artistas": 4843,
   "dejó": 4844,
   "só": 4845,
   "atra": 4846,
   "ocasiones": 4847,
   "dían": 4848,
   "británicas": 4849,
   "indios": 4850,
   "gupta": 4851,
   "micas": 4852,
   "asim": 4853,
   "ífico": 4854,
   "ámica": 4855,
   "ginas": 4856,
   "páginas": 4857,
   "tenían": 4858,
   "propio": 4859,
   "aparece": 4860,
   "infantil": 4861,
   "dentes": 4862,
   "suscrip": 4863,
   "imedia": 4864,
   "wikimedia": 4865,
   "meetup": 4866,
   "anos": 4867,
   "arca": 4868,
   "comics": 4869,
   "tama": 4870,
   "ares": 4871,
   "television": 4872,
   "hong": 4873,
   "destru": 4874,
   "consecu": 4875,
   "women's": 4876,
   "aries": 4877,
   "die": 4878,
   "resour": 4879,
   "sie": 4880,
   "kur": 4881,
   "items": 4882,
   "’s": 4883,
   "ush": 4884,
   "frank": 4885,
   "formed": 4886,
   "influen": 4887,
   "originally": 4888,
   "twitter's": 4889,
   "organis": 4890,
   "institute": 4891,
   "techniques": 4892,
   "allows": 4893,
   "lit": 4894,
   "lf": 4895,
   "decision": 4896,
   "desig": 4897,
   "campaign": 4898,
   "subscription": 4899,
   "taking": 4900,
   "indic": 4901,
   "longer": 4902,
   "ring": 4903,
   "attemp": 4904,
   "grand": 4905,
   "scheduled": 4906,
   "cable": 4907,
   "cv": 4908,
   "role": 4909,
   "cover": 4910,
   "opportun": 4911,
   "hours": 4912,
   "lottery": 4913,
   "package": 4914,
   "ference": 4915,
   "scam": 4916,
   "afect": 4917,
   "respecto": 4918,
   "onio": 4919,
   "tiendo": 4920,
   "existen": 4921,
   "comienza": 4922,
   "start": 4923,
   "propos": 4924,
   "clases": 4925,
   "buen": 4926,
   "llevó": 4927,
   "llevar": 4928,
   "jó": 4929,
   "exped": 4930,
   "antigua": 4931,
   "regres": 4932,
   "estoy": 4933,
   "asociación": 4934,
   "lares": 4935,
   "cargo": 4936,
   "mantener": 4937,
   "meta": 4938,
   "queda": 4939,
   "bús": 4940,
   "mej": 4941,
   "importancia": 4942,
   "impres": 4943,
   "édito": 4944,
   "ingres": 4945,
   "viaje": 4946,
   "recibir": 4947,
   "desk": 4948,
   "comput": 4949,
   "{f": 4950,
   "detective": 4951,
   "sylla": 4952,
   "tijo": 4953,
   "acertijo": 4954,
   "dl": 4955,
   "kw": 4956,
   "representación": 4957,
   "publicación": 4958,
   "informática": 4959,
   "km²": 4960,
   "bertad": 4961,
   "desarrol": 4962,
   "elas": 4963,
   "idiomas": 4964,
   "lago": 4965,
   "común": 4966,
   "ejér": 4967,
   "permane": 4968,
   "dicos": 4969,
   "términos": 4970,
   "obras": 4971,
   "máximo": 4972,
   "dominio": 4973,
   "filos": 4974,
   "resultado": 4975,
   "valle": 4976,
   "mencion": 4977,
   "críticas": 4978,
   "suces": 4979,
   "trasla": 4980,
   "producir": 4981,
   "diferencia": 4982,
   "similares": 4983,
   "oneer": 4984,
   "pioneer": 4985,
   "vd": 4986,
   "tournam": 4987,
   "sel": 4988,
   "css": 4989,
   "kill": 4990,
   "drama": 4991,
   "provin": 4992,
   "bah": 4993,
   "george": 4994,
   "describe": 4995,
   "host": 4996,
   "works": 4997,
   "hypo": 4998,
   "zi": 4999,
   "scul": 5000,
   "associ": 5001,
   "third": 5002,
   "bour": 5003,
   "fines": 5004,
   "governments": 5005,
   "cau": 5006,
   "lgbt": 5007,
   "despi": 5008,
   "philosophy": 5009,
   "increasing": 5010,
   "repe": 5011,
   "parts": 5012,
   "types": 5013,
   "gies": 5014,
   "astr": 5015,
   "plied": 5016,
   "sym": 5017,
   "therefore": 5018,
   "wave": 5019,
   "agreement": 5020,
   "exact": 5021,
   "alli": 5022,
   "vant": 5023,
   "expla": 5024,
   "signed": 5025,
   "reading": 5026,
   "operations": 5027,
   "subscri": 5028,
   "mers": 5029,
   "necess": 5030,
   "together": 5031,
   "birth": 5032,
   "experience": 5033,
   "location": 5034,
   "products": 5035,
   "attempt": 5036,
   "save": 5037,
   "provided": 5038,
   "might": 5039,
   "recommen": 5040,
   "going": 5041,
   "branch": 5042,
   "solution": 5043,
   "private": 5044,
   "developer": 5045,
   "revi": 5046,
   "worth": 5047,
   "opportunity": 5048,
   "fla": 5049,
   "changed": 5050,
   "flight": 5051,
   "listed": 5052,
   "competen": 5053,
   "companies": 5054,
   "anto": 5055,
   "comis": 5056,
   "mados": 5057,
   "intent": 5058,
   "formal": 5059,
   "nan": 5060,
   "carrera": 5061,
   "abier": 5062,
   "lucha": 5063,
   "nación": 5064,
   "paso": 5065,
   "oxford": 5066,
   "delivery": 5067,
   "agen": 5068,
   "pasa": 5069,
   "amor": 5070,
   "envi": 5071,
   "fundación": 5072,
   "actividad": 5073,
   "aumento": 5074,
   "ofic": 5075,
   "papel": 5076,
   "tida": 5077,
   "tienes": 5078,
   "haz": 5079,
   "meses": 5080,
   "usted": 5081,
   "feli": 5082,
   "transfer": 5083,
   "pingü": 5084,
   "joker": 5085,
   "corriente": 5086,
   "penínsulas": 5087,
   "chemical": 5088,
   "uci": 5089,
   "campeón": 5090,
   "cicl": 5091,
   "ticamente": 5092,
   "listas": 5093,
   "revistas": 5094,
   "conjunto": 5095,
   "igles": 5096,
   "cera": 5097,
   "engala": 5098,
   "bengala": 5099,
   "zos": 5100,
   "conquist": 5101,
   "flore": 5102,
   "hindúes": 5103,
   "existe": 5104,
   "iza": 5105,
   "trabajos": 5106,
   "adoles": 5107,
   "víde": 5108,
   "colombia": 5109,
   "luz": 5110,
   "últimos": 5111,
   "señales": 5112,
   "unci": 5113,
   "compo": 5114,
   "xml": 5115,
   "enote": 5116,
   "onenote": 5117,
   "escal": 5118,
   "swed": 5119,
   "wells": 5120,
   "fire": 5121,
   "female": 5122,
   "opposition": 5123,
   "tified": 5124,
   "movements": 5125,
   "ctures": 5126,
   "mental": 5127,
   "muse": 5128,
   "edge": 5129,
   "abilities": 5130,
   "wiz": 5131,
   "japanese": 5132,
   "conce": 5133,
   "create": 5134,
   "federal": 5135,
   "suit": 5136,
   "migr": 5137,
   "instead": 5138,
   "begin": 5139,
   "ciated": 5140,
   "principle": 5141,
   "especially": 5142,
   "frequency": 5143,
   "thus": 5144,
   "rt": 5145,
   "dynam": 5146,
   "mini": 5147,
   "division": 5148,
   "glass": 5149,
   "materials": 5150,
   "bound": 5151,
   "proposed": 5152,
   "waves": 5153,
   "bey": 5154,
   "italian": 5155,
   "ania": 5156,
   "cm": 5157,
   "records": 5158,
   "lia": 5159,
   "mary": 5160,
   "swe": 5161,
   "sale": 5162,
   "health": 5163,
   "quick": 5164,
   "foreign": 5165,
   "required": 5166,
   "lux": 5167,
   "hello": 5168,
   "hope": 5169,
   "gible": 5170,
   "representative": 5171,
   "reply": 5172,
   "gratulations": 5173,
   "congratulations": 5174,
   "track": 5175,
   "learn": 5176,
   "opin": 5177,
   "responsab": 5178,
   "indica": 5179,
   "fundamental": 5180,
   "ordin": 5181,
   "itan": 5182,
   "genera": 5183,
   "lóg": 5184,
   "políticas": 5185,
   "protección": 5186,
   "expedi": 5187,
   "desem": 5188,
   "rami": 5189,
   "fortun": 5190,
   "dida": 5191,
   "aplic": 5192,
   "situación": 5193,
   "facebook": 5194,
   "mejores": 5195,
   "requiere": 5196,
   "crédito": 5197,
   "xy": 5198,
   "inversión": 5199,
   "contacto": 5200,
   "interés": 5201,
   "belt": 5202,
   "tissue": 5203,
   "cad": 5204,
   "villan": 5205,
   "gales": 5206,
   "billboard": 5207,
   "sencil": 5208,
   "disposi": 5209,
   "mayas": 5210,
   "diversas": 5211,
   "padre": 5212,
   "tradicional": 5213,
   "titud": 5214,
   "militar": 5215,
   "convertir": 5216,
   "tribus": 5217,
   "tismo": 5218,
   "mogol": 5219,
   "chola": 5220,
   "chaluk": 5221,
   "asiá": 5222,
   "comenzaron": 5223,
   "textos": 5224,
   "independencia": 5225,
   "conect": 5226,
   "civilización": 5227,
   "ualmente": 5228,
   "relaciones": 5229,
   "espect": 5230,
   "clasificación": 5231,
   "pequeños": 5232,
   "ezas": 5233,
   "líder": 5234,
   "dicho": 5235,
   "hé": 5236,
   "espacio": 5237,
   "aliano": 5238,
   "dvd": 5239,
   "hibi": 5240,
   "tennis": 5241,
   "optimizations": 5242,
   "compi": 5243,
   "desktop": 5244,
   "norm": 5245,
   "administr": 5246,
   "pala": 5247,
   "apari": 5248,
   "psy": 5249,
   "located": 5250,
   "udhr": 5251,
   "particularly": 5252,
   "referred": 5253,
   "rar": 5254,
   "viron": 5255,
   "environ": 5256,
   "channel": 5257,
   "regula": 5258,
   "wizard": 5259,
   "dot": 5260,
   "jose": 5261,
   "southern": 5262,
   "kin": 5263,
   "notable": 5264,
   "coinci": 5265,
   "austr": 5266,
   "focus": 5267,
   "nbc": 5268,
   "organizations": 5269,
   "alleg": 5270,
   "integration": 5271,
   "acquisition": 5272,
   "education": 5273,
   "founded": 5274,
   "young": 5275,
   "despite": 5276,
   "sibility": 5277,
   "sociated": 5278,
   "associated": 5279,
   "planets": 5280,
   "ground": 5281,
   "nega": 5282,
   "exo": 5283,
   "infer": 5284,
   "either": 5285,
   "observed": 5286,
   "approxim": 5287,
   "comporta": 5288,
   "republic": 5289,
   "ises": 5290,
   "commerzbank": 5291,
   "figur": 5292,
   "industry": 5293,
   "parent": 5294,
   "sional": 5295,
   "company's": 5296,
   "sv": 5297,
   "launch": 5298,
   "corner": 5299,
   "plate": 5300,
   "increased": 5301,
   "discuss": 5302,
   "binary": 5303,
   "gious": 5304,
   "speak": 5305,
   "restor": 5306,
   "removal": 5307,
   "atlan": 5308,
   "happy": 5309,
   "ume": 5310,
   "opening": 5311,
   "thank": 5312,
   "believe": 5313,
   "range": 5314,
   "confirmation": 5315,
   "roll": 5316,
   "aud": 5317,
   "esc": 5318,
   "estad": 5319,
   "crear": 5320,
   "creación": 5321,
   "económica": 5322,
   "especiales": 5323,
   "prob": 5324,
   "submit": 5325,
   "employee": 5326,
   "miembro": 5327,
   "secure": 5328,
   "bene": 5329,
   "calend": 5330,
   "lider": 5331,
   "dispu": 5332,
   "paración": 5333,
   "registro": 5334,
   "magn": 5335,
   "tokyo": 5336,
   "artículos": 5337,
   "ería": 5338,
   "idades": 5339,
   "construcción": 5340,
   "distancia": 5341,
   "vidad": 5342,
   "malicious": 5343,
   "campo": 5344,
   "vac": 5345,
   "acab": 5346,
   "taur": 5347,
   "resolu": 5348,
   "presente": 5349,
   "turas": 5350,
   "ficado": 5351,
   "oferta": 5352,
   "dinero": 5353,
   "teor": 5354,
   "gue": 5355,
   "ofreci": 5356,
   "fono": 5357,
   "telé": 5358,
   "verificar": 5359,
   "lee": 5360,
   "necesita": 5361,
   "{f}": 5362,
   "ardment": 5363,
   "bombardment": 5364,
   "arkham": 5365,
   "gadas": 5366,
   "inventor": 5367,
   "medallas": 5368,
   "edifi": 5369,
   "quí": 5370,
   "tero": 5371,
   "derecho": 5372,
   "tyn": 5373,
   "ficción": 5374,
   "recarga": 5375,
   "encuentran": 5376,
   "cock": 5377,
   "pista": 5378,
   "descubri": 5379,
   "estación": 5380,
   "policía": 5381,
   "anza": 5382,
   "recibió": 5383,
   "viven": 5384,
   "rápida": 5385,
   "frente": 5386,
   "ífer": 5387,
   "plantas": 5388,
   "elementos": 5389,
   "tercera": 5390,
   "estableció": 5391,
   "sober": 5392,
   "negro": 5393,
   "alla": 5394,
   "rí": 5395,
   "administración": 5396,
   "dente": 5397,
   "publicado": 5398,
   "humanos": 5399,
   "afganistán": 5400,
   "volvió": 5401,
   "cadas": 5402,
   "ocur": 5403,
   "posteriores": 5404,
   "únicamente": 5405,
   "masi": 5406,
   "autores": 5407,
   "izada": 5408,
   "patr": 5409,
   "'the": 5410,
   "mond": 5411,
   "swedish": 5412,
   "older": 5413,
   "libr": 5414,
   "guide": 5415,
   "gros": 5416,
   "henry": 5417,
   "contempor": 5418,
   "igh": 5419,
   "church": 5420,
   "ller": 5421,
   "deca": 5422,
   "biological": 5423,
   "wis": 5424,
   "creation": 5425,
   "berg": 5426,
   "mix": 5427,
   "reve": 5428,
   "pilot": 5429,
   "examples": 5430,
   "entire": 5431,
   "lip": 5432,
   "yn": 5433,
   "studies": 5434,
   "videos": 5435,
   "strong": 5436,
   "tures": 5437,
   "black": 5438,
   "ald": 5439,
   "michel": 5440,
   "orb": 5441,
   "bot": 5442,
   "always": 5443,
   "means": 5444,
   "behavi": 5445,
   "expand": 5446,
   "angle": 5447,
   "conditions": 5448,
   "structure": 5449,
   "scientist": 5450,
   "accur": 5451,
   "define": 5452,
   "ond": 5453,
   "outside": 5454,
   "moon": 5455,
   "length": 5456,
   "stock": 5457,
   "lt": 5458,
   "stein": 5459,
   "mutu": 5460,
   "eo": 5461,
   "once": 5462,
   "upon": 5463,
   "article": 5464,
   "publica": 5465,
   "comes": 5466,
   "interface": 5467,
   "pson": 5468,
   "edition": 5469,
   "reven": 5470,
   "collaboration": 5471,
   "performing": 5472,
   "gam": 5473,
   "description": 5474,
   "finaliz": 5475,
   "strateg": 5476,
   "ugh": 5477,
   "looking": 5478,
   "factor": 5479,
   "enga": 5480,
   "ough": 5481,
   "arri": 5482,
   "store": 5483,
   "winning": 5484,
   "monitor": 5485,
   "suspi": 5486,
   "estimated": 5487,
   "llegar": 5488,
   "hijo": 5489,
   "ideas": 5490,
   "tante": 5491,
   "pertene": 5492,
   "reemplaz": 5493,
   "eventos": 5494,
   "usión": 5495,
   "unas": 5496,
   "dencias": 5497,
   "ficaciones": 5498,
   "aero": 5499,
   "barri": 5500,
   "activos": 5501,
   "address": 5502,
   "active": 5503,
   "inteli": 5504,
   "timo": 5505,
   "garanti": 5506,
   "page": 5507,
   "celebr": 5508,
   "tenido": 5509,
   "móvil": 5510,
   "conocer": 5511,
   "olí": 5512,
   "eur": 5513,
   "constante": 5514,
   "tenemos": 5515,
   "reca": 5516,
   "identidad": 5517,
   "episode": 5518,
   "rocks": 5519,
   "regions": 5520,
   "r}": 5521,
   "cómic": 5522,
   "toneladas": 5523,
   "pita": 5524,
   "nvi": 5525,
   "obscen": 5526,
   "catól": 5527,
   "escocia": 5528,
   "hombre": 5529,
   "​​​​": 5530,
   "condado": 5531,
   "utiliza": 5532,
   "sencillos": 5533,
   "profesionales": 5534,
   "naciones": 5535,
   "agencia": 5536,
   "frances": 5537,
   "ándo": 5538,
   "considera": 5539,
   "impuestos": 5540,
   "menores": 5541,
   "autoridad": 5542,
   "expansión": 5543,
   "agric": 5544,
   "habitantes": 5545,
   "culturas": 5546,
   "obtuvo": 5547,
   "mitad": 5548,
   "corona": 5549,
   "conquista": 5550,
   "filosof": 5551,
   "conocidos": 5552,
   "musulmanes": 5553,
   "compañías": 5554,
   "seguido": 5555,
   "sket": 5556,
   "independientes": 5557,
   "referencia": 5558,
   "rum": 5559,
   "imo": 5560,
   "nombr": 5561,
   "ningún": 5562,
   "copa": 5563,
   "aparecen": 5564,
   "latina": 5565,
   "sud": 5566,
   "saint": 5567,
   "metropol": 5568,
   "tournament": 5569,
   "disk": 5570,
   "morgan": 5571,
   "coast": 5572,
   "lesbi": 5573,
   "tecture": 5574,
   "architecture": 5575,
   "aran": 5576,
   "adam": 5577,
   "emper": 5578,
   "ann": 5579,
   "ston": 5580,
   "discrimin": 5581,
   "encyclo": 5582,
   "dean": 5583,
   "mechanical": 5584,
   "chapter": 5585,
   "politics": 5586,
   "brook": 5587,
   "teen": 5588,
   "discontinued": 5589,
   "privacy": 5590,
   "aes": 5591,
   "hat": 5592,
   "pher": 5593,
   "homo": 5594,
   "subsequ": 5595,
   "remained": 5596,
   "cut": 5597,
   "offs": 5598,
   "decl": 5599,
   "platforms": 5600,
   "elements": 5601,
   "sean": 5602,
   "usi": 5603,
   "individuals": 5604,
   "nic": 5605,
   "spec": 5606,
   "jar": 5607,
   "seven": 5608,
   "whether": 5609,
   "pattern": 5610,
   "resist": 5611,
   "takes": 5612,
   "initial": 5613,
   "convention": 5614,
   "observ": 5615,
   "dely": 5616,
   "widely": 5617,
   "ticles": 5618,
   "electromagnetic": 5619,
   "approximately": 5620,
   "spain": 5621,
   "lh": 5622,
   "advice": 5623,
   "suggest": 5624,
   "views": 5625,
   "keep": 5626,
   "progress": 5627,
   "manager": 5628,
   "forward": 5629,
   "i've": 5630,
   "friday": 5631,
   "saving": 5632,
   "paid": 5633,
   "higher": 5634,
   "ners": 5635,
   "promotion": 5636,
   "academic": 5637,
   "fast": 5638,
   "tained": 5639,
   "town": 5640,
   "gree": 5641,
   "you're": 5642,
   "regards": 5643,
   "suspicious": 5644,
   "cree": 5645,
   "cuota": 5646,
   "questions": 5647,
   "pierre": 5648,
   "hogar": 5649,
   "mr": 5650,
   "calidad": 5651,
   "vey": 5652,
   "participan": 5653,
   "threat": 5654,
   "planes": 5655,
   "proposal": 5656,
   "alim": 5657,
   "tenimiento": 5658,
   "rea": 5659,
   "culo": 5660,
   "propia": 5661,
   "taller": 5662,
   "break": 5663,
   "estructura": 5664,
   "apoyo": 5665,
   "monte": 5666,
   "pruebas": 5667,
   "cercan": 5668,
   "nuevamente": 5669,
   "sá": 5670,
   "herrami": 5671,
   "ajus": 5672,
   "diza": 5673,
   "respuesta": 5674,
   "entrada": 5675,
   "ofrece": 5676,
   "restaur": 5677,
   "amigos": 5678,
   "pregun": 5679,
   "usd": 5680,
   "gida": 5681,
   "didas": 5682,
   "pér": 5683,
   "qué": 5684,
   "congres": 5685,
   "pues": 5686,
   "error": 5687,
   "crypt": 5688,
   "alo": 5689,
   "detectado": 5690,
   "prove": 5691,
   "haga": 5692,
   "pingüino": 5693,
   "nvidia": 5694,
   "ejas": 5695,
   "abejas": 5696,
   "coches": 5697,
   "automóviles": 5698,
   "masculino": 5699,
   "calor": 5700,
   "pornográfica": 5701,
   "objetos": 5702,
   "ilyn": 5703,
   "marilyn": 5704,
   "longitud": 5705,
   "himno": 5706,
   "instalar": 5707,
   "cés": 5708,
   "tynwald": 5709,
   "ellan": 5710,
   "kindred": 5711,
   "guitar": 5712,
   "palabra": 5713,
   "uto": 5714,
   "dando": 5715,
   "desarrollado": 5716,
   "crá": 5717,
   "copias": 5718,
   "anglo": 5719,
   "mogo": 5720,
   "símbo": 5721,
   "acuñación": 5722,
   "territorios": 5723,
   "produjo": 5724,
   "considerado": 5725,
   "etapas": 5726,
   "cambió": 5727,
   "ígen": 5728,
   "europeo": 5729,
   "plos": 5730,
   "rash": 5731,
   "chu": 5732,
   "espec": 5733,
   "gráficos": 5734,
   "paraguay": 5735,
   "perú": 5736,
   "formó": 5737,
   "tbol": 5738,
   "mática": 5739,
   "clásica": 5740,
   "emitir": 5741,
   "enfo": 5742,
   "asoci": 5743,
   "streaming": 5744,
   "hispan": 5745,
   "sac": 5746,
   "sar": 5747,
   "pronunci": 5748,
   "mexican": 5749,
   "sec": 5750,
   "cure": 5751,
   "superior": 5752,
   "metal": 5753,
   "mato": 5754,
   "giant": 5755,
   "munici": 5756,
   "acciden": 5757,
   "williams": 5758,
   "dc": 5759,
   "logist": 5760,
   "chica": 5761,
   "hou": 5762,
   "cultures": 5763,
   "jurisdiction": 5764,
   "association": 5765,
   "religious": 5766,
   "constitution": 5767,
   "principles": 5768,
   "wayback": 5769,
   "tations": 5770,
   "scott": 5771,
   "classified": 5772,
   "taiwan": 5773,
   "seats": 5774,
   "functions": 5775,
   "magaz": 5776,
   "ever": 5777,
   "protest": 5778,
   "river": 5779,
   "tools": 5780,
   "story": 5781,
   "named": 5782,
   "cost": 5783,
   "ery": 5784,
   "ied": 5785,
   "earlier": 5786,
   "performed": 5787,
   "bodies": 5788,
   "initially": 5789,
   "aristo": 5790,
   "ledge": 5791,
   "surface": 5792,
   "true": 5793,
   "cop": 5794,
   "refers": 5795,
   "whole": 5796,
   "greater": 5797,
   "lim": 5798,
   "reson": 5799,
   "expli": 5800,
   "never": 5801,
   "context": 5802,
   "motion": 5803,
   "poses": 5804,
   "canton": 5805,
   "russia": 5806,
   "gl": 5807,
   "formerly": 5808,
   "bau": 5809,
   "isen": 5810,
   "tia": 5811,
   "leaving": 5812,
   "tit": 5813,
   "effor": 5814,
   "subscribers": 5815,
   "vements": 5816,
   "sla": 5817,
   "chel": 5818,
   "eded": 5819,
   "atory": 5820,
   "lap": 5821,
   "guard": 5822,
   "we'll": 5823,
   "ingu": 5824,
   "street": 5825,
   "ious": 5826,
   "started": 5827,
   "tage": 5828,
   "curren": 5829,
   "months": 5830,
   "message": 5831,
   "lines": 5832,
   "ticket": 5833,
   "airline": 5834,
   "expected": 5835,
   "pueda": 5836,
   "arquitectura": 5837,
   "escuela": 5838,
   "efec": 5839,
   "wanted": 5840,
   "formado": 5841,
   "jeron": 5842,
   "bun": 5843,
   "único": 5844,
   "intelligence": 5845,
   "benef": 5846,
   "partnership": 5847,
   "crisis": 5848,
   "trimestre": 5849,
   "cumpli": 5850,
   "actualizaciones": 5851,
   "err": 5852,
   "presentación": 5853,
   "almac": 5854,
   "mejorar": 5855,
   "alguna": 5856,
   "johnson": 5857,
   "victoria": 5858,
   "proced": 5859,
   "anderson": 5860,
   "device": 5861,
   "trabajar": 5862,
   "tomar": 5863,
   "obra": 5864,
   "ulti": 5865,
   "cómo": 5866,
   "llegada": 5867,
   "aprove": 5868,
   "enor": 5869,
   "libro": 5870,
   "disponibles": 5871,
   "ré": 5872,
   "negocio": 5873,
   "deb": 5874,
   "avis": 5875,
   "peli": 5876,
   "cidos": 5877,
   "financiera": 5878,
   "rapid": 5879,
   "invitación": 5880,
   "acce": 5881,
   "fotografía": 5882,
   "discu": 5883,
   "phishing": 5884,
   "adicionales": 5885,
   "aprender": 5886,
   "jeros": 5887,
   "tud": 5888,
   "informar": 5889,
   "comunic": 5890,
   "ayudar": 5891,
   "{v": 5892,
   "activex": 5893,
   "amous": 5894,
   "dialect": 5895,
   "piezas": 5896,
   "permiten": 5897,
   "absorción": 5898,
   "colum": 5899,
   "temperatura": 5900,
   "partidos": 5901,
   "máxima": 5902,
   "norue": 5903,
   "archivo": 5904,
   "agricul": 5905,
   "equivalente": 5906,
   "consiguió": 5907,
   "éx": 5908,
   "física": 5909,
   "itario": 5910,
   "humano": 5911,
   "informático": 5912,
   "mecán": 5913,
   "dera": 5914,
   "generales": 5915,
   "parla": 5916,
   "ola": 5917,
   "intención": 5918,
   "generalmente": 5919,
   "fiere": 5920,
   "derrot": 5921,
   "descen": 5922,
   "tradición": 5923,
   "teras": 5924,
   "ejército": 5925,
   "monta": 5926,
   "enseñ": 5927,
   "oriental": 5928,
   "ríos": 5929,
   "vijay": 5930,
   "oriente": 5931,
   "compren": 5932,
   "antiguos": 5933,
   "hom": 5934,
   "reproduc": 5935,
   "principio": 5936,
   "asimismo": 5937,
   "gidos": 5938,
   "audiencia": 5939,
   "adro": 5940,
   "cados": 5941,
   "transmi": 5942,
   "originales": 5943,
   "lanzada": 5944,
   "vtu": 5945,
   "italiano": 5946,
   "pies": 5947,
   "compiler": 5948,
   "gd": 5949,
   "native": 5950,
   "editor": 5951,
   "medicine": 5952,
   "ik": 5953,
   "fan": 5954,
   "heavy": 5955,
   "jain": 5956,
   "hara": 5957,
   "eastern": 5958,
   "refin": 5959,
   "oli": 5960,
   "ethics": 5961,
   "americas": 5962,
   "pped": 5963,
   "reduce": 5964,
   "rebel": 5965,
   "empi": 5966,
   "cach": 5967,
   "standing": 5968,
   "resources": 5969,
   "aking": 5970,
   "adel": 5971,
   "optimal": 5972,
   "nc": 5973,
   "exis": 5974,
   "wr": 5975,
   "eds": 5976,
   "els": 5977,
   "kore": 5978,
   "song": 5979,
   "linux": 5980,
   "crat": 5981,
   "texas": 5982,
   "fusion": 5983,
   "image": 5984,
   "wash": 5985,
   "washington": 5986,
   "pacific": 5987,
   "advertising": 5988,
   "fault": 5989,
   "supre": 5990,
   "met": 5991,
   "already": 5992,
   "tweets": 5993,
   "owned": 5994,
   "semi": 5995,
   "scottish": 5996,
   "ational": 5997,
   "lash": 5998,
   "variety": 5999,
   "louis": 6000,
   "target": 6001,
   "subst": 6002,
   "caus": 6003,
   "throughout": 6004,
   "relati": 6005,
   "units": 6006,
   "relativity": 6007,
   "commonly": 6008,
   "economy": 6009,
   "scotland": 6010,
   "vs": 6011,
   "lat": 6012,
   "agrico": 6013,
   "travels": 6014,
   "ague": 6015,
   "sugges": 6016,
   "rul": 6017,
   "thri": 6018,
   "registered": 6019,
   "leave": 6020,
   "updated": 6021,
   "recogn": 6022,
   "nition": 6023,
   "better": 6024,
   "ators": 6025,
   "past": 6026,
   "wish": 6027,
   "tim": 6028,
   "grow": 6029,
   "say": 6030,
   "savings": 6031,
   "settle": 6032,
   "accept": 6033,
   "away": 6034,
   "yet": 6035,
   "arily": 6036,
   "suspended": 6037,
   "database": 6038,
   "chat": 6039,
   "andrew": 6040,
   "award": 6041,
   "buy": 6042,
   "difference": 6043,
   "hermano": 6044,
   "práctica": 6045,
   "contiene": 6046,
   "plu": 6047,
   "senti": 6048,
   "memoria": 6049,
   "conveni": 6050,
   "nun": 6051,
   "conclu": 6052,
   "madas": 6053,
   "directa": 6054,
   "será": 6055,
   "rate": 6056,
   "itation": 6057,
   "asun": 6058,
   "av": 6059,
   "habilidades": 6060,
   "almacen": 6061,
   "porque": 6062,
   "fecto": 6063,
   "ular": 6064,
   "édica": 6065,
   "proporciona": 6066,
   "suel": 6067,
   "concierto": 6068,
   "dólares": 6069,
   "inicio": 6070,
   "entrega": 6071,
   "ascenso": 6072,
   "fake": 6073,
   "festiv": 6074,
   "internacionales": 6075,
   "minister": 6076,
   "proteger": 6077,
   "financiero": 6078,
   "ries": 6079,
   "búsqueda": 6080,
   "joven": 6081,
   "cance": 6082,
   "seleccionado": 6083,
   "rene": 6084,
   "gráfico": 6085,
   "{r}": 6086,
   "volcán": 6087,
   "pará": 6088,
   "pulgadas": 6089,
   "sigue": 6090,
   "denominación": 6091,
   "«the": 6092,
   "bowie": 6093,
   "sustitu": 6094,
   "villanos": 6095,
   "tones": 6096,
   "elección": 6097,
   "superfici": 6098,
   "utilizada": 6099,
   "dijo": 6100,
   "drogas": 6101,
   "hitch": 6102,
   "marcas": 6103,
   "estran": 6104,
   "grafías": 6105,
   "niveles": 6106,
   "operativos": 6107,
   "enciclo": 6108,
   "encias": 6109,
   "profun": 6110,
   "desplazamiento": 6111,
   "lá": 6112,
   "shak": 6113,
   "fundada": 6114,
   "gama": 6115,
   "cuyo": 6116,
   "ístico": 6117,
   "derrotó": 6118,
   "terminó": 6119,
   "ético": 6120,
   "gobernantes": 6121,
   "batalla": 6122,
   "casas": 6123,
   "conoce": 6124,
   "maur": 6125,
   "surgi": 6126,
   "accion": 6127,
   "ascen": 6128,
   "aparición": 6129,
   "decidió": 6130,
   "hubo": 6131,
   "útbol": 6132,
   "fútbol": 6133,
   "ítu": 6134,
   "capítu": 6135,
   "solamente": 6136,
   "empez": 6137,
   "ades": 6138,
   "república": 6139,
   "iv": 6140,
   "ash": 6141,
   "assistant": 6142,
   "macros": 6143,
   "lingu": 6144,
   "goth": 6145,
   "little": 6146,
   "prota": 6147,
   "episodes": 6148,
   "band": 6149,
   "graham": 6150,
   "arth": 6151,
   "formats": 6152,
   "cath": 6153,
   "fif": 6154,
   "makes": 6155,
   "rome": 6156,
   "dero": 6157,
   "mam": 6158,
   "lie": 6159,
   "legi": 6160,
   "prose": 6161,
   "kal": 6162,
   "running": 6163,
   "implementation": 6164,
   "máqu": 6165,
   "spir": 6166,
   "methods": 6167,
   "craig": 6168,
   "manu": 6169,
   "ee": 6170,
   "stage": 6171,
   "discour": 6172,
   "bid": 6173,
   "alexander": 6174,
   "bad": 6175,
   "intended": 6176,
   "implemented": 6177,
   "editorial": 6178,
   "dating": 6179,
   "pus": 6180,
   "rhe": 6181,
   "lying": 6182,
   "liberal": 6183,
   "devices": 6184,
   "tab": 6185,
   "compatible": 6186,
   "price": 6187,
   "cambridge": 6188,
   "deal": 6189,
   "label": 6190,
   "bbc": 6191,
   "basis": 6192,
   "ught": 6193,
   "leo": 6194,
   "derived": 6195,
   "johan": 6196,
   "sound": 6197,
   "hid": 6198,
   "difficult": 6199,
   "fair": 6200,
   "efficient": 6201,
   "larger": 6202,
   "almost": 6203,
   "whose": 6204,
   "physics": 6205,
   "speci": 6206,
   "literature": 6207,
   "postu": 6208,
   "allowing": 6209,
   "subsidiary": 6210,
   "banken": 6211,
   "went": 6212,
   "sche": 6213,
   "authority": 6214,
   "bourg": 6215,
   "institutions": 6216,
   "agricole": 6217,
   "targe": 6218,
   "promin": 6219,
   "firm": 6220,
   "pse": 6221,
   "teams": 6222,
   "promote": 6223,
   "trust": 6224,
   "satis": 6225,
   "leader": 6226,
   "thought": 6227,
   "compared": 6228,
   "solutions": 6229,
   "goal": 6230,
   "moving": 6231,
   "owner": 6232,
   "purchase": 6233,
   "arrang": 6234,
   "children": 6235,
   "gement": 6236,
   "fantas": 6237,
   "skill": 6238,
   "instant": 6239,
   "give": 6240,
   "room": 6241,
   "appre": 6242,
   "rando": 6243,
   "edule": 6244,
   "announce": 6245,
   "fechas": 6246,
   "habla": 6247,
   "pasado": 6248,
   "bibliote": 6249,
   "communication": 6250,
   "nacimiento": 6251,
   "ejecutivo": 6252,
   "inconveni": 6253,
   "actuales": 6254,
   "bás": 6255,
   "plane": 6256,
   "pueblo": 6257,
   "deba": 6258,
   "campaña": 6259,
   "presu": 6260,
   "status": 6261,
   "record": 6262,
   "ministro": 6263,
   "bres": 6264,
   "licencia": 6265,
   "nico": 6266,
   "brown": 6267,
   "seguros": 6268,
   "mart": 6269,
   "mill": 6270,
   "dizaje": 6271,
   "aprendizaje": 6272,
   "documentos": 6273,
   "convi": 6274,
   "uta": 6275,
   "acor": 6276,
   "dez": 6277,
   "activar": 6278,
   "pareja": 6279,
   "rápido": 6280,
   "guien": 6281,
   "alguien": 6282,
   "objeto": 6283,
   "alerta": 6284,
   "prácticas": 6285,
   "nosotros": 6286,
   "notificación": 6287,
   "teléfono": 6288,
   "sr": 6289,
   "levy": 6290,
   "squamous": 6291,
   "tissues": 6292,
   "shakira": 6293,
   "tna": 6294,
   "teleno": 6295,
   "gaines": 6296,
   "inferior": 6297,
   "modelo": 6298,
   "catal": 6299,
   "simpson": 6300,
   "naef": 6301,
   "snaef": 6302,
   "fectos": 6303,
   "enfer": 6304,
   "propiet": 6305,
   "aves": 6306,
   "consumo": 6307,
   "sonido": 6308,
   "disminu": 6309,
   "altas": 6310,
   "adultos": 6311,
   "éxitos": 6312,
   "álbumes": 6313,
   "publicaciones": 6314,
   "°c": 6315,
   "haruto": 6316,
   "legales": 6317,
   "dores": 6318,
   "integran": 6319,
   "encar": 6320,
   "libras": 6321,
   "todavía": 6322,
   "fábr": 6323,
   "bajos": 6324,
   "económico": 6325,
   "controlar": 6326,
   "tesis": 6327,
   "incluida": 6328,
   "permitió": 6329,
   "fuerzas": 6330,
   "lugares": 6331,
   "caí": 6332,
   "establecieron": 6333,
   "naturales": 6334,
   "sas": 6335,
   "dentales": 6336,
   "cidentales": 6337,
   "occidentales": 6338,
   "sidad": 6339,
   "quía": 6340,
   "clima": 6341,
   "ejer": 6342,
   "xviii": 6343,
   "agara": 6344,
   "anagara": 6345,
   "vijayanagara": 6346,
   "tard": 6347,
   "basada": 6348,
   "europeos": 6349,
   "comedia": 6350,
   "sentido": 6351,
   "lados": 6352,
   "mismos": 6353,
   "vídeo": 6354,
   "sketches": 6355,
   "enchu": 6356,
   "localiz": 6357,
   "inspir": 6358,
   "estructur": 6359,
   "funcionamiento": 6360,
   "warnermedia": 6361,
   "manos": 6362,
   "sufri": 6363,
   "reales": 6364,
   "crítica": 6365,
   "edra": 6366,
   "héro": 6367,
   "dicha": 6368,
   "cata": 6369,
   "deputies": 6370,
   "oce": 6371,
   "modu": 6372,
   "hot": 6373,
   "gy": 6374,
   "joseph": 6375,
   "divided": 6376,
   "europea": 6377,
   "elle": 6378,
   "simon": 6379,
   "vere": 6380,
   "populations": 6381,
   "acting": 6382,
   "citiz": 6383,
   "liga": 6384,
   "essential": 6385,
   "structures": 6386,
   "encryption": 6387,
   "turing": 6388,
   "mathematics": 6389,
   "hun": 6390,
   "pow": 6391,
   "yen": 6392,
   "practices": 6393,
   "frequently": 6394,
   "tsu": 6395,
   "raised": 6396,
   "carri": 6397,
   "conservative": 6398,
   "kid": 6399,
   "detection": 6400,
   "insta": 6401,
   "league": 6402,
   "honor": 6403,
   "size": 6404,
   "additionally": 6405,
   "provides": 6406,
   "phones": 6407,
   "default": 6408,
   "safety": 6409,
   "lawsuit": 6410,
   "officially": 6411,
   "amed": 6412,
   "affili": 6413,
   "youth": 6414,
   "vism": 6415,
   "crime": 6416,
   "formation": 6417,
   "shif": 6418,
   "sat": 6419,
   "measures": 6420,
   "appeared": 6421,
   "reces": 6422,
   "slow": 6423,
   "symbol": 6424,
   "rote": 6425,
   "wrote": 6426,
   "choice": 6427,
   "tio": 6428,
   "beyond": 6429,
   "ences": 6430,
   "computing": 6431,
   "metre": 6432,
   "kilo": 6433,
   "equal": 6434,
   "bing": 6435,
   "charter": 6436,
   "zz": 6437,
   "mol": 6438,
   "germany": 6439,
   "onna": 6440,
   "luxem": 6441,
   "branches": 6442,
   "blos": 6443,
   "ester": 6444,
   "flow": 6445,
   "transition": 6446,
   "joined": 6447,
   "decre": 6448,
   "dictionary": 6449,
   "shared": 6450,
   "done": 6451,
   "customers": 6452,
   "inside": 6453,
   "saying": 6454,
   "infr": 6455,
   "supervis": 6456,
   "cerem": 6457,
   "necessary": 6458,
   "quarterly": 6459,
   "recognition": 6460,
   "ponsor": 6461,
   "points": 6462,
   "pper": 6463,
   "slo": 6464,
   "accepted": 6465,
   "centre": 6466,
   "amount": 6467,
   "distingu": 6468,
   "prime": 6469,
   "confirmed": 6470,
   "dedica": 6471,
   "contains": 6472,
   "prepar": 6473,
   "invite": 6474,
   "collection": 6475,
   "employ": 6476,
   "dol": 6477,
   "draw": 6478,
   "donate": 6479,
   "reset": 6480,
   "fill": 6481,
   "eso": 6482,
   "priori": 6483,
   "inici": 6484,
   "minutes": 6485,
   "regarding": 6486,
   "tasa": 6487,
   "gada": 6488,
   "ciente": 6489,
   "conocimiento": 6490,
   "fuentes": 6491,
   "conocimientos": 6492,
   "cientes": 6493,
   "comunicación": 6494,
   "morning": 6495,
   "cuanto": 6496,
   "encontrar": 6497,
   "verde": 6498,
   "reservas": 6499,
   "torneo": 6500,
   "acompañ": 6501,
   "prac": 6502,
   "baja": 6503,
   "sección": 6504,
   "operaciones": 6505,
   "evalu": 6506,
   "frica": 6507,
   "recep": 6508,
   "queremos": 6509,
   "estudiantes": 6510,
   "rob": 6511,
   "coment": 6512,
   "pagar": 6513,
   "abajo": 6514,
   "d'": 6515,
   "agreg": 6516,
   "citas": 6517,
   "cando": 6518,
   "automá": 6519,
   "nd": 6520,
   "lada": 6521,
   "emerg": 6522,
   "asis": 6523,
   "pronto": 6524,
   "iendo": 6525,
   "sito": 6526,
   "algún": 6527,
   "solicitud": 6528,
   "text{": 6529,
   "cdot": 6530,
   "shtml": 6531,
   "mshtml": 6532,
   "firefox": 6533,
   "greenland": 6534,
   "stratified": 6535,
   "morphem": 6536,
   "pornográfico": 6537,
   "maestro": 6538,
   "feminismo": 6539,
   "parejas": 6540,
   "exuales": 6541,
   "mejoras": 6542,
   "ñez": 6543,
   "widen": 6544,
   "desliz": 6545,
   "onatos": 6546,
   "campeonatos": 6547,
   "heros": 6548,
   "ficheros": 6549,
   "peso": 6550,
   "revolución": 6551,
   "burgo": 6552,
   "border": 6553,
   "míni": 6554,
   "noruega": 6555,
   "vannin": 6556,
   "componentes": 6557,
   "podían": 6558,
   "explí": 6559,
   "discos": 6560,
   "hitchcock": 6561,
   "sólo": 6562,
   "fuente": 6563,
   "cidas": 6564,
   "informáticos": 6565,
   "iero": 6566,
   "ingeniero": 6567,
   "libertad": 6568,
   "logrando": 6569,
   "trimonio": 6570,
   "mostrar": 6571,
   "aumentó": 6572,
   "tamaño": 6573,
   "taba": 6574,
   "hablan": 6575,
   "logró": 6576,
   "esas": 6577,
   "desarrollar": 6578,
   "unidad": 6579,
   "escuelas": 6580,
   "letras": 6581,
   "fera": 6582,
   "refiere": 6583,
   "convertirse": 6584,
   "océ": 6585,
   "numerosos": 6586,
   "comba": 6587,
   "métodos": 6588,
   "reyes": 6589,
   "caracteriz": 6590,
   "entales": 6591,
   "úr": 6592,
   "yeron": 6593,
   "adió": 6594,
   "idional": 6595,
   "meridional": 6596,
   "sureste": 6597,
   "maurya": 6598,
   "adha": 6599,
   "magadha": 6600,
   "frecuentemente": 6601,
   "publicaron": 6602,
   "enchufe": 6603,
   "empezó": 6604,
   "inicialmente": 6605,
   "cabe": 6606,
   "diversidad": 6607,
   "atlán": 6608,
   "diferente": 6609,
   "protagon": 6610,
   "completamente": 6611,
   "llamar": 6612,
   "respectivamente": 6613,
   "sustan": 6614,
   "realiza": 6615,
   "rió": 6616,
   "consiste": 6617,
   "ocho": 6618,
   "introdujo": 6619,
   "alemania": 6620,
   "pico": 6621,
   "haiti": 6622,
   "rue": 6623,
   "delan": 6624,
   "installed": 6625,
   "macin": 6626,
   "bios": 6627,
   "ral": 6628,
   "zan": 6629,
   "turner": 6630,
   "mosa": 6631,
   "universi": 6632,
   "sang": 6633,
   "venus": 6634,
   "tam": 6635,
   "planta": 6636,
   "render": 6637,
   "speaking": 6638,
   "dal": 6639,
   "tosh": 6640,
   "chicago": 6641,
   "generation": 6642,
   "death": 6643,
   "vietnam": 6644,
   "protocol": 6645,
   "incen": 6646,
   "colonial": 6647,
   "reaction": 6648,
   "centur": 6649,
   "trea": 6650,
   "divide": 6651,
   "numbers": 6652,
   "alization": 6653,
   "jac": 6654,
   "istics": 6655,
   "spirit": 6656,
   "living": 6657,
   "wrong": 6658,
   "spin": 6659,
   "aver": 6660,
   "mud": 6661,
   "omi": 6662,
   "game": 6663,
   "magazine": 6664,
   "sand": 6665,
   "jeff": 6666,
   "corte": 6667,
   "machin": 6668,
   "truth": 6669,
   "contrast": 6670,
   "mani": 6671,
   "mous": 6672,
   "creating": 6673,
   "casting": 6674,
   "websites": 6675,
   "lived": 6676,
   "stanford": 6677,
   "legislation": 6678,
   "primarily": 6679,
   "researchers": 6680,
   "responsible": 6681,
   "functionality": 6682,
   "restricted": 6683,
   "chie": 6684,
   "actors": 6685,
   "ky": 6686,
   "secret": 6687,
   "promoted": 6688,
   "sued": 6689,
   "rena": 6690,
   "henri": 6691,
   "latter": 6692,
   "greek": 6693,
   "tino": 6694,
   "oh": 6695,
   "cross": 6696,
   "velength": 6697,
   "wavelength": 6698,
   "gely": 6699,
   "largely": 6700,
   "eventually": 6701,
   "tz": 6702,
   "kr": 6703,
   "theories": 6704,
   "explicit": 6705,
   "medium": 6706,
   "noted": 6707,
   "ukra": 6708,
   "bou": 6709,
   "sant": 6710,
   "abobank": 6711,
   "rabobank": 6712,
   "l'": 6713,
   "cn": 6714,
   "hs": 6715,
   "milest": 6716,
   "copy": 6717,
   "mike": 6718,
   "releases": 6719,
   "winter": 6720,
   "professional": 6721,
   "revenue": 6722,
   "cting": 6723,
   "improve": 6724,
   "spr": 6725,
   "doing": 6726,
   "staff": 6727,
   "roles": 6728,
   "sponsor": 6729,
   "express": 6730,
   "i'll": 6731,
   "ars": 6732,
   "lik": 6733,
   "ffe": 6734,
   "remote": 6735,
   "reports": 6736,
   "linked": 6737,
   "fall": 6738,
   "alp": 6739,
   "starting": 6740,
   "donation": 6741,
   "proven": 6742,
   "executive": 6743,
   "subject": 6744,
   "ciate": 6745,
   "appreciate": 6746,
   "offices": 6747,
   "currency": 6748,
   "identified": 6749,
   "schedule": 6750,
   "appoint": 6751,
   "balance": 6752,
   "abc": 6753,
   "pot": 6754,
   "instructions": 6755,
   "notification": 6756,
   "utilizar": 6757,
   "tou": 6758,
   "herramientas": 6759,
   "semanas": 6760,
   "menes": 6761,
   "podría": 6762,
   "volver": 6763,
   "cuarto": 6764,
   "retro": 6765,
   "cámaras": 6766,
   "operación": 6767,
   "alcance": 6768,
   "doble": 6769,
   "buena": 6770,
   "proyectos": 6771,
   "deben": 6772,
   "cionado": 6773,
   "estión": 6774,
   "adicional": 6775,
   "exitos": 6776,
   "electron": 6777,
   "zada": 6778,
   "sof": 6779,
   "escritura": 6780,
   "certi": 6781,
   "saber": 6782,
   "numerous": 6783,
   "médico": 6784,
   "cancel": 6785,
   "verif": 6786,
   "festival": 6787,
   "continuación": 6788,
   "pedido": 6789,
   "parece": 6790,
   "yar": 6791,
   "pid": 6792,
   "pequeño": 6793,
   "discutir": 6794,
   "pasar": 6795,
   "xyz": 6796,
   "taría": 6797,
   "aste": 6798,
   "aprob": 6799,
   "resolver": 6800,
   "quadro": 6801,
   "trident": 6802,
   "brooks": 6803,
   "basin": 6804,
   "layer": 6805,
   "cantonese": 6806,
   "phonetic": 6807,
   "telenovela": 6808,
   "homosexualidad": 6809,
   "igualdad": 6810,
   "membran": 6811,
   "cadura": 6812,
   "widening": 6813,
   "adolescen": 6814,
   "arran": 6815,
   "iglesia": 6816,
   "edificio": 6817,
   "°f": 6818,
   "llu": 6819,
   "elecciones": 6820,
   "humana": 6821,
   "snaefell": 6822,
   "totalmente": 6823,
   "efectos": 6824,
   "planeta": 6825,
   "debajo": 6826,
   "cería": 6827,
   "adá": 6828,
   "canadá": 6829,
   "masa": 6830,
   "escrito": 6831,
   "físico": 6832,
   "agru": 6833,
   "oficialmente": 6834,
   "muestran": 6835,
   "fotografías": 6836,
   "yedam": 6837,
   "yoshi": 6838,
   "itaria": 6839,
   "diversos": 6840,
   "moto": 6841,
   "enciclopedia": 6842,
   "recientes": 6843,
   "renom": 6844,
   "maya": 6845,
   "artículo": 6846,
   "fondo": 6847,
   "estaciones": 6848,
   "perió": 6849,
   "parlamento": 6850,
   "cierto": 6851,
   "vendió": 6852,
   "marathas": 6853,
   "amplia": 6854,
   "difí": 6855,
   "escribió": 6856,
   "culto": 6857,
   "rama": 6858,
   "puertos": 6859,
   "océano": 6860,
   "pequeñas": 6861,
   "cuarta": 6862,
   "clive": 6863,
   "guerras": 6864,
   "puso": 6865,
   "basado": 6866,
   "posterior": 6867,
   "situado": 6868,
   "religiosa": 6869,
   "pueblos": 6870,
   "filosofía": 6871,
   "regiones": 6872,
   "alu": 6873,
   "zonas": 6874,
   "palla": 6875,
   "ocasion": 6876,
   "clásico": 6877,
   "desarroll": 6878,
   "comerci": 6879,
   "dinastías": 6880,
   "normalmente": 6881,
   "utilizado": 6882,
   "tización": 6883,
   "públicas": 6884,
   "reconocimiento": 6885,
   "varon": 6886,
   "aspectos": 6887,
   "escena": 6888,
   "habil": 6889,
   "mezcla": 6890,
   "atlántico": 6891,
   "dirigido": 6892,
   "transición": 6893,
   "portada": 6894,
   "esos": 6895,
   "siete": 6896,
   "distintos": 6897,
   "intas": 6898,
   "distintas": 6899,
   "podía": 6900,
   "estrenó": 6901,
   "faz": 6902,
   "estreno": 6903,
   "visto": 6904,
   "americana": 6905,
   "barber": 6906,
   "aturas": 6907,
   "animación": 6908,
   "izadas": 6909,
   "transmisión": 6910,
   "suscripción": 6911,
   "onsky": 6912,
   "storonsky": 6913,
   "nunca": 6914,
   "considerable": 6915,
   "guion": 6916,
   "macintosh": 6917,
   "erup": 6918,
   "privi": 6919,
   "studios": 6920,
   "animals": 6921,
   "hero": 6922,
   "manif": 6923,
   "mana": 6924,
   "psycho": 6925,
   "narra": 6926,
   "classic": 6927,
   "prosecu": 6928,
   "judi": 6929,
   "criminal": 6930,
   "environment": 6931,
   "adopt": 6932,
   "coven": 6933,
   "discrimination": 6934,
   "arabia": 6935,
   "applied": 6936,
   "luis": 6937,
   "empire": 6938,
   "conceptual": 6939,
   "archived": 6940,
   "parall": 6941,
   "processes": 6942,
   "executable": 6943,
   "tables": 6944,
   "clean": 6945,
   "powers": 6946,
   "master": 6947,
   "mains": 6948,
   "nett": 6949,
   "growth": 6950,
   "augur": 6951,
   "discourse": 6952,
   "cape": 6953,
   "opened": 6954,
   "monu": 6955,
   "cola": 6956,
   "discovery": 6957,
   "parties": 6958,
   "preview": 6959,
   "marks": 6960,
   "computation": 6961,
   "reveal": 6962,
   "describes": 6963,
   "bob": 6964,
   "controversial": 6965,
   "ended": 6966,
   "moved": 6967,
   "eva": 6968,
   "insu": 6969,
   "separate": 6970,
   "enfor": 6971,
   "died": 6972,
   "massa": 6973,
   "portion": 6974,
   "claims": 6975,
   "simpli": 6976,
   "disinformation": 6977,
   "url": 6978,
   "misinformation": 6979,
   "aim": 6980,
   "reprodu": 6981,
   "poin": 6982,
   "scholars": 6983,
   "knowledge": 6984,
   "normal": 6985,
   "orbits": 6986,
   "enty": 6987,
   "twenty": 6988,
   "mars": 6989,
   "orbit": 6990,
   "continue": 6991,
   "maxim": 6992,
   "achieved": 6993,
   "varia": 6994,
   "respectively": 6995,
   "gap": 6996,
   "transmit": 6997,
   "onto": 6998,
   "section": 6999,
   "above": 7000,
   "nuclear": 7001,
   "direction": 7002,
   "predic": 7003,
   "speeds": 7004,
   "components": 7005,
   "dimen": 7006,
   "emit": 7007,
   "ured": 7008,
   "minim": 7009,
   "distant": 7010,
   "effects": 7011,
   "measurements": 7012,
   "eous": 7013,
   "kingdom": 7014,
   "grad": 7015,
   "spare": 7016,
   "corporate": 7017,
   "industriel": 7018,
   "lhb": 7019,
   "atured": 7020,
   "featured": 7021,
   "fé": 7022,
   "ative": 7023,
   "mption": 7024,
   "kit": 7025,
   "garden": 7026,
   "investors": 7027,
   "move": 7028,
   "training": 7029,
   "strategy": 7030,
   "discussion": 7031,
   "likely": 7032,
   "shows": 7033,
   "lock": 7034,
   "reached": 7035,
   "cili": 7036,
   "future": 7037,
   "want": 7038,
   "coin": 7039,
   "cription": 7040,
   "we've": 7041,
   "senior": 7042,
   "deu": 7043,
   "advantage": 7044,
   "random": 7045,
   "ensure": 7046,
   "reasons": 7047,
   "ups": 7048,
   "white": 7049,
   "notice": 7050,
   "shipping": 7051,
   "loan": 7052,
   "elabor": 7053,
   "ilidad": 7054,
   "cosas": 7055,
   "marcha": 7056,
   "noche": 7057,
   "regreso": 7058,
   "comisión": 7059,
   "gando": 7060,
   "presupuesto": 7061,
   "tempr": 7062,
   "experiencia": 7063,
   "impacto": 7064,
   "negocios": 7065,
   "dibu": 7066,
   "candida": 7067,
   "plani": 7068,
   "convers": 7069,
   "inteligencia": 7070,
   "versario": 7071,
   "desbloque": 7072,
   "úa": 7073,
   "perfil": 7074,
   "falta": 7075,
   "jen": 7076,
   "agrade": 7077,
   "cyber": 7078,
   "sospe": 7079,
   "oficina": 7080,
   "pidamente": 7081,
   "técnica": 7082,
   "contrato": 7083,
   "institución": 7084,
   "compra": 7085,
   "publicidad": 7086,
   "cierre": 7087,
   "computadora": 7088,
   "fondos": 7089,
   "gov": 7090,
   "hypothesis": 7091,
   "waterston": 7092,
   "bec": 7093,
   "membrane": 7094,
   "compounds": 7095,
   "varones": 7096,
   "jugador": 7097,
   "comic": 7098,
   "recesión": 7099,
   "presión": 7100,
   "tn": 7101,
   "alemán": 7102,
   "adolescencia": 7103,
   "navegadores": 7104,
   "anexo": 7105,
   "altura": 7106,
   "genitales": 7107,
   "trajes": 7108,
   "fábrica": 7109,
   "expresión": 7110,
   "concen": 7111,
   "transporte": 7112,
   "ghs": 7113,
   "ancho": 7114,
   "ramsey": 7115,
   "irlandes": 7116,
   "convierte": 7117,
   "permitir": 7118,
   "hogares": 7119,
   "bren": 7120,
   "mulder": 7121,
   "estadounidenses": 7122,
   "superficie": 7123,
   "conseguir": 7124,
   "pages": 7125,
   "actos": 7126,
   "contenía": 7127,
   "integrantes": 7128,
   "estándares": 7129,
   "realizada": 7130,
   "renombr": 7131,
   "chic": 7132,
   "española": 7133,
   "campeche": 7134,
   "oridades": 7135,
   "autoridades": 7136,
   "ninguna": 7137,
   "palabras": 7138,
   "permis": 7139,
   "intercambio": 7140,
   "comienzo": 7141,
   "relacionadas": 7142,
   "asu": 7143,
   "afirma": 7144,
   "rojo": 7145,
   "políticos": 7146,
   "emperador": 7147,
   "establecer": 7148,
   "establecido": 7149,
   "extensión": 7150,
   "kush": 7151,
   "persa": 7152,
   "forman": 7153,
   "guas": 7154,
   "ática": 7155,
   "pequeña": 7156,
   "entorno": 7157,
   "cimientos": 7158,
   "ológicos": 7159,
   "maratha": 7160,
   "viii": 7161,
   "destacan": 7162,
   "financier": 7163,
   "pone": 7164,
   "artes": 7165,
   "actores": 7166,
   "ónimo": 7167,
   "usado": 7168,
   "izar": 7169,
   "tando": 7170,
   "formaron": 7171,
   "cedentes": 7172,
   "cedió": 7173,
   "marcó": 7174,
   "provincia": 7175,
   "chile": 7176,
   "venes": 7177,
   "jóvenes": 7178,
   "denominada": 7179,
   "definición": 7180,
   "formada": 7181,
   "violencia": 7182,
   "demás": 7183,
   "centa": 7184,
   "capítulo": 7185,
   "realizó": 7186,
   "interfaz": 7187,
   "considerada": 7188,
   "matr": 7189,
   "misiones": 7190,
   "mio": 7191,
   "bernard": 7192,
   "kka": 7193,
   "unix": 7194,
   "morphic": 7195,
   "infection": 7196,
   "beta": 7197,
   "movimientos": 7198,
   "hop": 7199,
   "visu": 7200,
   "sharepoint": 7201,
   "optimized": 7202,
   "bund": 7203,
   "bis": 7204,
   "patri": 7205,
   "adult": 7206,
   "heteros": 7207,
   "ream": 7208,
   "instream": 7209,
   "mainstream": 7210,
   "ideology": 7211,
   "balla": 7212,
   "dominant": 7213,
   "villa": 7214,
   "fried": 7215,
   "budd": 7216,
   "fs": 7217,
   "gabri": 7218,
   "cian": 7219,
   "cathol": 7220,
   "maha": 7221,
   "dest": 7222,
   "nh": 7223,
   "faces": 7224,
   "dica": 7225,
   "treaty": 7226,
   "gand": 7227,
   "contemporary": 7228,
   "nature": 7229,
   "africa": 7230,
   "critics": 7231,
   "centuries": 7232,
   "appropri": 7233,
   "treaties": 7234,
   "expression": 7235,
   "religion": 7236,
   "behavior": 7237,
   "encyclopedia": 7238,
   "finding": 7239,
   "parallel": 7240,
   "dynamic": 7241,
   "hil": 7242,
   "bell": 7243,
   "dynas": 7244,
   "partícu": 7245,
   "influence": 7246,
   "arith": 7247,
   "kh": 7248,
   "bury": 7249,
   "literary": 7250,
   "steven": 7251,
   "poe": 7252,
   "wealth": 7253,
   "cript": 7254,
   "cated": 7255,
   "supports": 7256,
   "museum": 7257,
   "enough": 7258,
   "pac": 7259,
   "demand": 7260,
   "prise": 7261,
   "chand": 7262,
   "logies": 7263,
   "jud": 7264,
   "rival": 7265,
   "strength": 7266,
   "manufac": 7267,
   "volume": 7268,
   "remains": 7269,
   "emphas": 7270,
   "lost": 7271,
   "metric": 7272,
   "tower": 7273,
   "inaugur": 7274,
   "tte": 7275,
   "isra": 7276,
   "lyn": 7277,
   "geno": 7278,
   "affir": 7279,
   "attribu": 7280,
   "baby": 7281,
   "simu": 7282,
   "tured": 7283,
   "scully": 7284,
   "australian": 7285,
   "protected": 7286,
   "ump": 7287,
   "donald": 7288,
   "dog": 7289,
   "claiming": 7290,
   "advis": 7291,
   "hund": 7292,
   "tts": 7293,
   "massach": 7294,
   "zel": 7295,
   "britain": 7296,
   "communi": 7297,
   "matters": 7298,
   "pping": 7299,
   "journalists": 7300,
   "liament": 7301,
   "parliament": 7302,
   "amn": 7303,
   "usive": 7304,
   "organisations": 7305,
   "historical": 7306,
   "concepts": 7307,
   "beginning": 7308,
   "kir": 7309,
   "gusta": 7310,
   "mia": 7311,
   "ably": 7312,
   "requires": 7313,
   "improved": 7314,
   "substanti": 7315,
   "gordon": 7316,
   "college": 7317,
   "arc": 7318,
   "values": 7319,
   "expressed": 7320,
   "sources": 7321,
   "processor": 7322,
   "front": 7323,
   "overall": 7324,
   "scal": 7325,
   "astrono": 7326,
   "crossing": 7327,
   "laser": 7328,
   "theore": 7329,
   "argument": 7330,
   "orienta": 7331,
   "texts": 7332,
   "implica": 7333,
   "smaller": 7334,
   "distributed": 7335,
   "accurate": 7336,
   "relationship": 7337,
   "alternative": 7338,
   "shown": 7339,
   "hl": 7340,
   "slower": 7341,
   "consequ": 7342,
   "visible": 7343,
   "nat": 7344,
   "virgin": 7345,
   "lloy": 7346,
   "gian": 7347,
   "génér": 7348,
   "spar": 7349,
   "ax": 7350,
   "gulf": 7351,
   "croa": 7352,
   "milestone": 7353,
   "shel": 7354,
   "lax": 7355,
   "turning": 7356,
   "teach": 7357,
   "stories": 7358,
   "izing": 7359,
   "results": 7360,
   "think": 7361,
   "holi": 7362,
   "integrated": 7363,
   "contract": 7364,
   "testi": 7365,
   "input": 7366,
   "blog": 7367,
   "thurs": 7368,
   "ships": 7369,
   "revolution": 7370,
   "enable": 7371,
   "engagement": 7372,
   "fortune": 7373,
   "alpha": 7374,
   "entry": 7375,
   "world's": 7376,
   "publish": 7377,
   "phil": 7378,
   "earliest": 7379,
   "collect": 7380,
   "theft": 7381,
   "fees": 7382,
   "send": 7383,
   "trend": 7384,
   "deadline": 7385,
   "davis": 7386,
   "propias": 7387,
   "incluido": 7388,
   "colaboración": 7389,
   "encu": 7390,
   "horario": 7391,
   "competencias": 7392,
   "eficiente": 7393,
   "mantenimiento": 7394,
   "consoli": 7395,
   "invent": 7396,
   "azgo": 7397,
   "bación": 7398,
   "documento": 7399,
   "restr": 7400,
   "progreso": 7401,
   "sara": 7402,
   "últimas": 7403,
   "cari": 7404,
   "maría": 7405,
   "tweet": 7406,
   "cti": 7407,
   "inscrip": 7408,
   "desempe": 7409,
   "particip": 7410,
   "aniversario": 7411,
   "confirmar": 7412,
   "drawing": 7413,
   "loter": 7414,
   "creado": 7415,
   "producido": 7416,
   "verify": 7417,
   "renta": 7418,
   "única": 7419,
   "rápidamente": 7420,
   "nova": 7421,
   "auctions": 7422,
   "inmediato": 7423,
   "ude": 7424,
   "anuncio": 7425,
   "factura": 7426,
   "invitar": 7427,
   "pierdas": 7428,
   "próxim": 7429,
   "mentación": 7430,
   "udos": 7431,
   "spam": 7432,
   "causa": 7433,
   "imos": 7434,
   "enten": 7435,
   "prostitu": 7436,
   "mosaic": 7437,
   "quebec": 7438,
   "niñez": 7439,
   "feministas": 7440,
   "queen": 7441,
   "asteroids": 7442,
   "mejora": 7443,
   "freno": 7444,
   "luces": 7445,
   "autopilot": 7446,
   "aceleración": 7447,
   "navegación": 7448,
   "cómics": 7449,
   "loco": 7450,
   "mbocadura": 7451,
   "desembocadura": 7452,
   "panama": 7453,
   "francés": 7454,
   "aquellos": 7455,
   "configuración": 7456,
   "terrace": 7457,
   "latín": 7458,
   "secund": 7459,
   "carril": 7460,
   "fragio": 7461,
   "necesidad": 7462,
   "mito": 7463,
   "der»": 7464,
   "bender»": 7465,
   "«gender": 7466,
   "contienen": 7467,
   "demanda": 7468,
   "prácticamente": 7469,
   "midlands": 7470,
   "agle": 7471,
   "eagle": 7472,
   "esfuer": 7473,
   "circuito": 7474,
   "presentan": 7475,
   "carb": 7476,
   "columbia": 7477,
   "abund": 7478,
   "suelen": 7479,
   "corea": 7480,
   "hacen": 7481,
   "ordenador": 7482,
   "comportamiento": 7483,
   "culos": 7484,
   "posiciones": 7485,
   "especie": 7486,
   "tillo": 7487,
   "atribu": 7488,
   "cráter": 7489,
   "aper": 7490,
   "uu": 7491,
   "giras": 7492,
   "fase": 7493,
   "xvii": 7494,
   "agentes": 7495,
   "vivencia": 7496,
   "animales": 7497,
   "prohibi": 7498,
   "mogoles": 7499,
   "onda": 7500,
   "décadas": 7501,
   "oficiales": 7502,
   "gobernador": 7503,
   "tierras": 7504,
   "islá": 7505,
   "expedición": 7506,
   "fundado": 7507,
   "escrita": 7508,
   "decán": 7509,
   "hacien": 7510,
   "especias": 7511,
   "fabric": 7512,
   "suminis": 7513,
   "hijos": 7514,
   "usando": 7515,
   "clave": 7516,
   "siguió": 7517,
   "raí": 7518,
   "eren": 7519,
   "védico": 7520,
   "alcanzando": 7521,
   "ejem": 7522,
   "ológico": 7523,
   "organizaciones": 7524,
   "directamente": 7525,
   "entró": 7526,
   "números": 7527,
   "últiples": 7528,
   "múltiples": 7529,
   "llan": 7530,
   "urbana": 7531,
   "extendió": 7532,
   "ficiente": 7533,
   "ría": 7534,
   "amientos": 7535,
   "geographic": 7536,
   "llamados": 7537,
   "coti": 7538,
   "tada": 7539,
   "torno": 7540,
   "basa": 7541,
   "gestion": 7542,
   "totalidad": 7543,
   "presentó": 7544,
   "inició": 7545,
   "blanco": 7546,
   "hicieron": 7547,
   "incluidos": 7548,
   "cimo": 7549,
   "deporte": 7550,
   "convirtieron": 7551,
   "producida": 7552,
   "exclusivamente": 7553,
   "aquel": 7554,
   "gráficas": 7555,
   "cuya": 7556,
   "tiéndose": 7557,
   "taciones": 7558,
   "portugués": 7559,
   "americano": 7560,
   "anime": 7561,
   "zhou": 7562,
   "jing": 7563,
   "shang": 7564,
   "ula": 7565,
   "exe": 7566,
   "metropolitan": 7567,
   "premier": 7568,
   "fifth": 7569,
   "cpu": 7570,
   "compilers": 7571,
   "microsoft's": 7572,
   "macos": 7573,
   "license": 7574,
   "capit": 7575,
   "mbert": 7576,
   "lambert": 7577,
   "uro": 7578,
   "incu": 7579,
   "men's": 7580,
   "italia": 7581,
   "served": 7582,
   "male": 7583,
   "crist": 7584,
   "novel": 7585,
   "synthesis": 7586,
   "ceram": 7587,
   "íferos": 7588,
   "asa": 7589,
   "atas": 7590,
   "singles": 7591,
   "onk": 7592,
   "gayama": 7593,
   "nagayama": 7594,
   "elev": 7595,
   "emy": 7596,
   "shun": 7597,
   "fos": 7598,
   "pru": 7599,
   "worked": 7600,
   "arty": 7601,
   "miller": 7602,
   "pd": 7603,
   "glen": 7604,
   "alone": 7605,
   "catholic": 7606,
   "tha": 7607,
   "sia": 7608,
   "rica": 7609,
   "bolsa": 7610,
   "resolution": 7611,
   "soviet": 7612,
   "mortal": 7613,
   "tradition": 7614,
   "medie": 7615,
   "eric": 7616,
   "gm": 7617,
   "meso": 7618,
   "loop": 7619,
   "hood": 7620,
   "solve": 7621,
   "fen": 7622,
   "blood": 7623,
   "chair": 7624,
   "duty": 7625,
   "involved": 7626,
   "tree": 7627,
   "auction": 7628,
   "dani": 7629,
   "hanna": 7630,
   "humor": 7631,
   "junction": 7632,
   "rid": 7633,
   "cused": 7634,
   "steph": 7635,
   "loa": 7636,
   "exclu": 7637,
   "dejando": 7638,
   "containing": 7639,
   "selling": 7640,
   "interven": 7641,
   "ffer": 7642,
   "sl": 7643,
   "policies": 7644,
   "block": 7645,
   "chief": 7646,
   "npr": 7647,
   "hundred": 7648,
   "sers": 7649,
   "usetts": 7650,
   "massachusetts": 7651,
   "communities": 7652,
   "existing": 7653,
   "icon": 7654,
   "forming": 7655,
   "legacy": 7656,
   "prede": 7657,
   "succe": 7658,
   "adding": 7659,
   "definitions": 7660,
   "brought": 7661,
   "eless": 7662,
   "flash": 7663,
   "attempts": 7664,
   "aristotle": 7665,
   "increasingly": 7666,
   "one's": 7667,
   "mh": 7668,
   "consists": 7669,
   "outer": 7670,
   "controll": 7671,
   "maximum": 7672,
   "processors": 7673,
   "dependent": 7674,
   "roughly": 7675,
   "sense": 7676,
   "mical": 7677,
   "astronomical": 7678,
   "seen": 7679,
   "virtual": 7680,
   "theoretical": 7681,
   "ustra": 7682,
   "ium": 7683,
   "specifically": 7684,
   "leon": 7685,
   "refrac": 7686,
   "propag": 7687,
   "expansion": 7688,
   "measured": 7689,
   "demon": 7690,
   "cly": 7691,
   "grup": 7692,
   "rupt": 7693,
   "takeover": 7694,
   "lists": 7695,
   "jal": 7696,
   "permanent": 7697,
   "gia": 7698,
   "générale": 7699,
   "eg": 7700,
   "cze": 7701,
   "paribas": 7702,
   "austria": 7703,
   "vocab": 7704,
   "processing": 7705,
   "christ": 7706,
   "fellow": 7707,
   "efforts": 7708,
   "rules": 7709,
   "completed": 7710,
   "determine": 7711,
   "compla": 7712,
   "cordi": 7713,
   "games": 7714,
   "food": 7715,
   "closely": 7716,
   "task": 7717,
   "parents": 7718,
   "emily": 7719,
   "thursday": 7720,
   "efficiency": 7721,
   "statement": 7722,
   "matter": 7723,
   "facili": 7724,
   "marri": 7725,
   "plans": 7726,
   "treatment": 7727,
   "weekly": 7728,
   "iner": 7729,
   "patient": 7730,
   "portal": 7731,
   "morrow": 7732,
   "tomorrow": 7733,
   "affe": 7734,
   "meet": 7735,
   "skype": 7736,
   "it's": 7737,
   "processed": 7738,
   "wait": 7739,
   "simply": 7740,
   "appointment": 7741,
   "eligible": 7742,
   "miss": 7743,
   "prevent": 7744,
   "assistance": 7745,
   "normas": 7746,
   "reducir": 7747,
   "allí": 7748,
   "llega": 7749,
   "ónica": 7750,
   "plataformas": 7751,
   "parque": 7752,
   "itorio": 7753,
   "pesta": 7754,
   "acceder": 7755,
   "gala": 7756,
   "promover": 7757,
   "resultó": 7758,
   "confirm": 7759,
   "insi": 7760,
   "relacionado": 7761,
   "invit": 7762,
   "quería": 7763,
   "deber": 7764,
   "hablar": 7765,
   "privacidad": 7766,
   "turo": 7767,
   "ónicos": 7768,
   "attach": 7769,
   "hob": 7770,
   "mañ": 7771,
   "ric": 7772,
   "recientemente": 7773,
   "jero": 7774,
   "login": 7775,
   "tividad": 7776,
   "espero": 7777,
   "count": 7778,
   "plazo": 7779,
   "correct": 7780,
   "muer": 7781,
   "empleo": 7782,
   "dea": 7783,
   "expecta": 7784,
   "<emoji>️": 7785,
   "premios": 7786,
   "vien": 7787,
   "direc": 7788,
   "lido": 7789,
   "ices": 7790,
   "sospechos": 7791,
   "abilidad": 7792,
   "límite": 7793,
   "cambiar": 7794,
   "congreso": 7795,
   "semin": 7796,
   "oport": 7797,
   "comprome": 7798,
   "pendiente": 7799,
   "ingresos": 7800,
   "moderna": 7801,
   "gustaría": 7802,
   "profesor": 7803,
   "fru": 7804,
   "fique": 7805,
   "felicidades": 7806,
   "proveed": 7807,
   "representantes": 7808,
   "basins": 7809,
   "inorganic": 7810,
   "gdp": 7811,
   "producers": 7812,
   "fta": 7813,
   "atlantic": 7814,
   "shield": 7815,
   "idal": 7816,
   "columnar": 7817,
   "dialects": 7818,
   "partícula": 7819,
   "lingo": 7820,
   "restling": 7821,
   "wrestling": 7822,
   "visiones": 7823,
   "mune": 7824,
   "gotham": 7825,
   "terres": 7826,
   "ellana": 7827,
   "orellana": 7828,
   "olina": 7829,
   "temporadas": 7830,
   "psico": 7831,
   "torre": 7832,
   "gae": 7833,
   "cara": 7834,
   "edison": 7835,
   "evergreen": 7836,
   "asesina": 7837,
   "jugadores": 7838,
   "allo": 7839,
   "quierda": 7840,
   "izquierda": 7841,
   "combus": 7842,
   "corred": 7843,
   "linas": 7844,
   "característica": 7845,
   "aguas": 7846,
   "curra": 7847,
   "mec": 7848,
   "sufragio": 7849,
   "dependencia": 7850,
   "ocul": 7851,
   "bibliografía": 7852,
   "calificación": 7853,
   "femenina": 7854,
   "cuenca": 7855,
   "turquía": 7856,
   "ferro": 7857,
   "exter": 7858,
   "prensa": 7859,
   "zelanda": 7860,
   "lograr": 7861,
   "notas": 7862,
   "sectores": 7863,
   "trop": 7864,
   "pistas": 7865,
   "interna": 7866,
   "individuales": 7867,
   "consta": 7868,
   "dispositivos": 7869,
   "teoría": 7870,
   "converti": 7871,
   "orida": 7872,
   "florida": 7873,
   "diego": 7874,
   "ígena": 7875,
   "parro": 7876,
   "parís": 7877,
   "kil": 7878,
   "familiar": 7879,
   "golfo": 7880,
   "captur": 7881,
   "redujo": 7882,
   "victorias": 7883,
   "extien": 7884,
   "stas": 7885,
   "excepto": 7886,
   "ordenó": 7887,
   "circulación": 7888,
   "detr": 7889,
   "recha": 7890,
   "apala": 7891,
   "nombres": 7892,
   "tomó": 7893,
   "kota": 7894,
   "shiva": 7895,
   "nada": 7896,
   "potencial": 7897,
   "símbolo": 7898,
   "relativamente": 7899,
   "geografía": 7900,
   "sata": 7901,
   "dir": 7902,
   "gobernaron": 7903,
   "tró": 7904,
   "reinado": 7905,
   "incluía": 7906,
   "extremo": 7907,
   "afi": 7908,
   "arían": 7909,
   "ígenes": 7910,
   "orígenes": 7911,
   "ép": 7912,
   "contexto": 7913,
   "probable": 7914,
   "yab": 7915,
   "sán": 7916,
   "toma": 7917,
   "irán": 7918,
   "histórico": 7919,
   "úrqu": 7920,
   "túrqu": 7921,
   "xiii": 7922,
   "chalukya": 7923,
   "asiático": 7924,
   "marí": 7925,
   "religión": 7926,
   "dorada": 7927,
   "jainismo": 7928,
   "mantiene": 7929,
   "órgan": 7930,
   "diez": 7931,
   "productores": 7932,
   "teniendo": 7933,
   "dich": 7934,
   "restricciones": 7935,
   "correspondiente": 7936,
   "ocupación": 7937,
   "realidad": 7938,
   "bum": 7939,
   "tnt": 7940,
   "héroes": 7941,
   "cuad": 7942,
   "duró": 7943,
   "desapare": 7944,
   "renov": 7945,
   "temática": 7946,
   "adelante": 7947,
   "distas": 7948,
   "contenidos": 7949,
   "cortos": 7950,
   "aje": 7951,
   "clásicas": 7952,
   "inicios": 7953,
   "conserv": 7954,
   "revolut": 7955,
   "pil": 7956,
   "incur": 7957,
   "gers": 7958,
   "spy": 7959,
   "vulnerability": 7960,
   "hall": 7961,
   "som": 7962,
   "moore": 7963,
   "particularmente": 7964,
   "embed": 7965,
   "optimizing": 7966,
   "underlying": 7967,
   "desi": 7968,
   "despread": 7969,
   "widespread": 7970,
   "browsers": 7971,
   "distribution": 7972,
   "apy": 7973,
   "conversion": 7974,
   "raymond": 7975,
   "serena": 7976,
   "kab": 7977,
   "arque": 7978,
   "artists": 7979,
   "tiles": 7980,
   "johnny": 7981,
   "irak": 7982,
   "hana": 7983,
   "average": 7984,
   "nit": 7985,
   "friedrich": 7986,
   "archa": 7987,
   "regar": 7988,
   "mys": 7989,
   "played": 7990,
   "sounds": 7991,
   "horror": 7992,
   "nij": 7993,
   "alas": 7994,
   "ady": 7995,
   "cid": 7996,
   "felt": 7997,
   "raw": 7998,
   "singa": 7999,
   "asian": 8000,
   "southe": 8001,
   "guen": 8002,
   "optional": 8003,
   "gross": 8004,
   "violations": 8005,
   "climate": 8006,
   "thin": 8007,
   "fies": 8008,
   "combination": 8009,
   "graphical": 8010,
   "structured": 8011,
   "things": 8012,
   "encrypted": 8013,
   "metic": 8014,
   "fiction": 8015,
   "map": 8016,
   "contained": 8017,
   "aged": 8018,
   "tory": 8019,
   "glob": 8020,
   "carl": 8021,
   "minority": 8022,
   "hoo": 8023,
   "iba": 8024,
   "hosted": 8025,
   "frey": 8026,
   "mother": 8027,
   "programmer": 8028,
   "component": 8029,
   "cou": 8030,
   "argues": 8031,
   "resulting": 8032,
   "philosopher": 8033,
   "democr": 8034,
   "phar": 8035,
   "fraud": 8036,
   "carried": 8037,
   "conservatives": 8038,
   "pike": 8039,
   "tton": 8040,
   "violence": 8041,
   "uras": 8042,
   "broadcasting": 8043,
   "plain": 8044,
   "critic": 8045,
   "towards": 8046,
   "rhetor": 8047,
   "produced": 8048,
   "compli": 8049,
   "invasion": 8050,
   "subsequently": 8051,
   "declared": 8052,
   "ads": 8053,
   "posted": 8054,
   "growing": 8055,
   "asked": 8056,
   "advertisers": 8057,
   "acts": 8058,
   "closed": 8059,
   "islands": 8060,
   "double": 8061,
   "entered": 8062,
   "ural": 8063,
   "bird": 8064,
   "renamed": 8065,
   "affiliated": 8066,
   "square": 8067,
   "circ": 8068,
   "faith": 8069,
   "inclusive": 8070,
   "wall": 8071,
   "inclusion": 8072,
   "adoption": 8073,
   "activists": 8074,
   "remaining": 8075,
   "hered": 8076,
   "deriv": 8077,
   "descartes": 8078,
   "philosoph": 8079,
   "repeated": 8080,
   "whereas": 8081,
   "option": 8082,
   "behind": 8083,
   "vector": 8084,
   "interfer": 8085,
   "uring": 8086,
   "nearly": 8087,
   "juli": 8088,
   "internal": 8089,
   "prin": 8090,
   "plies": 8091,
   "fective": 8092,
   "absolu": 8093,
   "classical": 8094,
   "again": 8095,
   "mirror": 8096,
   "nucle": 8097,
   "vity": 8098,
   "diver": 8099,
   "gli": 8100,
   "helm": 8101,
   "wilhelm": 8102,
   "refractive": 8103,
   "similarly": 8104,
   "famous": 8105,
   "appears": 8106,
   "particles": 8107,
   "respect": 8108,
   "practical": 8109,
   "kilome": 8110,
   "exactly": 8111,
   "domes": 8112,
   "hm": 8113,
   "ern": 8114,
   "ltd": 8115,
   "bia": 8116,
   "hung": 8117,
   "czech": 8118,
   "luxembourg": 8119,
   "reconstru": 8120,
   "jin": 8121,
   "hit": 8122,
   "assigned": 8123,
   "charge": 8124,
   "planning": 8125,
   "developers": 8126,
   "departure": 8127,
   "satur": 8128,
   "titude": 8129,
   "quickly": 8130,
   "lunch": 8131,
   "birthday": 8132,
   "let's": 8133,
   "feel": 8134,
   "prom": 8135,
   "trip": 8136,
   "profile": 8137,
   "category": 8138,
   "interested": 8139,
   "options": 8140,
   "essor": 8141,
   "professor": 8142,
   "friendly": 8143,
   "affected": 8144,
   "resolve": 8145,
   "you've": 8146,
   "dat": 8147,
   "engineering": 8148,
   "inconvenience": 8149,
   "interview": 8150,
   "investor": 8151,
   "hur": 8152,
   "gift": 8153,
   "setting": 8154,
   "posit": 8155,
   "quo": 8156,
   "exciting": 8157,
   "hiring": 8158,
   "attention": 8159,
   "involving": 8160,
   "alcanzaron": 8161,
   "biblioteca": 8162,
   "responsabilidad": 8163,
   "touch": 8164,
   "completa": 8165,
   "quir": 8166,
   "vivo": 8167,
   "comparación": 8168,
   "tribun": 8169,
   "logías": 8170,
   "canc": 8171,
   "antici": 8172,
   "comments": 8173,
   "candid": 8174,
   "reciente": 8175,
   "preser": 8176,
   "reuni": 8177,
   "tecnológ": 8178,
   "improvements": 8179,
   "implement": 8180,
   "buenos": 8181,
   "fico": 8182,
   "trá": 8183,
   "haya": 8184,
   "tendr": 8185,
   "restring": 8186,
   "sarah": 8187,
   "abierta": 8188,
   "adoras": 8189,
   "carta": 8190,
   "trabajando": 8191,
   "queridos": 8192,
   "izado": 8193,
   "efecto": 8194,
   "aní": 8195,
   "learning": 8196,
   "calle": 8197,
   "África": 8198,
   "mensajes": 8199,
   "command": 8200,
   "malicios": 8201,
   "alizada": 8202,
   "bole": 8203,
   "ancias": 8204,
   "ofrecer": 8205,
   "claro": 8206,
   "recepción": 8207,
   "millón": 8208,
   "idado": 8209,
   "cuidado": 8210,
   "cargar": 8211,
   "vier": 8212,
   "enorme": 8213,
   "cionados": 8214,
   "estudiante": 8215,
   "visa": 8216,
   "escribir": 8217,
   "estará": 8218,
   "aviso": 8219,
   "ministerio": 8220,
   "responda": 8221,
   "nuestras": 8222,
   "sospechosa": 8223,
   "izados": 8224,
   "supuesto": 8225,
   "cionar": 8226,
   "presentar": 8227,
   "asistir": 8228,
   "intereses": 8229,
   "recla": 8230,
   "garcía": 8231,
   "euros": 8232,
   "tenga": 8233,
   "recaud": 8234,
   "pornográficas": 8235,
   "erotismo": 8236,
   "oriarty": 8237,
   "moriarty": 8238,
   "svg": 8239,
   "geolog": 8240,
   "junctions": 8241,
   "llabic": 8242,
   "yllabic": 8243,
   "morphemes": 8244,
   "erótico": 8245,
   "iline": 8246,
   "feudo": 8247,
   "argentino": 8248,
   "apat": 8249,
   "ganando": 8250,
   "madre": 8251,
   "rous": 8252,
   "motores": 8253,
   "plaid": 8254,
   "psic": 8255,
   "censur": 8256,
   "barro": 8257,
   "selva": 8258,
   "amazón": 8259,
   "miner": 8260,
   "volumen": 8261,
   "cápita": 8262,
   "montaña": 8263,
   "ocean": 8264,
   "consa": 8265,
   "estadio": 8266,
   "eley": 8267,
   "bombas": 8268,
   "instalación": 8269,
   "dispositivo": 8270,
   "áculo": 8271,
   "formatos": 8272,
   "contrat": 8273,
   "medalla": 8274,
   "azul": 8275,
   "piloto": 8276,
   "aflu": 8277,
   "abandonó": 8278,
   "noticias": 8279,
   "controles": 8280,
   "portación": 8281,
   "combusti": 8282,
   "bahía": 8283,
   "lluvi": 8284,
   "libra": 8285,
   "municip": 8286,
   "diera": 8287,
   "ingles": 8288,
   "virtud": 8289,
   "tenant": 8290,
   "eutenant": 8291,
   "lieutenant": 8292,
   "ciertas": 8293,
   "compatibilidad": 8294,
   "neas": 8295,
   "elem": 8296,
   "elemento": 8297,
   "lleva": 8298,
   "bajas": 8299,
   "esfuerzo": 8300,
   "sierra": 8301,
   "wu": 8302,
   "fres": 8303,
   "amplio": 8304,
   "notor": 8305,
   "sello": 8306,
   "ngeles": 8307,
   "Ángeles": 8308,
   "guitarra": 8309,
   "dinámica": 8310,
   "perfiles": 8311,
   "margen": 8312,
   "úo": 8313,
   "dúo": 8314,
   "verano": 8315,
   "compartió": 8316,
   "apertura": 8317,
   "agrupación": 8318,
   "cantante": 8319,
   "supervivencia": 8320,
   "elia": 8321,
   "altos": 8322,
   "mbito": 8323,
   "ámbito": 8324,
   "alizar": 8325,
   "mane": 8326,
   "defensa": 8327,
   "entidad": 8328,
   "empezaron": 8329,
   "denominado": 8330,
   "hispano": 8331,
   "consecuencia": 8332,
   "españoles": 8333,
   "guatem": 8334,
   "participaron": 8335,
   "comunicaciones": 8336,
   "admi": 8337,
   "argumento": 8338,
   "ífica": 8339,
   "pele": 8340,
   "aprovech": 8341,
   "pudo": 8342,
   "fabricación": 8343,
   "derrotado": 8344,
   "armas": 8345,
   "levant": 8346,
   "detrás": 8347,
   "obst": 8348,
   "cristian": 8349,
   "difícil": 8350,
   "chalukyas": 8351,
   "amar": 8352,
   "justicia": 8353,
   "visitantes": 8354,
   "caída": 8355,
   "harsha": 8356,
   "continuó": 8357,
   "neos": 8358,
   "abes": 8359,
   "hacienda": 8360,
   "informes": 8361,
   "vían": 8362,
   "controla": 8363,
   "shunga": 8364,
   "permaneció": 8365,
   "fundad": 8366,
   "lenguas": 8367,
   "composición": 8368,
   "grada": 8369,
   "caron": 8370,
   "cordill": 8371,
   "registros": 8372,
   "ganges": 8373,
   "ejemplos": 8374,
   "decadencia": 8375,
   "limitada": 8376,
   "matemáticas": 8377,
   "numerosas": 8378,
   "desarrolló": 8379,
   "hinduismo": 8380,
   "védica": 8381,
   "entamientos": 8382,
   "otorgado": 8383,
   "avances": 8384,
   "masiado": 8385,
   "demasiado": 8386,
   "Él": 8387,
   "mucha": 8388,
   "dichos": 8389,
   "cotidi": 8390,
   "llegaron": 8391,
   "tradicionales": 8392,
   "autón": 8393,
   "acos": 8394,
   "habilit": 8395,
   "cían": 8396,
   "adquirir": 8397,
   "propó": 8398,
   "debía": 8399,
   "padres": 8400,
   "avent": 8401,
   "sombr": 8402,
   "ariamente": 8403,
   "emisión": 8404,
   "conocidas": 8405,
   "mundi": 8406,
   "transmisiones": 8407,
   "ubicado": 8408,
   "vtuber": 8409,
   "cartel": 8410,
   "borde": 8411,
   "constituent": 8412,
   "venezuel": 8413,
   "legislative": 8414,
   "module": 8415,
   "cohen": 8416,
   "ired": 8417,
   "chaired": 8418,
   "eleva": 8419,
   "nominal": 8420,
   "skin": 8421,
   "pion": 8422,
   "intermedia": 8423,
   "profil": 8424,
   "hd": 8425,
   "trig": 8426,
   "signatures": 8427,
   "telem": 8428,
   "editions": 8429,
   "angel": 8430,
   "therapy": 8431,
   "lesbian": 8432,
   "franch": 8433,
   "jones": 8434,
   "econom": 8435,
   "costu": 8436,
   "plas": 8437,
   "aesthe": 8438,
   "macro": 8439,
   "franco": 8440,
   "lum": 8441,
   "cinemato": 8442,
   "sculp": 8443,
   "painting": 8444,
   "oko": 8445,
   "amas": 8446,
   "rer": 8447,
   "ardi": 8448,
   "kins": 8449,
   "distinct": 8450,
   "drives": 8451,
   "brah": 8452,
   "etas": 8453,
   "yan": 8454,
   "familias": 8455,
   "tains": 8456,
   "meno": 8457,
   "borrow": 8458,
   "portra": 8459,
   "theo": 8460,
   "enem": 8461,
   "wm": 8462,
   "emergen": 8463,
   "understanding": 8464,
   "philip": 8465,
   "satisfac": 8466,
   "oldest": 8467,
   "pore": 8468,
   "singapore": 8469,
   "courage": 8470,
   "peoples'": 8471,
   "purpose": 8472,
   "serve": 8473,
   "ader": 8474,
   "icc": 8475,
   "wars": 8476,
   "wick": 8477,
   "composed": 8478,
   "legiti": 8479,
   "medieval": 8480,
   "argue": 8481,
   "une": 8482,
   "inher": 8483,
   "archite": 8484,
   "conditional": 8485,
   "decor": 8486,
   "patterns": 8487,
   "conquer": 8488,
   "equip": 8489,
   "vial": 8490,
   "abstr": 8491,
   "representation": 8492,
   "alan": 8493,
   "recur": 8494,
   "analytical": 8495,
   "machines": 8496,
   "arithmetic": 8497,
   "execution": 8498,
   "buried": 8499,
   "etary": 8500,
   "deliber": 8501,
   "girls": 8502,
   "investig": 8503,
   "automo": 8504,
   "replace": 8505,
   "korean": 8506,
   "driven": 8507,
   "slist": 8508,
   "craigslist": 8509,
   "jury": 8510,
   "ities": 8511,
   "aires": 8512,
   "ths": 8513,
   "defense": 8514,
   "dyar": 8515,
   "omidyar": 8516,
   "multin": 8517,
   "ls": 8518,
   "circular": 8519,
   "sens": 8520,
   "mind": 8521,
   "tique": 8522,
   "ived": 8523,
   "treas": 8524,
   "defend": 8525,
   "yer": 8526,
   "matt": 8527,
   "menta": 8528,
   "chart": 8529,
   "bly": 8530,
   "algorithmic": 8531,
   "mixed": 8532,
   "opinion": 8533,
   "conduct": 8534,
   "allowed": 8535,
   "spaces": 8536,
   "risk": 8537,
   "judge": 8538,
   "layers": 8539,
   "ffici": 8540,
   "investigation": 8541,
   "instagram": 8542,
   "rhetoric": 8543,
   "networks": 8544,
   "covid": 8545,
   "atori": 8546,
   "creator": 8547,
   "offers": 8548,
   "bots": 8549,
   "worldwide": 8550,
   "condem": 8551,
   "migration": 8552,
   "stating": 8553,
   "aspects": 8554,
   "wat": 8555,
   "citing": 8556,
   "deem": 8557,
   "onoun": 8558,
   "pronoun": 8559,
   "tization": 8560,
   "calls": 8561,
   "prefer": 8562,
   "plit": 8563,
   "technique": 8564,
   "enab": 8565,
   "resonance": 8566,
   "hip": 8567,
   "explained": 8568,
   "earth's": 8569,
   "evolution": 8570,
   "conds": 8571,
   "seconds": 8572,
   "astron": 8573,
   "mize": 8574,
   "encies": 8575,
   "passing": 8576,
   "effective": 8577,
   "pulse": 8578,
   "extensions": 8579,
   "determined": 8580,
   "signal": 8581,
   "becomes": 8582,
   "chron": 8583,
   "suggested": 8584,
   "assumed": 8585,
   "formu": 8586,
   "mathematical": 8587,
   "requiring": 8588,
   "increases": 8589,
   "verified": 8590,
   "fram": 8591,
   "experiments": 8592,
   "aether": 8593,
   "foot": 8594,
   "imperial": 8595,
   "historically": 8596,
   "observer": 8597,
   "regardless": 8598,
   "upiter": 8599,
   "jupiter": 8600,
   "radia": 8601,
   "upper": 8602,
   "relative": 8603,
   "england": 8604,
   "swiss": 8605,
   "portugal": 8606,
   "lyonna": 8607,
   "jordan": 8608,
   "hell": 8609,
   "prus": 8610,
   "iffe": 8611,
   "deuts": 8612,
   "bai": 8613,
   "affect": 8614,
   "resign": 8615,
   "resig": 8616,
   "seller": 8617,
   "partners": 8618,
   "pet": 8619,
   "dations": 8620,
   "extensive": 8621,
   "ordered": 8622,
   "spring": 8623,
   "presentation": 8624,
   "goals": 8625,
   "holiday": 8626,
   "timel": 8627,
   "ctives": 8628,
   "ising": 8629,
   "monday": 8630,
   "patent": 8631,
   "rachel": 8632,
   "venture": 8633,
   "reaching": 8634,
   "caused": 8635,
   "arrangement": 8636,
   "alar": 8637,
   "intern": 8638,
   "lity": 8639,
   "utility": 8640,
   "iphone": 8641,
   "apolog": 8642,
   "wd": 8643,
   "joy": 8644,
   "restore": 8645,
   "perfect": 8646,
   "attacks": 8647,
   "approval": 8648,
   "funds": 8649,
   "ited": 8650,
   "orities": 8651,
   "auth": 8652,
   "commerce": 8653,
   "isis": 8654,
   "álisis": 8655,
   "análisis": 8656,
   "considerar": 8657,
   "existencia": 8658,
   "volunt": 8659,
   "coordin": 8660,
   "procesos": 8661,
   "edo": 8662,
   "survey": 8663,
   "administra": 8664,
   "presti": 8665,
   "spot": 8666,
   "experts": 8667,
   "alej": 8668,
   "tareas": 8669,
   "funcional": 8670,
   "cumplir": 8671,
   "benefi": 8672,
   "got": 8673,
   "vocat": 8674,
   "futuro": 8675,
   "esté": 8676,
   "encontrado": 8677,
   "gestión": 8678,
   "almacenamiento": 8679,
   "preven": 8680,
   "sucur": 8681,
   "gratuita": 8682,
   "something": 8683,
   "dents": 8684,
   "bado": 8685,
   "amena": 8686,
   "académicos": 8687,
   "networking": 8688,
   "jugar": 8689,
   "isa": 8690,
   "alcanzado": 8691,
   "vá": 8692,
   "descargar": 8693,
   "simplemente": 8694,
   "preguntas": 8695,
   "fácil": 8696,
   "teo": 8697,
   "enviar": 8698,
   "necesario": 8699,
   "acep": 8700,
   "beca": 8701,
   "elegido": 8702,
   "ciencias": 8703,
   "attack": 8704,
   "aumentar": 8705,
   "inmediatamente": 8706,
   "credito": 8707,
   "entamente": 8708,
   "oportunidades": 8709,
   "necesitamos": 8710,
   "intento": 8711,
   "contrase": 8712,
   "keada": 8713,
   "amigo": 8714,
   "mailto": 8715,
   "saludos": 8716,
   "verifique": 8717,
   "revise": 8718,
   "informarle": 8719,
   "atario": 8720,
   "técnico": 8721,
   "erótica": 8722,
   "eróticas": 8723,
   "angleup": 8724,
   "triangleup": 8725,
   "bigtriangleup": 8726,
   "{v}": 8727,
   "nijdam": 8728,
   "terrestrial": 8729,
   "noth": 8730,
   "territories": 8731,
   "lular": 8732,
   "syllable": 8733,
   "pronunciations": 8734,
   "dakota": 8735,
   "thriller": 8736,
   "theli": 8737,
   "crom": 8738,
   "cubo": 8739,
   "homosexuales": 8740,
   "ixa": 8741,
   "acaixa": 8742,
   "vidacaixa": 8743,
   "controversias": 8744,
   "pilotos": 8745,
   "mecánica": 8746,
   "rocería": 8747,
   "carrocería": 8748,
   "milla": 8749,
   "feto": 8750,
   "conson": 8751,
   "amazónica": 8752,
   "anthony": 8753,
   "explotación": 8754,
   "alfred": 8755,
   "catá": 8756,
   "musume": 8757,
   "alaska": 8758,
   "yendo": 8759,
   "municipio": 8760,
   "consultado": 8761,
   "clasificaciones": 8762,
   "catalog": 8763,
   "añad": 8764,
   "añadió": 8765,
   "suministr": 8766,
   "diseñado": 8767,
   "suspensión": 8768,
   "bél": 8769,
   "ciclismo": 8770,
   "mancomunidad": 8771,
   "utilizados": 8772,
   "derecha": 8773,
   "onzas": 8774,
   "enfermed": 8775,
   "médicos": 8776,
   "tradu": 8777,
   "utilizan": 8778,
   "victoriana": 8779,
   "pensiones": 8780,
   "curraghs": 8781,
   "corrientes": 8782,
   "plano": 8783,
   "mínimo": 8784,
   "esca": 8785,
   "peel": 8786,
   "parroqui": 8787,
   "inglesa": 8788,
   "gaél": 8789,
   "barra": 8790,
   "zone": 8791,
   "femeninos": 8792,
   "comienzan": 8793,
   "chov": 8794,
   "parcialmente": 8795,
   "placas": 8796,
   "unidas": 8797,
   "omán": 8798,
   "consumid": 8799,
   "densidad": 8800,
   "protegido": 8801,
   "pleo": 8802,
   "representar": 8803,
   "posibilidad": 8804,
   "igualmente": 8805,
   "adquirido": 8806,
   "cina": 8807,
   "letra": 8808,
   "capacidades": 8809,
   "ponen": 8810,
   "vuelve": 8811,
   "santa": 8812,
   "ubicada": 8813,
   "itzá": 8814,
   "darse": 8815,
   "cintur": 8816,
   "luch": 8817,
   "contrario": 8818,
   "soberano": 8819,
   "kiló": 8820,
   "asilo": 8821,
   "extrater": 8822,
   "matrimonio": 8823,
   "frecuencia": 8824,
   "competencia": 8825,
   "hablantes": 8826,
   "jayapala": 8827,
   "ganaron": 8828,
   "universidades": 8829,
   "templo": 8830,
   "nó": 8831,
   "asumi": 8832,
   "ciertos": 8833,
   "militares": 8834,
   "campos": 8835,
   "suro": 8836,
   "relacionados": 8837,
   "tradicionalmente": 8838,
   "extranjeros": 8839,
   "hí": 8840,
   "citos": 8841,
   "frag": 8842,
   "prín": 8843,
   "jado": 8844,
   "dominante": 8845,
   "kuru": 8846,
   "comand": 8847,
   "ocupa": 8848,
   "esen": 8849,
   "poner": 8850,
   "cobre": 8851,
   "thal": 8852,
   "cierta": 8853,
   "cordillera": 8854,
   "extendía": 8855,
   "gios": 8856,
   "extensi": 8857,
   "surgió": 8858,
   "gobernó": 8859,
   "fundó": 8860,
   "iales": 8861,
   "surgieron": 8862,
   "traku": 8863,
   "rashtraku": 8864,
   "indias": 8865,
   "intelec": 8866,
   "comerciantes": 8867,
   "mecan": 8868,
   "cotiz": 8869,
   "deres": 8870,
   "reglas": 8871,
   "antiguas": 8872,
   "situaciones": 8873,
   "dichas": 8874,
   "antecedentes": 8875,
   "estrella": 8876,
   "reti": 8877,
   "cerró": 8878,
   "interrum": 8879,
   "visuales": 8880,
   "conmem": 8881,
   "elegidos": 8882,
   "denomina": 8883,
   "simo": 8884,
   "identific": 8885,
   "tarse": 8886,
   "salió": 8887,
   "excepción": 8888,
   "utilizó": 8889,
   "extin": 8890,
   "bloques": 8891,
   "adulto": 8892,
   "piedra": 8893,
   "trasladó": 8894,
   "controversia": 8895,
   "vist": 8896,
   "morales": 8897,
   "variedad": 8898,
   "fusión": 8899,
   "transmitir": 8900,
   "adquisi": 8901,
   "propios": 8902,
   "barbera": 8903,
   "convirtiéndose": 8904,
   "oficinas": 8905,
   "mainland": 8906,
   "buda": 8907,
   "madrid": 8908,
   "venezuelan": 8909,
   "heim": 8910,
   "polymorphic": 8911,
   "pide": 8912,
   "payload": 8913,
   "vulnerabilities": 8914,
   "transport": 8915,
   "neumann": 8916,
   "ransom": 8917,
   "exhibi": 8918,
   "doubles": 8919,
   "prix": 8920,
   "adium": 8921,
   "cry": 8922,
   "programmers": 8923,
   "modif": 8924,
   "broadcast": 8925,
   "movie": 8926,
   "brew": 8927,
   "discover": 8928,
   "decide": 8929,
   "toolbar": 8930,
   "editing": 8931,
   "rive": 8932,
   "edrive": 8933,
   "onedrive": 8934,
   "bundled": 8935,
   "vinc": 8936,
   "vocal": 8937,
   "hier": 8938,
   "laur": 8939,
   "peu": 8940,
   "sport": 8941,
   "titled": 8942,
   "swim": 8943,
   "ceramic": 8944,
   "yoko": 8945,
   "enka": 8946,
   "gare": 8947,
   "arrow": 8948,
   "tistic": 8949,
   "artistic": 8950,
   "conceptu": 8951,
   "giles": 8952,
   "yin": 8953,
   "perfe": 8954,
   "regarded": 8955,
   "golden": 8956,
   "production": 8957,
   "museo": 8958,
   "arthur": 8959,
   "library": 8960,
   "hans": 8961,
   "eman": 8962,
   "deputy": 8963,
   "yang": 8964,
   "traditions": 8965,
   "judicial": 8966,
   "democracy": 8967,
   "distinc": 8968,
   "abuses": 8969,
   "beau": 8970,
   "itary": 8971,
   "obligations": 8972,
   "ishment": 8973,
   "rule": 8974,
   "amble": 8975,
   "citizens": 8976,
   "binding": 8977,
   "anca": 8978,
   "wisdom": 8979,
   "culmin": 8980,
   "collected": 8981,
   "difficul": 8982,
   "increment": 8983,
   "umer": 8984,
   "export": 8985,
   "emen": 8986,
   "instruction": 8987,
   "gives": 8988,
   "invented": 8989,
   "inven": 8990,
   "automated": 8991,
   "sequence": 8992,
   "governor": 8993,
   "cache": 8994,
   "vast": 8995,
   "rarely": 8996,
   "cket": 8997,
   "scanning": 8998,
   "lene": 8999,
   "talk": 9000,
   "pande": 9001,
   "ids": 9002,
   "settled": 9003,
   "pit": 9004,
   "enterprise": 9005,
   "silver": 9006,
   "dream": 9007,
   "technologies": 9008,
   "cé": 9009,
   "jef": 9010,
   "mah": 9011,
   "places": 9012,
   "theat": 9013,
   "democra": 9014,
   "treasury": 9015,
   "rapidly": 9016,
   "iled": 9017,
   "fear": 9018,
   "coali": 9019,
   "lars": 9020,
   "accused": 9021,
   "actor": 9022,
   "benefit": 9023,
   "publican": 9024,
   "intendo": 9025,
   "nintendo": 9026,
   "alleged": 9027,
   "sought": 9028,
   "jewish": 9029,
   "tend": 9030,
   "funded": 9031,
   "nazi": 9032,
   "kath": 9033,
   "provider": 9034,
   "picture": 9035,
   "christo": 9036,
   "rise": 9037,
   "conflict": 9038,
   "false": 9039,
   "preval": 9040,
   "highest": 9041,
   "messages": 9042,
   "hash": 9043,
   "abuse": 9044,
   "trump": 9045,
   "reportedly": 9046,
   "influenced": 9047,
   "reduced": 9048,
   "hardcore": 9049,
   "ultimat": 9050,
   "layoffs": 9051,
   "simplified": 9052,
   "build": 9053,
   "publicly": 9054,
   "offered": 9055,
   "larry": 9056,
   "attempted": 9057,
   "isted": 9058,
   "sharehol": 9059,
   "rebrand": 9060,
   "profiles": 9061,
   "esty": 9062,
   "fying": 9063,
   "edward": 9064,
   "obtain": 9065,
   "dismis": 9066,
   "arguments": 9067,
   "ria": 9068,
   "combined": 9069,
   "split": 9070,
   "greatest": 9071,
   "cook": 9072,
   "fixed": 9073,
   "ois": 9074,
   "stars": 9075,
   "graphs": 9076,
   "elds": 9077,
   "fields": 9078,
   "straight": 9079,
   "close": 9080,
   "placed": 9081,
   "none": 9082,
   "relations": 9083,
   "imagin": 9084,
   "dium": 9085,
   "diam": 9086,
   "}{": 9087,
   "wise": 9088,
   "shado": 9089,
   "seem": 9090,
   "infinite": 9091,
   "limits": 9092,
   "conclus": 9093,
   "depend": 9094,
   "occurs": 9095,
   "gali": 9096,
   "entz": 9097,
   "lorentz": 9098,
   "exclusively": 9099,
   "electric": 9100,
   "ratio": 9101,
   "showed": 9102,
   "enas": 9103,
   "apparent": 9104,
   "extrem": 9105,
   "signals": 9106,
   "viewing": 9107,
   "universe": 9108,
   "distances": 9109,
   "interval": 9110,
   "domestic": 9111,
   "shire": 9112,
   "ading": 9113,
   "sweden": 9114,
   "sparebanken": 9115,
   "consumer": 9116,
   "mona": 9117,
   "chamber": 9118,
   "italy": 9119,
   "irish": 9120,
   "franç": 9121,
   "iffeisen": 9122,
   "raiffeisen": 9123,
   "zagre": 9124,
   "deutsche": 9125,
   "spa": 9126,
   "bnp": 9127,
   "exce": 9128,
   "angeles": 9129,
   "archive": 9130,
   "testing": 9131,
   "celebra": 9132,
   "sustain": 9133,
   "proje": 9134,
   "pair": 9135,
   "leadership": 9136,
   "calendar": 9137,
   "detailed": 9138,
   "documentation": 9139,
   "talent": 9140,
   "everyone": 9141,
   "i'd": 9142,
   "smart": 9143,
   "resulted": 9144,
   "needed": 9145,
   "discussing": 9146,
   "gem": 9147,
   "expen": 9148,
   "panel": 9149,
   "highly": 9150,
   "passwords": 9151,
   "supporting": 9152,
   "circum": 9153,
   "identify": 9154,
   "door": 9155,
   "facil": 9156,
   "peace": 9157,
   "apologize": 9158,
   "proceed": 9159,
   "friends": 9160,
   "enhan": 9161,
   "forever": 9162,
   "cryptocurrency": 9163,
   "disrup": 9164,
   "unique": 9165,
   "registration": 9166,
   "yourself": 9167,
   "respond": 9168,
   "delayed": 9169,
   "warning": 9170,
   "n't": 9171,
   "fras": 9172,
   "encon": 9173,
   "restantes": 9174,
   "bierto": 9175,
   "recién": 9176,
   "conex": 9177,
   "nán": 9178,
   "recuperación": 9179,
   "hear": 9180,
   "jim": 9181,
   "biendo": 9182,
   "coleg": 9183,
   "participantes": 9184,
   "celona": 9185,
   "barcelona": 9186,
   "benefits": 9187,
   "alejandro": 9188,
   "programado": 9189,
   "empleados": 9190,
   "acept": 9191,
   "cercano": 9192,
   "calendario": 9193,
   "campañas": 9194,
   "pod": 9195,
   "unirse": 9196,
   "alcanzar": 9197,
   "raya": 9198,
   "atorio": 9199,
   "conferencias": 9200,
   "sala": 9201,
   "abor": 9202,
   "salida": 9203,
   "habi": 9204,
   "scripting": 9205,
   "aeropuerto": 9206,
   "japón": 9207,
   "resu": 9208,
   "mañana": 9209,
   "puestas": 9210,
   "monit": 9211,
   "posibles": 9212,
   "opciones": 9213,
   "pocos": 9214,
   "resultados": 9215,
   "pé": 9216,
   "cate": 9217,
   "inqui": 9218,
   "medidas": 9219,
   "personales": 9220,
   "revisión": 9221,
   "promoción": 9222,
   "íqu": 9223,
   "viajes": 9224,
   "compromiso": 9225,
   "eliminar": 9226,
   "espera": 9227,
   "ésta": 9228,
   "nores": 9229,
   "quiere": 9230,
   "invers": 9231,
   "bloc": 9232,
   "innova": 9233,
   "habido": 9234,
   "revisar": 9235,
   "contes": 9236,
   "esperamos": 9237,
   "refor": 9238,
   "destinatario": 9239,
   "pornográficos": 9240,
   "uncut": 9241,
   "complementos": 9242,
   "renderi": 9243,
   "hadean": 9244,
   "spyglass": 9245,
   "bach": 9246,
   "coy": 9247,
   "mccoy": 9248,
   "nafta": 9249,
   "rail": 9250,
   "thelium": 9251,
   "cuboidal": 9252,
   "shí": 9253,
   "syllables": 9254,
   "cryst": 9255,
   "obsceno": 9256,
   "doctorados": 9257,
   "vueltas": 9258,
   "bris": 9259,
   "lingotes": 9260,
   "convención": 9261,
   "volcan": 9262,
   "pubertad": 9263,
   "styles": 9264,
   "guns": 9265,
   "parámetros": 9266,
   "concentración": 9267,
   "actc": 9268,
   "hous": 9269,
   "nac": 9270,
   "caras": 9271,
   "catwoman": 9272,
   "dicrous": 9273,
   "ludicrous": 9274,
   "cargador": 9275,
   "epa": 9276,
   "kien": 9277,
   "iae": 9278,
   "censura": 9279,
   "ferti": 9280,
   "abejor": 9281,
   "minas": 9282,
   "desempleo": 9283,
   "races": 9284,
   "escalar": 9285,
   "amarca": 9286,
   "tiendas": 9287,
   "opción": 9288,
   "típ": 9289,
   "guang": 9290,
   "letas": 9291,
   "ácter": 9292,
   "carácter": 9293,
   "reggae": 9294,
   "leza": 9295,
   "belleza": 9296,
   "dirigida": 9297,
   "robar": 9298,
   "máquinas": 9299,
   "comportamientos": 9300,
   "caché": 9301,
   "instituto": 9302,
   "atrás": 9303,
   "motiv": 9304,
   "plás": 9305,
   "razón": 9306,
   "ciclista": 9307,
   "denominarse": 9308,
   "entan": 9309,
   "secundaria": 9310,
   "católicos": 9311,
   "úan": 9312,
   "suiza": 9313,
   "aduanas": 9314,
   "corredores": 9315,
   "ofrecen": 9316,
   "exterior": 9317,
   "fort": 9318,
   "cronk": 9319,
   "fauna": 9320,
   "flora": 9321,
   "reciben": 9322,
   "alcanza": 9323,
   "aquellas": 9324,
   "kirk": 9325,
   "castle": 9326,
   "otorgó": 9327,
   "conjun": 9328,
   "escolar": 9329,
   "representaciones": 9330,
   "lang": 9331,
   "eliminación": 9332,
   "haciendo": 9333,
   "yemen": 9334,
   "catar": 9335,
   "bregi": 9336,
   "subregi": 9337,
   "selección": 9338,
   "olímp": 9339,
   "valores": 9340,
   "compuesto": 9341,
   "pesca": 9342,
   "killer": 9343,
   "influenci": 9344,
   "decisión": 9345,
   "afirmó": 9346,
   "graba": 9347,
   "combinación": 9348,
   "accidente": 9349,
   "cesis": 9350,
   "diócesis": 9351,
   "archivado": 9352,
   "explic": 9353,
   "póster": 9354,
   "abrevi": 9355,
   "asahi": 9356,
   "finalizó": 9357,
   "iglesias": 9358,
   "primi": 9359,
   "referirse": 9360,
   "descubrimiento": 9361,
   "guatemala": 9362,
   "pán": 9363,
   "catacly": 9364,
   "suecia": 9365,
   "basados": 9366,
   "anciación": 9367,
   "financiación": 9368,
   "gabriel": 9369,
   "bernam": 9370,
   "gubernam": 9371,
   "décima": 9372,
   "viera": 9373,
   "suelo": 9374,
   "portaciones": 9375,
   "kilómetros": 9376,
   "permiso": 9377,
   "europeas": 9378,
   "estabilidad": 9379,
   "tratado": 9380,
   "mari": 9381,
   "estilos": 9382,
   "aleza": 9383,
   "fisc": 9384,
   "ceremon": 9385,
   "nutri": 9386,
   "emente": 9387,
   "pocas": 9388,
   "obstante": 9389,
   "noreste": 9390,
   "bap": 9391,
   "derrotaron": 9392,
   "baj": 9393,
   "costas": 9394,
   "tán": 9395,
   "fuertemente": 9396,
   "sfera": 9397,
   "mósfera": 9398,
   "atmósfera": 9399,
   "iva": 9400,
   "tana": 9401,
   "crítico": 9402,
   "tome": 9403,
   "goa": 9404,
   "endra": 9405,
   "templos": 9406,
   "tez": 9407,
   "glad": 9408,
   "taka": 9409,
   "ónicas": 9410,
   "arábi": 9411,
   "kushán": 9412,
   "ná": 9413,
   "xu": 9414,
   "viaj": 9415,
   "suroeste": 9416,
   "glands": 9417,
   "zamiento": 9418,
   "griegos": 9419,
   "rol": 9420,
   "grabados": 9421,
   "rique": 9422,
   "satava": 9423,
   "declive": 9424,
   "escritores": 9425,
   "colec": 9426,
   "vidas": 9427,
   "allá": 9428,
   "artístico": 9429,
   "asesin": 9430,
   "prínci": 9431,
   "incluir": 9432,
   "investigadores": 9433,
   "encontró": 9434,
   "quiera": 9435,
   "kas": 9436,
   "diferenci": 9437,
   "originaron": 9438,
   "bieron": 9439,
   "«la": 9440,
   "cuyas": 9441,
   "corresponde": 9442,
   "alizado": 9443,
   "proveni": 9444,
   "grados": 9445,
   "apogeo": 9446,
   "comunidades": 9447,
   "agrí": 9448,
   "estructuras": 9449,
   "moderno": 9450,
   "sij": 9451,
   "rashput": 9452,
   "conquistó": 9453,
   "nau": 9454,
   "establecimiento": 9455,
   "potencias": 9456,
   "milen": 9457,
   "históricas": 9458,
   "itarios": 9459,
   "dependiendo": 9460,
   "trama": 9461,
   "usualmente": 9462,
   "revel": 9463,
   "adolesc": 9464,
   "rusia": 9465,
   "tendencia": 9466,
   "cifra": 9467,
   "suscriptores": 9468,
   "autóno": 9469,
   "encontraba": 9470,
   "árabe": 9471,
   "máquina": 9472,
   "ecuador": 9473,
   "inicia": 9474,
   "aparte": 9475,
   "fama": 9476,
   "cuadr": 9477,
   "incluyó": 9478,
   "propósito": 9479,
   "llamarse": 9480,
   "espir": 9481,
   "bautiz": 9482,
   "décimo": 9483,
   "yun": 9484,
   "fila": 9485,
   "mantuvo": 9486,
   "ocurrió": 9487,
   "llegando": 9488,
   "oney": 9489,
   "enfoque": 9490,
   "cartoons": 9491,
   "merang": 9492,
   "boomerang": 9493,
   "lanzaron": 9494,
   "dedicada": 9495,
   "caba": 9496,
   "producciones": 9497,
   "jerry": 9498,
   "tox": 9499,
   "ijing": 9500,
   "parmio": 9501,
   "risparmio": 9502,
   "bruce": 9503,
   "delta": 9504,
   "rae": 9505,
   "bé": 9506,
   "octa": 9507,
   "hacking": 9508,
   "replic": 9509,
   "ip": 9510,
   "slam": 9511,
   "embedded": 9512,
   "chrome": 9513,
   "junk": 9514,
   "jum": 9515,
   "powerpc": 9516,
   "compound": 9517,
   "subsequent": 9518,
   "tx": 9519,
   "cloud": 9520,
   "officials": 9521,
   "scar": 9522,
   "elector": 9523,
   "pear": 9524,
   "camp": 9525,
   "comprises": 9526,
   "intersex": 9527,
   "heterosexual": 9528,
   "designer": 9529,
   "rhy": 9530,
   "linguistic": 9531,
   "oras": 9532,
   "bet": 9533,
   "poetry": 9534,
   "identities": 9535,
   "hang": 9536,
   "koi": 9537,
   "sham": 9538,
   "fourth": 9539,
   "pepper": 9540,
   "alco": 9541,
   "extended": 9542,
   "visited": 9543,
   "ingvar": 9544,
   "distr": 9545,
   "sinc": 9546,
   "benjam": 9547,
   "creative": 9548,
   "hism": 9549,
   "heart": 9550,
   "lord": 9551,
   "ideo": 9552,
   "borrowed": 9553,
   "root": 9554,
   "bourne": 9555,
   "zy": 9556,
   "berlin": 9557,
   "jazz": 9558,
   "thers": 9559,
   "coas": 9560,
   "veda": 9561,
   "nick": 9562,
   "ange": 9563,
   "islam": 9564,
   "pdf": 9565,
   "publishing": 9566,
   "emergency": 9567,
   "significantly": 9568,
   "maintain": 9569,
   "vereign": 9570,
   "sovereign": 9571,
   "vive": 9572,
   "hands": 9573,
   "southeast": 9574,
   "corrup": 9575,
   "persons": 9576,
   "meetings": 9577,
   "committees": 9578,
   "strate": 9579,
   "representatives": 9580,
   "spiritual": 9581,
   "mandate": 9582,
   "itarian": 9583,
   "diverse": 9584,
   "workers": 9585,
   "debate": 9586,
   "appropriate": 9587,
   "perspec": 9588,
   "characteristics": 9589,
   "norms": 9590,
   "acm": 9591,
   "neigh": 9592,
   "relatively": 9593,
   "categories": 9594,
   "complexity": 9595,
   "instance": 9596,
   "consisting": 9597,
   "operation": 9598,
   "disciplines": 9599,
   "abstract": 9600,
   "t'": 9601,
   "sets": 9602,
   "kon": 9603,
   "constructed": 9604,
   "defines": 9605,
   "sian": 9606,
   "heur": 9607,
   "executed": 9608,
   "returned": 9609,
   "maps": 9610,
   "ende": 9611,
   "vascript": 9612,
   "javascript": 9613,
   "surge": 9614,
   "estate": 9615,
   "aging": 9616,
   "coll": 9617,
   "steve": 9618,
   "tims": 9619,
   "victims": 9620,
   "harry": 9621,
   "goods": 9622,
   "player": 9623,
   "kel": 9624,
   "dex": 9625,
   "existence": 9626,
   "seat": 9627,
   "directors": 9628,
   "ense": 9629,
   "virginia": 9630,
   "factors": 9631,
   "ues": 9632,
   "repu": 9633,
   "markets": 9634,
   "says": 9635,
   "gilbert": 9636,
   "dual": 9637,
   "theater": 9638,
   "ron": 9639,
   "singer": 9640,
   "jaco": 9641,
   "hein": 9642,
   "sports": 9643,
   "sony": 9644,
   "boyco": 9645,
   "loss": 9646,
   "mites": 9647,
   "israel": 9648,
   "revealed": 9649,
   "stephen": 9650,
   "fications": 9651,
   "saw": 9652,
   "ctural": 9653,
   "computational": 9654,
   "tering": 9655,
   "popularity": 9656,
   "cide": 9657,
   "loaded": 9658,
   "zeal": 9659,
   "indican": 9660,
   "replacing": 9661,
   "pressure": 9662,
   "wiki": 9663,
   "independence": 9664,
   "respective": 9665,
   "grounds": 9666,
   "accessible": 9667,
   "tioned": 9668,
   "braz": 9669,
   "toler": 9670,
   "evol": 9671,
   "ultimately": 9672,
   "fficient": 9673,
   "dark": 9674,
   "christopher": 9675,
   "shut": 9676,
   "api": 9677,
   "transpho": 9678,
   "labour": 9679,
   "enforce": 9680,
   "handling": 9681,
   "arguing": 9682,
   "cisgender": 9683,
   "elections": 9684,
   "advertise": 9685,
   "articles": 9686,
   "purchased": 9687,
   "returning": 9688,
   "pointed": 9689,
   "agree": 9690,
   "responded": 9691,
   "adic": 9692,
   "removing": 9693,
   "alongside": 9694,
   "businesses": 9695,
   "harris": 9696,
   "granted": 9697,
   "sri": 9698,
   "lets": 9699,
   "pictures": 9700,
   "predecess": 9701,
   "resigned": 9702,
   "vig": 9703,
   "ustr": 9704,
   "mainly": 9705,
   "nil": 9706,
   "gave": 9707,
   "newton": 9708,
   "theless": 9709,
   "oppos": 9710,
   "recognized": 9711,
   "emp": 9712,
   "presented": 9713,
   "presence": 9714,
   "maintained": 9715,
   "bce": 9716,
   "melt": 9717,
   "cavity": 9718,
   "rosa": 9719,
   "françois": 9720,
   "cog": 9721,
   "fou": 9722,
   "causes": 9723,
   "interferome": 9724,
   "measuring": 9725,
   "precise": 9726,
   "calcula": 9727,
   "parse": 9728,
   "images": 9729,
   "deep": 9730,
   "pollo": 9731,
   "craft": 9732,
   "switch": 9733,
   "seek": 9734,
   "erci": 9735,
   "cycle": 9736,
   "posite": 9737,
   "exception": 9738,
   "stored": 9739,
   "hub": 9740,
   "involves": 9741,
   "travelling": 9742,
   "photon": 9743,
   "vary": 9744,
   "particle": 9745,
   "unified": 9746,
   "experimental": 9747,
   "motiva": 9748,
   "officer": 9749,
   "accel": 9750,
   "tism": 9751,
   "albert": 9752,
   "maxwell": 9753,
   "minimum": 9754,
   "ultimate": 9755,
   "humans": 9756,
   "viewed": 9757,
   "brad": 9758,
   "alliance": 9759,
   "inian": 9760,
   "ukraine": 9761,
   "wy": 9762,
   "jersey": 9763,
   "kia": 9764,
   "mont": 9765,
   "usb": 9766,
   "incorporated": 9767,
   "cyprus": 9768,
   "licensed": 9769,
   "relevant": 9770,
   "bb": 9771,
   "activities": 9772,
   "showing": 9773,
   "extend": 9774,
   "rd": 9775,
   "recommended": 9776,
   "welcome": 9777,
   "hosting": 9778,
   "funding": 9779,
   "engineers": 9780,
   "allen": 9781,
   "park": 9782,
   "skills": 9783,
   "failed": 9784,
   "vote": 9785,
   "wednes": 9786,
   "title": 9787,
   "ost": 9788,
   "connected": 9789,
   "pient": 9790,
   "stances": 9791,
   "circumstances": 9792,
   "propose": 9793,
   "choose": 9794,
   "pired": 9795,
   "budget": 9796,
   "requirements": 9797,
   "career": 9798,
   "prescription": 9799,
   "shortly": 9800,
   "dele": 9801,
   "dedicated": 9802,
   "pick": 9803,
   "prepared": 9804,
   "expert": 9805,
   "suppor": 9806,
   "info": 9807,
   "greece": 9808,
   "quote": 9809,
   "remove": 9810,
   "técnicas": 9811,
   "estadísticas": 9812,
   "integrada": 9813,
   "entender": 9814,
   "informó": 9815,
   "plug": 9816,
   "camino": 9817,
   "elegir": 9818,
   "ingreso": 9819,
   "edan": 9820,
   "puedan": 9821,
   "bastante": 9822,
   "presentes": 9823,
   "sual": 9824,
   "habl": 9825,
   "utilizando": 9826,
   "entación": 9827,
   "rido": 9828,
   "eficiencia": 9829,
   "vender": 9830,
   "introducción": 9831,
   "libri": 9832,
   "liderazgo": 9833,
   "participaciones": 9834,
   "centra": 9835,
   "acerca": 9836,
   "dejar": 9837,
   "tráfico": 9838,
   "errores": 9839,
   "miami": 9840,
   "jueves": 9841,
   "rep": 9842,
   "respal": 9843,
   "dul": 9844,
   "ardo": 9845,
   "procedi": 9846,
   "comprar": 9847,
   "demos": 9848,
   "públicos": 9849,
   "modific": 9850,
   "barrio": 9851,
   "exclusiva": 9852,
   "extranjero": 9853,
   "hosp": 9854,
   "destino": 9855,
   "cambiado": 9856,
   "malicioso": 9857,
   "recuperar": 9858,
   "offering": 9859,
   "inscripción": 9860,
   "altar": 9861,
   "gradu": 9862,
   "razon": 9863,
   "desempeñ": 9864,
   "acute": 9865,
   "garantizar": 9866,
   "ansi": 9867,
   "pregunta": 9868,
   "deja": 9869,
   "vuelo": 9870,
   "bienestar": 9871,
   "lida": 9872,
   "há": 9873,
   "compte": 9874,
   "cancelado": 9875,
   "riesgo": 9876,
   "peligro": 9877,
   "automático": 9878,
   "complace": 9879,
   "descuento": 9880,
   "horros": 9881,
   "ahorros": 9882,
   "compara": 9883,
   "pérdidas": 9884,
   "cerrar": 9885,
   "redito": 9886,
   "renovar": 9887,
   "gana": 9888,
   "enos": 9889,
   "bancos": 9890,
   "tienda": 9891,
   "económicos": 9892,
   "ofreciendo": 9893,
   "bienven": 9894,
   "regal": 9895,
   "artística": 9896,
   "eróticos": 9897,
   "cinética": 9898,
   "assen": 9899,
   "maassen": 9900,
   "bike": 9901,
   "visma": 9902,
   "renderizado": 9903,
   "craters": 9904,
   "cataclysm": 9905,
   "fischer": 9906,
   "physiology": 9907,
   "discoverer": 9908,
   "biologist": 9909,
   "xhtml": 9910,
   "tscape": 9911,
   "netscape": 9912,
   "florek": 9913,
   "renewed": 9914,
   "franchise": 9915,
   "settlements": 9916,
   "erik": 9917,
   "protein": 9918,
   "basement": 9919,
   "acellular": 9920,
   "monos": 9921,
   "vocabul": 9922,
   "vietnamese": 9923,
   "phono": 9924,
   "matical": 9925,
   "plains": 9926,
   "intelligible": 9927,
   "cinemax": 9928,
   "palmar": 9929,
   "palmarés": 9930,
   "grammatical": 9931,
   "ansell": 9932,
   "acuñadas": 9933,
   "matriline": 9934,
   "religiosas": 9935,
   "mina": 9936,
   "lethal": 9937,
   "}}}": 9938,
   "masiva": 9939,
   "automovil": 9940,
   "houston": 9941,
   "quinn": 9942,
   "harley": 9943,
   "enosa": 9944,
   "venenosa": 9945,
   "grabar": 9946,
   "tsa": 9947,
   "nhtsa": 9948,
   "gasolina": 9949,
   "coeficiente": 9950,
   "regenera": 9951,
   "giro": 9952,
   "combustión": 9953,
   "módu": 9954,
   "trasera": 9955,
   "deportivo": 9956,
   "motors": 9957,
   "trasero": 9958,
   "licenci": 9959,
   "distribuid": 9960,
   "otto": 9961,
   "química": 9962,
   "propietario": 9963,
   "traye": 9964,
   "adquirió": 9965,
   "tropical": 9966,
   "flujo": 9967,
   "francesa": 9968,
   "didad": 9969,
   "manaos": 9970,
   "brasile": 9971,
   "inae": 9972,
   "abejorros": 9973,
   "óp": 9974,
   "reducción": 9975,
   "tasas": 9976,
   "efectu": 9977,
   "curva": 9978,
   "croacia": 9979,
   "coincidencias": 9980,
   "incub": 9981,
   "ahn": 9982,
   "iqu": 9983,
   "jama": 9984,
   "cilind": 9985,
   "county": 9986,
   "juven": 9987,
   "edg": 9988,
   "lich": 9989,
   "metropolit": 9990,
   "tabla": 9991,
   "zados": 9992,
   "determinadas": 9993,
   "sesiones": 9994,
   "provoca": 9995,
   "labs": 9996,
   "dañ": 9997,
   "caixaholding": 9998,
   "boston": 9999,
   "hardy": 10000,
   "fór": 10001,
   "cay": 10002,
   "científico": 10003,
   "quilla": 10004,
   "comentó": 10005,
   "wine": 10006,
   "grabación": 10007,
   "senos": 10008,
   "rtf": 10009,
   "salto": 10010,
   "cerve": 10011,
   "piernas": 10012,
   "cuentan": 10013,
   "primaria": 10014,
   "alum": 10015,
   "sanidad": 10016,
   "católica": 10017,
   "john's": 10018,
   "registrada": 10019,
   "deportes": 10020,
   "líneas": 10021,
   "carreteras": 10022,
   "descenso": 10023,
   "trato": 10024,
   "vapor": 10025,
   "ferrocarril": 10026,
   "polilla": 10027,
   "jurí": 10028,
   "circun": 10029,
   "disol": 10030,
   "introducido": 10031,
   "soport": 10032,
   "abrir": 10033,
   "espectador": 10034,
   "termina": 10035,
   "críticos": 10036,
   "ciento": 10037,
   "triz": 10038,
   "extraterres": 10039,
   "sobren": 10040,
   "agricultura": 10041,
   "galer": 10042,
   "derby": 10043,
   "razas": 10044,
   "caza": 10045,
   "funk": 10046,
   "pieza": 10047,
   "ploitation": 10048,
   "illas": 10049,
   "comienzos": 10050,
   "mostraba": 10051,
   "fría": 10052,
   "scene": 10053,
   "mtv": 10054,
   "grabaciones": 10055,
   "concepción": 10056,
   "sintió": 10057,
   "carne": 10058,
   "créditos": 10059,
   "lymp": 10060,
   "matemática": 10061,
   "iler": 10062,
   "noven": 10063,
   "grupal": 10064,
   "fotos": 10065,
   "mentales": 10066,
   "pedidos": 10067,
   "volucr": 10068,
   "involucr": 10069,
   "hiho": 10070,
   "mashiho": 10071,
   "junkyu": 10072,
   "hoon": 10073,
   "onés": 10074,
   "japonés": 10075,
   "peti": 10076,
   "directora": 10077,
   "enemig": 10078,
   "conectado": 10079,
   "estatu": 10080,
   "arreg": 10081,
   "manejo": 10082,
   "diseñar": 10083,
   "profesión": 10084,
   "punta": 10085,
   "elos": 10086,
   "ísticos": 10087,
   "rico": 10088,
   "hó": 10089,
   "habría": 10090,
   "dura": 10091,
   "peninsu": 10092,
   "intana": 10093,
   "quintana": 10094,
   "gados": 10095,
   "lewis": 10096,
   "musicales": 10097,
   "aco": 10098,
   "bomba": 10099,
   "considerados": 10100,
   "escar": 10101,
   "abrió": 10102,
   "negativa": 10103,
   "fuego": 10104,
   "oscur": 10105,
   "colonias": 10106,
   "siguen": 10107,
   "macau": 10108,
   "reina": 10109,
   "esperanza": 10110,
   "ofreció": 10111,
   "entraron": 10112,
   "obligados": 10113,
   "disciplina": 10114,
   "creada": 10115,
   "cayó": 10116,
   "posa": 10117,
   "verso": 10118,
   "claves": 10119,
   "quedó": 10120,
   "izam": 10121,
   "intensi": 10122,
   "impuesto": 10123,
   "declaró": 10124,
   "guerr": 10125,
   "iber": 10126,
   "capaz": 10127,
   "ision": 10128,
   "propagación": 10129,
   "perdió": 10130,
   "manas": 10131,
   "monarca": 10132,
   "extinción": 10133,
   "usó": 10134,
   "larga": 10135,
   "rajpu": 10136,
   "sind": 10137,
   "adamba": 10138,
   "kadamba": 10139,
   "integración": 10140,
   "límites": 10141,
   "alternativa": 10142,
   "lograron": 10143,
   "símbolos": 10144,
   "cí": 10145,
   "dico": 10146,
   "nativos": 10147,
   "contemporá": 10148,
   "griego": 10149,
   "actitud": 10150,
   "soberanos": 10151,
   "gobernado": 10152,
   "comunes": 10153,
   "invasiones": 10154,
   "famosa": 10155,
   "griega": 10156,
   "gobernante": 10157,
   "ejecutiva": 10158,
   "budistas": 10159,
   "específic": 10160,
   "vecin": 10161,
   "declin": 10162,
   "culturales": 10163,
   "sánscri": 10164,
   "bombay": 10165,
   "poblados": 10166,
   "entamiento": 10167,
   "olítico": 10168,
   "restos": 10169,
   "trional": 10170,
   "tentrional": 10171,
   "septentrional": 10172,
   "túrquicos": 10173,
   "rashtrakuta": 10174,
   "lazos": 10175,
   "shram": 10176,
   "llanura": 10177,
   "apadas": 10178,
   "janapadas": 10179,
   "hierro": 10180,
   "asentamientos": 10181,
   "financieros": 10182,
   "suficiente": 10183,
   "gura": 10184,
   "irregular": 10185,
   "paro": 10186,
   "tampoco": 10187,
   "ahí": 10188,
   "chich": 10189,
   "hain": 10190,
   "aloj": 10191,
   "recopi": 10192,
   "taron": 10193,
   "solitario": 10194,
   "partición": 10195,
   "específico": 10196,
   "previamente": 10197,
   "tumbr": 10198,
   "acostumbr": 10199,
   "anunciado": 10200,
   "caribe": 10201,
   "incorporó": 10202,
   "construir": 10203,
   "destruir": 10204,
   "lanzar": 10205,
   "usados": 10206,
   "autén": 10207,
   "motivo": 10208,
   "regresó": 10209,
   "hechas": 10210,
   "retirado": 10211,
   "dada": 10212,
   "adulta": 10213,
   "franqui": 10214,
   "logan": 10215,
   "logotipo": 10216,
   "caball": 10217,
   "vales": 10218,
   "porcenta": 10219,
   "agregó": 10220,
   "emisiones": 10221,
   "deportivos": 10222,
   "varía": 10223,
   "ible": 10224,
   "formalmente": 10225,
   "comenzando": 10226,
   "mundiales": 10227,
   "apenas": 10228,
   "productions": 10229,
   "asociado": 10230,
   "operado": 10231,
   "arena": 10232,
   "beijing": 10233,
   "polish": 10234,
   "cassa": 10235,
   "rie": 10236,
   "niko": 10237,
   "crypts": 10238,
   "vault": 10239,
   "ité": 10240,
   "ène": 10241,
   "eug": 10242,
   "dney": 10243,
   "merger": 10244,
   "ouest": 10245,
   "pag": 10246,
   "suez": 10247,
   "ôts": 10248,
   "pôts": 10249,
   "dépôts": 10250,
   "turno": 10251,
   "boli": 10252,
   "asamble": 10253,
   "defender": 10254,
   "samples": 10255,
   "decryp": 10256,
   "trigger": 10257,
   "resident": 10258,
   "clon": 10259,
   "creeper": 10260,
   "causing": 10261,
   "parliamentary": 10262,
   "gie": 10263,
   "hei": 10264,
   "valley": 10265,
   "stadium": 10266,
   "bart": 10267,
   "origina": 10268,
   "profiling": 10269,
   "ttlene": 10270,
   "bottlene": 10271,
   "ameters": 10272,
   "toire": 10273,
   "compile": 10274,
   "concre": 10275,
   "rewrite": 10276,
   "rendering": 10277,
   "pocket": 10278,
   "ove": 10279,
   "groove": 10280,
   "zer": 10281,
   "extensibility": 10282,
   "conferencing": 10283,
   "infopath": 10284,
   "scanner": 10285,
   "prietary": 10286,
   "proprietary": 10287,
   "sheet": 10288,
   "logos": 10289,
   "eri": 10290,
   "intercep": 10291,
   "people's": 10292,
   "preten": 10293,
   "compos": 10294,
   "audience": 10295,
   "facts": 10296,
   "photography": 10297,
   "hito": 10298,
   "ss": 10299,
   "abeth": 10300,
   "standardi": 10301,
   "franz": 10302,
   "ronal": 10303,
   "habitual": 10304,
   "manuel": 10305,
   "imi": 10306,
   "tol": 10307,
   "benjamin": 10308,
   "glory": 10309,
   "zsche": 10310,
   "etzsche": 10311,
   "dispone": 10312,
   "nietzsche": 10313,
   "solid": 10314,
   "anish": 10315,
   "upanish": 10316,
   "vedas": 10317,
   "norma": 10318,
   "pinyin": 10319,
   "steal": 10320,
   "harmon": 10321,
   "dhar": 10322,
   "casion": 10323,
   "occasion": 10324,
   "mime": 10325,
   "brian": 10326,
   "chester": 10327,
   "refu": 10328,
   "rolling": 10329,
   "deriva": 10330,
   "dun": 10331,
   "omni": 10332,
   "hugo": 10333,
   "christianity": 10334,
   "plato": 10335,
   "malay": 10336,
   "dones": 10337,
   "josé": 10338,
   "perpe": 10339,
   "humanity": 10340,
   "except": 10341,
   "complaints": 10342,
   "lot": 10343,
   "daugh": 10344,
   "military": 10345,
   "hin": 10346,
   "sanctions": 10347,
   "adher": 10348,
   "families": 10349,
   "elimination": 10350,
   "covenant": 10351,
   "achieve": 10352,
   "newspaper": 10353,
   "freedoms": 10354,
   "constitutional": 10355,
   "crimes": 10356,
   "jacques": 10357,
   "promoting": 10358,
   "dign": 10359,
   "caching": 10360,
   "linear": 10361,
   "reduction": 10362,
   "enumer": 10363,
   "crack": 10364,
   "paradi": 10365,
   "unlike": 10366,
   "functional": 10367,
   "useful": 10368,
   "mates": 10369,
   "alities": 10370,
   "ambigu": 10371,
   "charts": 10372,
   "emil": 10373,
   "lamb": 10374,
   "tablets": 10375,
   "dynasty": 10376,
   "clay": 10377,
   "acle": 10378,
   "egyp": 10379,
   "gry": 10380,
   "instances": 10381,
   "d's": 10382,
   "theme": 10383,
   "legally": 10384,
   "property": 10385,
   "er's": 10386,
   "damage": 10387,
   "committed": 10388,
   "distur": 10389,
   "shares": 10390,
   "ellio": 10391,
   "reducing": 10392,
   "capabilities": 10393,
   "automatic": 10394,
   "korea": 10395,
   "whit": 10396,
   "jeffrey": 10397,
   "ebay's": 10398,
   "multinational": 10399,
   "theatre": 10400,
   "actually": 10401,
   "brain": 10402,
   "conscious": 10403,
   "pers": 10404,
   "coined": 10405,
   "tesian": 10406,
   "cartesian": 10407,
   "publisher": 10408,
   "cking": 10409,
   "vard": 10410,
   "impul": 10411,
   "lies": 10412,
   "ibm": 10413,
   "asser": 10414,
   "disney": 10415,
   "issued": 10416,
   "shell": 10417,
   "ching": 10418,
   "managed": 10419,
   "controlled": 10420,
   "names": 10421,
   "adl": 10422,
   "hemis": 10423,
   "headlines": 10424,
   "zealand": 10425,
   "ferences": 10426,
   "graphics": 10427,
   "restrictions": 10428,
   "protecting": 10429,
   "serious": 10430,
   "traf": 10431,
   "attributed": 10432,
   "harm": 10433,
   "phr": 10434,
   "cami": 10435,
   "poor": 10436,
   "dd": 10437,
   "shot": 10438,
   "exploitation": 10439,
   "ranking": 10440,
   "dang": 10441,
   "bled": 10442,
   "transphobic": 10443,
   "fts": 10444,
   "identical": 10445,
   "gains": 10446,
   "prohi": 10447,
   "describing": 10448,
   "banned": 10449,
   "studio": 10450,
   "improving": 10451,
   "pric": 10452,
   "hide": 10453,
   "replies": 10454,
   "followers": 10455,
   "appearance": 10456,
   "supreme": 10457,
   "lls": 10458,
   "daily": 10459,
   "fectively": 10460,
   "effectively": 10461,
   "promis": 10462,
   "filed": 10463,
   "declined": 10464,
   "reje": 10465,
   "conspir": 10466,
   "condemned": 10467,
   "bold": 10468,
   "grapher": 10469,
   "pool": 10470,
   "told": 10471,
   "ownership": 10472,
   "revers": 10473,
   "encom": 10474,
   "deemed": 10475,
   "gg": 10476,
   "linda": 10477,
   "congress": 10478,
   "intention": 10479,
   "acted": 10480,
   "stel": 10481,
   "eight": 10482,
   "concluded": 10483,
   "johannes": 10484,
   "hidden": 10485,
   "variable": 10486,
   "islamic": 10487,
   "advanced": 10488,
   "scientists": 10489,
   "gau": 10490,
   "precis": 10491,
   "resistance": 10492,
   "gure": 10493,
   "continuous": 10494,
   "radi": 10495,
   "ranging": 10496,
   "publications": 10497,
   "youn": 10498,
   "question": 10499,
   "gain": 10500,
   "electronic": 10501,
   "shorter": 10502,
   "extreme": 10503,
   "indicate": 10504,
   "constra": 10505,
   "cosmo": 10506,
   "apart": 10507,
   "models": 10508,
   "jet": 10509,
   "positions": 10510,
   "propagation": 10511,
   "synchron": 10512,
   "telephone": 10513,
   "prece": 10514,
   "lab": 10515,
   "orientation": 10516,
   "dynamics": 10517,
   "approaches": 10518,
   "everyday": 10519,
   "intu": 10520,
   "assumption": 10521,
   "observations": 10522,
   "explicitly": 10523,
   "designing": 10524,
   "agreed": 10525,
   "numerical": 10526,
   "exceed": 10527,
   "erated": 10528,
   "zero": 10529,
   "ameter": 10530,
   "instein": 10531,
   "einstein": 10532,
   "sensi": 10533,
   "eously": 10534,
   "instantan": 10535,
   "propagate": 10536,
   "radiation": 10537,
   "travelled": 10538,
   "kilometres": 10539,
   "retail": 10540,
   "trading": 10541,
   "lloyds": 10542,
   "erland": 10543,
   "elk": 10544,
   "gel": 10545,
   "santander": 10546,
   "jans": 10547,
   "ireland": 10548,
   "mutuel": 10549,
   "kos": 10550,
   "atlas": 10551,
   "bz": 10552,
   "pbz": 10553,
   "ska": 10554,
   "operative": 10555,
   "armen": 10556,
   "assign": 10557,
   "animal": 10558,
   "quality": 10559,
   "experienced": 10560,
   "follows": 10561,
   "ongoing": 10562,
   "cture": 10563,
   "tructure": 10564,
   "installation": 10565,
   "replacement": 10566,
   "pleasure": 10567,
   "ceremony": 10568,
   "achievements": 10569,
   "timeline": 10570,
   "fit": 10571,
   "investigate": 10572,
   "answer": 10573,
   "truly": 10574,
   "testimon": 10575,
   "ffee": 10576,
   "coffee": 10577,
   "defici": 10578,
   "availability": 10579,
   "topic": 10580,
   "organizing": 10581,
   "discre": 10582,
   "successfully": 10583,
   "wire": 10584,
   "yi": 10585,
   "countered": 10586,
   "acceptance": 10587,
   "profit": 10588,
   "experiencing": 10589,
   "session": 10590,
   "invited": 10591,
   "changing": 10592,
   "connection": 10593,
   "grants": 10594,
   "giving": 10595,
   "explore": 10596,
   "guarante": 10597,
   "zes": 10598,
   "speakers": 10599,
   "breach": 10600,
   "forget": 10601,
   "gent": 10602,
   "shortlisted": 10603,
   "temporarily": 10604,
   "renew": 10605,
   "approved": 10606,
   "awa": 10607,
   "arrive": 10608,
   "grade": 10609,
   "upgrade": 10610,
   "deposit": 10611,
   "ghted": 10612,
   "asap": 10613,
   "fee": 10614,
   "piano": 10615,
   "responsabilidades": 10616,
   "planificación": 10617,
   "acondi": 10618,
   "logros": 10619,
   "ille": 10620,
   "descubierto": 10621,
   "precios": 10622,
   "conexión": 10623,
   "nández": 10624,
   "jard": 10625,
   "presentado": 10626,
   "uste": 10627,
   "escritorio": 10628,
   "tecnologías": 10629,
   "proporcionar": 10630,
   "nace": 10631,
   "viene": 10632,
   "seguid": 10633,
   "pertenecientes": 10634,
   "segui": 10635,
   "aclar": 10636,
   "creando": 10637,
   "mutual": 10638,
   "timos": 10639,
   "materiales": 10640,
   "actualizado": 10641,
   "estuario": 10642,
   "tidos": 10643,
   "beneficios": 10644,
   "estimados": 10645,
   "departamentos": 10646,
   "vino": 10647,
   "complic": 10648,
   "vocatoria": 10649,
   "convocatoria": 10650,
   "llevará": 10651,
   "bug": 10652,
   "asunto": 10653,
   "ensa": 10654,
   "compartir": 10655,
   "rese": 10656,
   "descripción": 10657,
   "dific": 10658,
   "resumen": 10659,
   "suced": 10660,
   "pagos": 10661,
   "lite": 10662,
   "rean": 10663,
   "condición": 10664,
   "tratar": 10665,
   "costo": 10666,
   "distinción": 10667,
   "arial": 10668,
   "recomen": 10669,
   "intentos": 10670,
   "hospital": 10671,
   "próxima": 10672,
   "infectado": 10673,
   "agenda": 10674,
   "uc": 10675,
   "students": 10676,
   "discount": 10677,
   "exitosa": 10678,
   "precio": 10679,
   "sábado": 10680,
   "finanzas": 10681,
   "espirit": 10682,
   "soy": 10683,
   "emocionados": 10684,
   "aplicar": 10685,
   "nez": 10686,
   "arranque": 10687,
   "maria": 10688,
   "expectativas": 10689,
   "generación": 10690,
   "descarga": 10691,
   "cancelación": 10692,
   "reo": 10693,
   "automóvil": 10694,
   "vío": 10695,
   "envío": 10696,
   "becas": 10697,
   "suma": 10698,
   "estimada": 10699,
   "pasos": 10700,
   "impresion": 10701,
   "unir": 10702,
   "asiento": 10703,
   "actualice": 10704,
   "inver": 10705,
   "tá": 10706,
   "expertos": 10707,
   "contraseña": 10708,
   "hackeada": 10709,
   "ganaste": 10710,
   "robo": 10711,
   "donación": 10712,
   "playboy": 10713,
   "obscenidad": 10714,
   "prostitución": 10715,
   "relativista": 10716,
   "amstel": 10717,
   "privilegi": 10718,
   "meteor": 10719,
   "acid": 10720,
   "spectros": 10721,
   "polymer": 10722,
   "jscript": 10723,
   "kerson": 10724,
   "merkerson": 10725,
   "orbach": 10726,
   "marie": 10727,
   "anglophone": 10728,
   "longest": 10729,
   "mountains": 10730,
   "danish": 10731,
   "arctic": 10732,
   "railroad": 10733,
   "inal": 10734,
   "keley": 10735,
   "berkeley": 10736,
   "monosyllabic": 10737,
   "unintelligible": 10738,
   "tibe": 10739,
   "pyx": 10740,
   "crater": 10741,
   "refinería": 10742,
   "derick": 10743,
   "metales": 10744,
   "posturas": 10745,
   "psicología": 10746,
   "antro": 10747,
   "lándu": 10748,
   "glándu": 10749,
   "útero": 10750,
   "nager": 10751,
   "mánager": 10752,
   "geot": 10753,
   "peugeot": 10754,
   "fiat": 10755,
   "chev": 10756,
   "emocional": 10757,
   "remaster": 10758,
   "darty": 10759,
   "matón": 10760,
   "toxinas": 10761,
   "inmune": 10762,
   "hiedra": 10763,
   "adeslas": 10764,
   "categorías": 10765,
   "asistencias": 10766,
   "degrada": 10767,
   "friger": 10768,
   "refriger": 10769,
   "techo": 10770,
   "minio": 10771,
   "aluminio": 10772,
   "entregas": 10773,
   "edificios": 10774,
   "cambiaron": 10775,
   "conmemora": 10776,
   "profundo": 10777,
   "caldera": 10778,
   "combate": 10779,
   "mamíferos": 10780,
   "inidad": 10781,
   "recorrer": 10782,
   "cayali": 10783,
   "ucayali": 10784,
   "marañ": 10785,
   "luencia": 10786,
   "confluencia": 10787,
   "viesa": 10788,
   "atraviesa": 10789,
   "nomad": 10790,
   "simples": 10791,
   "obr": 10792,
   "capita": 10793,
   "défici": 10794,
   "perdieron": 10795,
   "portuguesa": 10796,
   "entra": 10797,
   "retiró": 10798,
   "hail": 10799,
   "dinamarca": 10800,
   "compone": 10801,
   "anón": 10802,
   "universitario": 10803,
   "mpe": 10804,
   "existía": 10805,
   "incubadora": 10806,
   "hizawa": 10807,
   "yoshizawa": 10808,
   "lander": 10809,
   "clasific": 10810,
   "ppp": 10811,
   "nieve": 10812,
   "baston": 10813,
   "edgbaston": 10814,
   "catedral": 10815,
   "afluentes": 10816,
   "pton": 10817,
   "hul": 10818,
   "determinado": 10819,
   "ejecuta": 10820,
   "accionista": 10821,
   "pasaría": 10822,
   "acorp": 10823,
   "caixacorp": 10824,
   "fórmu": 10825,
   "completar": 10826,
   "silla": 10827,
   "terrace»": 10828,
   "cionamiento": 10829,
   "ediciones": 10830,
   "gica": 10831,
   "individuos": 10832,
   "thy": 10833,
   "quel": 10834,
   "enfermedades": 10835,
   "natal": 10836,
   "prestaciones": 10837,
   "isión": 10838,
   "jada": 10839,
   "biling": 10840,
[...]
