d e
e n
e r
i n
a n
e s
o n
o r
a r
t h
a s
a l
o s
t i
l a
r e
c i
e l
i s
t e
th e
u n
i c
a d
t o
r o
c o
o f
e d
t a
c on
s e
u e
an d
t r
c h
l e
in g
u r
i t
a m
u s
a t
co m
en t
ó n
t er
a c
s i
ti on
d o
q ue
f or
m a
l o
p ar
s u
r i
p or
p ro
e m
d i
l os
n o
v i
l i
ci ón
de l
s o
c u
p er
a b
e x
r es
i l
l as
v er
p o
g r
m o
de s
es t
c e
v e
d a
m an
b e
is t
p e
ad o
q u
m e
n e
b i
t u
en te
c a
l y
í a
p a
par a
m i
un a
de r
h a
c t
te d
p u
s t
ic a
g o
i m
i r
g h
i th
g u
l u
h o
ci on
i a
t en
ar e
a p
o u
s er
d u
th at
i d
t s
ad a
c an
a tion
al es
com o
m er
de n
m á
v o
d is
r a
g e
w ith
i o
in ter
i z
w e
f ic
u l
m ar
ci a
tr a
f e
b er
c es
p l
w h
b o
b an
b y
p r
p le
f i
c ar
p os
ti c
j o
w as
m in
t es
p res
b u
g en
f er
m ed
p ri
b re
má s
in c
m ent
o ur
w or
l ar
th er
s on
un i
m ic
g a
b le
ci al
b r
it y
m on
h as
m en
ch em
a u
j e
m u
m ente
s h
v a
k e
p re
n a
v is
p la
f in
' s
qu i
p i
o p
b a
vi r
es ta
al l
ad os
te m
c or
of t
ro m
cion es
c ri
f r
o l
á n
b l
g i
v en
and o
f rom
f ue
u p
c r
ban k
d os
ar d
el e
or i
g an
c as
in e
ar i
a ción
n i
t ro
si on
an te
for ma
ic h
t in
m il
s us
ma y
é n
or es
v el
for m
es e
n u
si g
é s
an s
tion s
por t
w s
t ur
d ad
re d
r os
p en
tr i
h i
a f
on e
ne t
l an
c en
pro du
c am
s a
of fic
y s
er a
ic o
am er
un d
chem ist
t y
s ta
inc lu
as e
gh t
a ñ
l es
h e
c ur
c re
h u
offic e
p an
it s
er e
w in
ic al
n or
m is
t or
in di
e ar
de d
o b
id ad
m os
er s
mic ros
th is
ti v
micros oft
gr am
en to
p h
l d
par ti
wh ich
tr as
y our
m or
t ing
en ta
c er
er on
se g
m bi
f u
ou t
i on
a g
al iz
al g
ar on
ar y
an t
el l
f a
l on
ic an
ent re
pro gram
h ab
f ir
ha ve
ab a
tr ans
gh ts
s pe
y ou
d ur
b el
no t
co un
pri mer
is h
p on
is la
ri ghts
in s
t os
lo g
c k
es te
ti en
vir us
v al
w n
ct or
n ue
o m
s in
t t
ac k
mbi én
ta mbién
fer en
cu l
hu man
wor k
er o
b as
f o
í s
c l
ex pl
l la
i e
c al
i ón
win do
u al
m un
il l
ent es
gr an
windo ws
d ing
al so
tr os
ti ve
inter net
u m
t w
an ti
p s
a y
b or
m us
p as
o ther
we b
ne w
su b
in o
ad as
in ci
d on
n ation
am i
t al
in a
des de
amer ican
​ ​
s en
g ar
be en
expl or
es ti
b ar
en do
tr y
j u
am ente
se x
z e
c ed
g er
w are
con o
tr u
ci o
e t
u se
y a
ver sion
p al
in d
in v
per son
in t
le g
pos i
ch o
h ist
wor d
j un
g ro
an g
lo w
o c
ver s
pr inci
v ic
m as
m s
so me
ad or
n er
has ta
so bre
in forma
pu bl
f ica
p ue
re g
v ed
ú n
e u
f re
z a
o k
gen er
ch ar
an tes
explor er
an ce
em ent
g in
ci as
en cia
l and
ar io
u re
t re
ac tu
al ly
at er
añ os
re la
m es
v ari
r en
ver si
ti es
c tion
ti me
li ght
c ción
ch e
s ur
con tin
com pu
at ur
ac e
l l
con s
bu t
b ro
s ys
o per
f un
x i
i den
nation al
f em
por no
es s
sys tem
ce p
so ci
par te
i do
w ere
c ent
ces s
m it
h ad
en g
the ir
ed a
y e
or gan
su ch
a ge
h er
l in
es pe
con si
cion al
ti tu
dur ante
í an
ti ca
ad i
po l
da des
a ch
ab le
t ar
com pan
su p
t on
fir st
s is
may or
t an
tr aba
med ia
e p
eu ro
gr af
c os
per o
é r
d as
ch in
mi ento
j er
í n
ple ase
j or
í cu
pa ñ
es to
o ver
s oft
í as
í o
am a
us ed
r it
med i
ta in
di re
e qui
u d
i es
h tt
par t
ar t
t as
id os
o d
h an
z o
soft ware
h is
ter n
gu i
al i
or y
l le
d ic
c ted
ch a
in st
f il
con tro
pri ze
per io
di o
em ber
indi a
m b
g re
al mente
tien e
tic al
i f
v ent
chin ese
th an
ac t
compan y
pl an
est á
w w
ar ro
mor e
la w
b ri
graf ía
ti vo
el i
ac ter
o tros
is try
li on
c la
k no
añ o
en d
k a
in i
l lo
i or
am e
te ma
p lo
chem istry
j a
cul tur
alg or
a de
su per
s ho
v ing
as t
so cial
est u
de pen
sig n
v or
fr an
the y
c us
res pon
cri p
algor ith
em bre
c las
gr u
com ple
o us
pa ís
bi o
re gi
ori gin
pu és
des pués
tr al
m ac
je ct
z ó
gen der
ti co
da y
in f
c y
s al
re pres
vi e
ment s
cono ci
des arro
re feren
e f
v es
ic k
ul t
b us
on g
ac coun
h or
c to
ation s
y ear
di f
alg un
vi de
m bre
mu ch
h am
d ist
el y
tic as
t we
i g
is ta
v an
fa vor
la ter
te am
in to
c ada
re ino
h y
vo l
sig lo
spe ed
tri bu
ti r
it ter
seg un
men to
compu ter
mos t
gro up
uni vers
da ta
h n
pla y
n ing
tw itter
qu er
re ci
w ill
ic as
á l
bi r
w a
ic os
ch i
cu enta
im port
si do
ed ad
w o
po pu
as ed
par e
cu al
fem in
euro pe
un der
ci u
ari os
publ ic
b il
primer a
te ch
lan gu
de fin
ca p
te x
en ce
k ing
ci r
tu re
th ese
ou ld
w ould
pro te
sis tema
d in
p el
p ed
pro ble
k m
no bel
re le
is mo
l ine
ent os
amer ica
c li
h ar
sh i
w ar
pue de
ten er
s ing
w ho
p es
informa ción
ele c
m ing
af ter
f und
est ados
fe ct
an a
organ iz
le y
ac u
al e
est ado
ex per
man y
dis co
li z
ex am
na cional
d s
or ia
re aliz
htt ps
mu jer
op ti
d y
cu ando
it al
ther e
h el
p li
ac ti
est ro
ser ies
w ell
f ol
consi der
no mbre
ro u
at ing
vis ión
ín su
pen ínsu
ri l
ter min
jo hn
br it
de vel
gr ap
ba jo
m ul
us u
do cu
kno wn
as on
ab out
net work
versi ón
s p
w er
us t
os e
ami ento
fu eron
porno grafía
a te
c at
au to
mon eda
ál bu
it er
an y
i de
sup port
bor n
b la
as ure
twe en
be tween
w ay
c all
ad ores
b lo
i i
nor th
parti ci
de c
mi z
do ctor
w ard
vie w
don de
r is
ist as
b en
tr ic
wh en
a ted
ch an
equi po
brit án
pe o
mis mo
se p
d ía
i da
ñ o
ci os
m ado
us ers
cen tral
gener al
u ti
c el
se ñ
sta tes
s te
ma in
c in
ta tion
gru po
tw o
mun do
t ele
d r
f es
gr á
m al
iden ti
wor ld
i le
ex ten
te g
cas a
ur a
ar se
z on
em plo
nu estro
mus k
b in
as í
princi pal
a un
ac tiv
traba jo
l í
ciu dad
lin k
con ta
si ti
es tra
al s
lan z
lon es
ver y
em pres
á s
i te
inclu ding
st and
f ul
com er
ed u
mo der
nue vo
im perio
st y
si mil
th ou
rou gh
w rit
tr es
uni do
tr an
at os
álbu m
em bar
con cep
opti miz
y o
mil lones
h ack
penínsu la
ba y
cu lar
us ing
v as
de ar
an o
ú l
wh ere
s m
op en
ci ó
un idos
vic e
fu er
si gui
ic e
po li
g es
devel op
fre e
us o
is o
ti em
con tr
de te
ist s
no un
t est
e vent
t ter
co ur
v ar
e j
y p
aun que
sex ual
char acter
simil ar
m at
fol low
il y
no w
produ ct
gr a
nue va
des cri
on ly
or e
li o
to do
ma il
b at
tion al
gu a
al can
l ic
úl ti
seg ur
is m
s y
m ber
ter ior
pl ica
s an
p un
se cur
informa tion
bo ok
contin u
ci er
la tin
inter national
for e
co de
a j
ue go
fi ci
ti va
exam ple
hist oria
in depen
ar chi
popu lar
ul d
an noun
pro ject
c ó
pro mo
s or
me jor
ser vi
ade más
b ur
uni ted
l ed
fr en
or der
red it
in tro
fi cial
e con
un ic
embar go
u ary
ti s
bi er
hi gh
intro du
c ab
d ar
tem por
log y
p ú
da te
mil lion
s it
re al
an cia
wh ile
as se
pla t
in te
i ma
é d
ind us
pre mi
pel ícu
con d
r y
plat form
est os
th re
re mo
com en
espe cial
con fir
ex tern
sty le
th rough
d é
m ó
j an
er g
f ac
in for
o tras
langu age
per for
go ver
secur ity
can al
g os
l és
ing lés
ñ os
to on
fi ed
b al
accoun t
ser ie
b ack
c lu
cl us
vo lu
it ar
i x
peo ple
r us
th en
seg ún
ci c
to dos
pú bl
si m
ci l
es pañ
cr yp
nor te
com mon
w i
p at
inc re
ur g
ta ción
pa y
po ten
n os
país es
n am
m l
m ater
r u
shi p
pres ent
per mi
r ío
as ia
bas ed
to p
ch ed
de ci
re ce
to ur
sta te
contro l
algun os
di al
of i
pro fes
em os
er ra
e bay
dis play
call ed
tr adi
f ri
on es
se e
vide o
ica ción
so lo
e z
v os
bi do
ha cia
c ine
po wer
n on
cla im
p ly
vis ta
to tal
ion es
pro cess
e ven
g ur
sig ni
u el
ww w
r ad
b n
ma de
dur ing
nu mber
el f
ar a
desarro llo
mi en
g én
ab an
el d
en ti
s k
in ess
po int
repres enta
i al
fin an
con feren
ed as
and a
thou gh
re li
gover n
ca teg
ed i
de sign
t í
version es
en la
ci dad
est án
ta ble
ci ty
n atur
ch es
m em
g as
jun to
actu al
t el
mien tras
ber t
w est
of f
ap pro
on a
ve z
pol í
s tu
ha y
ac er
an un
vi a
cur so
se gu
ma th
of ten
me e
i en
li ke
a k
ic s
mu y
tiem po
c le
cam bi
siti o
cor re
so u
pl es
r as
ti l
algorith ms
mo del
r an
ex ist
inclu y
res ult
br os
min is
qu es
x im
di ó
hab ía
ber n
no min
b ed
vir tu
l ing
l ist
re du
ces o
bl es
re qui
ci ales
qui en
com un
ti ó
mb ly
asse mbly
s co
f t
m ad
empres a
cam pe
esta ble
tre asure
u k
se ason
be ing
g est
fren ch
ca use
man ce
c tions
si te
i li
in ten
ñ a
un o
segur idad
go bier
announ ced
ti sh
year s
at es
tes la
produ cción
ma g
mon edas
a pro
do min
rele ased
res pe
med io
al a
edu ca
en erg
ér ica
cus to
com mun
ap plica
den t
ex clus
vi l
ú s
ep ith
can ción
mun dial
virus es
ep iso
display style
ge o
a us
sho w
ke t
con ten
de bido
d ue
mujer es
wo men
fil es
dif fer
sin ce
ur y
bus iness
d res
ar ti
w il
s es
ear ly
parti cular
ex pres
v ement
we ver
p p
do wn
c ado
si endo
ob je
cu en
inv esti
com p
gobier no
di os
ar gu
mul ti
or s
e cu
ho wever
la tion
l en
mi em
com pañ
oper a
pro ye
co l
se cond
k en
ro ck
tic s
e k
pue den
g ir
no v
fica ción
tu vo
car toon
vi du
perfor mance
p ur
si ble
fe br
tiv os
m ember
j os
reg is
de re
} }
indi vidu
is bn
k o
bo th
tra vel
con di
it os
ofi cial
con tra
ins titu
na ve
referen cias
m ex
se ver
a ga
ter s
f ur
ent al
v és
im p
uti liz
ti z
te c
po der
regi ón
h bo
de ri
ger man
ma jor
ri ght
of ficial
ge t
us er
tic os
lu gar
cl ick
up date
segun da
por te
bir ming
bro w
por ted
differ ent
stand ard
l iter
de termin
moder n
a i
com e
st ar
inv est
we '
n ú
actu aliz
in vi
grá fic
nu estra
inf lu
dis tribu
ti mes
o wn
ish ed
la y
fo und
pro pi
ni vel
tra vés
usu arios
rece i
tan to
l leg
ch os
pu esto
hor a
é c
birming ham
algorith m
c tive
regi on
fi eld
unic redit
lo ok
i la
ta il
inte gr
con su
car acter
s crip
categ or
ig n
ci ta
vir t
defin i
bu il
sh e
ad di
is e
ti al
mi entos
nov ember
tí tu
vari os
cons tru
a pare
per ío
u ales
mo bi
mi d
al ity
st re
sh are
s ue
custo mer
parti r
i ores
vi da
con se
log ía
epith eli
ti ci
s tr
inclu de
h ard
ar o
ac cess
se t
am érica
fin al
nú mer
zo om
l ish
eng lish
re gu
ent s
univers ity
r ich
re ad
ch ang
o w
re cor
vi d
ap l
f ace
ama zon
ne ces
po bla
di fer
perío do
brow ser
c ell
t v
li fe
e th
thre e
e ach
re fer
res ear
ing s
at ure
de red
tien en
atur es
la bor
re co
g res
si ón
dos e
br as
ro ad
la te
as ter
va ila
with in
m é
clu b
es a
of fer
ear th
at ta
ca ix
din ast
de nomin
ami li
f amili
can ada
mo de
j us
o t
ser ver
cri tical
resear ch
posi tion
ta ke
com pe
en o
ó r
or k
man era
es cri
pla ta
r or
en a
so li
b ater
y u
di ci
virt ue
ag es
k er
sever al
ap pe
bil lion
cultur a
cam e
e ta
ph one
m y
med ical
ci miento
y ork
grap h
se man
go bern
con vir
t ml
mobi le
s ame
e qu
d an
origin al
s ell
si de
an al
s w
o g
ne ws
a vaila
co lle
govern ment
le a
oc to
at ely
m and
princi p
i er
docu ment
partici pa
ga ción
e y
cion ales
ne a
on o
a qu
g ador
mayor ía
much os
cons titu
do u
ma te
univers al
bri tish
co uld
ch il
f am
algun as
ar ía
pro por
sit u
en cuen
b ra
lo cal
d ra
no vi
com pr
no ti
d atos
bi en
dis e
er an
cultur al
dec lar
p hi
ap ril
men os
vel o
est as
in form
v uel
writ ten
be cause
pre vi
l er
mar k
optimiz ation
i '
c ing
wh at
follow ing
pas s
cent ro
ó g
p t
ob tener
qui er
tin der
extern os
om ía
ti po
li am
aga inst
n ess
s cho
re port
ex t
ve h
h en
dire ctor
ser vice
posi ción
es tr
tem as
ter iores
so lu
dis pon
m ada
gran des
enla ces
ter rit
a th
ver ti
vel y
jun e
bank s
r un
fi le
chan ge
natur al
ex ecu
ac tion
it or
e je
octo ber
con ven
val u
for d
person al
en tr
a ciones
conta ct
esta ba
ci den
mo tor
ne y
pro vi
ent er
fur ther
b est
bel ow
so l
com mer
miem bros
novi embre
á re
cal i
a gr
p á
p ho
esti mado
k am
reli gi
s ha
au g
co lo
in os
un til
vis ion
europe an
cap ital
f f
s tra
vic es
j am
mee ting
d ri
númer o
r á
program a
as i
cam bio
con st
htt p
vi eron
t ó
lar go
mex ico
st or
al ter
hist ory
k i
the m
en cy
lon g
ci es
br an
availa ble
eng ine
categor ía
web site
tiv as
m ica
al er
á c
b ase
veh ícu
sen ci
den cia
character s
pres iden
leg al
ju ly
ch ris
k es
system s
appe ar
om as
chil d
pa ti
ver ed
w es
ma ke
de tail
en ero
min u
m p
lo ve
f ar
cr í
e mail
tele visión
blo que
car ga
as es
p ir
di ente
ver i
ar te
o este
version s
cent ury
el ement
ical ly
ar ts
aro und
word s
ma ch
ci fic
mar ch
jun io
ag os
h os
c ta
pe que
uni ón
proye cto
tur a
elec tr
repres ent
der ro
contin ente
terior mente
anti gu
vari as
sex o
go l
v in
poli tical
tri es
s tru
s ci
ual ly
grap hy
h al
com mit
man ag
sm all
pos sible
accoun ts
jo b
lo gr
cor por
ca pa
pro p
a z
aj es
est ar
v ado
ten ía
difer entes
ded or
re quer
amazon as
jan uary
cri tici
les s
ph ys
ther n
ro y
ac cor
signi fic
sh ar
im pro
la tions
th ose
ti embre
sep tiembre
fe atures
bi li
to da
pres enta
de par
la do
inter nacional
import ante
dinast ía
segun do
dici embre
hack er
virtu es
jus ti
vari e
ward s
b os
b c
re pla
he ad
pos e
tur n
a ir
agos to
energ ía
c á
bo l
sus pen
de li
ci do
j uego
acti vi
usu ario
di g
tri al
i os
dispon i
pr ó
senci llo
gu erra
tu bre
oc tubre
dé cada
or o
re y
tem ber
sep tember
sa id
ac y
ob ser
cr éd
ti an
e cono
in ed
gre en
ho ld
cas t
pos t
ap p
b ill
wes tern
g ed
er os
id as
den tro
z as
s ab
alcan z
a po
com pro
co che
é l
ni ños
ch ina
aug ust
descri bed
nu mer
ct ur
bil ity
exper im
ar ia
med ic
con fi
traba j
on line
ac ción
s os
xi to
é xito
che ck
ban co
f ra
lí nea
i ta
permi te
profes ion
infor má
much as
tempor ada
forma to
pelícu las
comen zó
h tml
con ser
program s
dire ct
al though
vi o
mater ial
so ur
inclu ded
c ra
mon th
consi dered
bo ard
urg ent
bi ó
m ús
eje cu
dis cus
ís ticas
j ap
produ c
xi mo
ing en
inc l
versi dad
pu er
ej emplo
al re
s í
ist án
gén ero
fem en
fin ales
lo c
ar g
t ent
tra de
tech no
pu l
b f
s am
lar gest
accor ding
ab il
fo un
n ext
ad minis
s po
mo do
ab ril
ju lio
con du
u b
mar zo
soci ales
au tor
posi ble
ex cel
o tro
alre dedor
un os
wil liam
g las
do es
land s
inc or
inst al
s ti
mach ine
n al
w al
be fore
re view
iz ed
th or
mis sion
an im
com ien
mer cado
cos ta
ica ciones
may o
de j
de se
lla mado
at u
sigui ente
at en
t all
cual quier
servi cio
pelícu la
el los
re vista
imp act
po p
ter m
nation s
f l
mo vement
un g
roy al
n ia
abil ity
develop ment
tiv es
le vel
cir cu
pres s
pol ic
de f
ue la
m el
est re
re qu
im ple
f le
tec no
port un
con curso
fica tion
servi cios
lon dres
t ér
atur a
es cen
l uego
em i
ke a
pr ad
langu ages
t ales
co lon
leg isla
coun tries
w ing
esta bl
ro man
for mer
ag re
econo mic
incor por
w an
emplo ye
da vid
cio us
in fe
b it
to das
al ta
math bf
dere chos
soci edad
mo un
i kea
kam prad
er as
tex t
al low
rus si
me th
in es
disco vered
ori es
as s
ele cted
comer cial
program ación
produ ctor
person as
pro gres
conferen ce
j es
vis it
tu be
princip ales
fuer za
res er
ins tru
ur s
con tribu
premi o
person a
corre o
sub continente
i gu
requer ida
au t
principal mente
e c
pri mar
los op
phi losop
com bin
ph y
log ical
den ce
do m
créd it
ma x
we ek
si ve
n ame
reg ard
educa ción
títu lo
car r
confir ma
d or
mi th
r ap
er te
econ ó
min t
b anda
eda des
po ca
señ al
hab it
f our
cor e
at s
mus ic
febr uary
sh or
li mi
o tra
bili dad
go od
nue vas
j ue
es cr
la ción
hack ers
ban car
pi er
u da
c án
britán ica
españ a
uni den
estado uniden
in do
os a
j ur
d ge
e ts
oc cur
pos ed
ele ct
ban que
bank a
g lo
h im
sta ke
la un
lo ca
fu era
h ace
applica tion
k s
le t
primer os
as o
con f
mar ke
tiv amente
nue vos
des cu
h acer
an i
proble ma
esta mos
ón ico
nave gador
di visión
pobla ción
episo dio
cl ás
su l
se ctor
li ber
r am
res tric
ci ent
h ind
pr acti
h and
ado p
per man
ent ly
de mo
pre ci
s elf
' t
mús ica
conoci do
hist ori
y ing
com par
exclus i
propor cion
sis temas
mo mento
t ado
e v
euro pa
v é
tér min
h iz
ter a
person ajes
grá fica
des ta
v y
am pli
group s
ab sor
ob ject
eng th
previ ous
n y
e ch
signific ant
cul ture
qu ar
re volu
w on
h ere
com ing
is i
públ ico
n as
val ue
depar ta
d ías
el im
in fect
fe cha
mon ey
ed it
pr ue
di ri
f on
bat man
es co
convir tió
oc ciden
po co
conten ido
estu dios
femin ist
in as
di vi
sou th
i b
develop ed
re ported
com pon
ac qui
sion s
s ed
p has
c los
out look
at tem
an ces
su es
lon don
we' re
e very
detail s
e vi
cur r
int el
pla z
pi os
en contr
inclu ye
pun to
rela cion
ac ceso
que te
encuen tra
t us
g ina
pr ác
uni dades
ap ren
am os
h emos
nu es
ay ud
organ ic
a gua
x vi
on ces
lan zó
at ro
w ol
meth od
mb res
me an
ex tre
b s
be came
stre am
k u
dec ember
commit te
spe cial
fin d
tr im
ad amente
ide a
mis ma
j as
comen z
you tube
gen cia
seman a
l is
or a
cen so
s mith
finan ci
re unión
g us
mo le
parti do
ve ces
clas i
mos tr
anun ció
é poca
por ta
con qu
o cas
cour t
cer tain
form s
addi tion
chang es
t le
cour se
sti ll
le tter
p ing
p ack
di d
li mit
sigui entes
pri va
cab o
l un
s ales
tr at
u do
em ple
pu b
fran cia
i di
apro xim
fin almente
ci eron
ori gen
mo vi
n ar
mor al
ro bert
phy si
ti vely
re main
lar ge
ef fect
sp ace
on s
sho uld
in k
gr ab
ser vices
ma king
sk y
anti virus
lo ad
ta x
ex ci
con cer
tr ia
le ad
are as
actu almente
an der
con cier
ab o
ct ura
sim ple
comun idad
gi do
re des
a hora
es per
pla ce
later ra
ing laterra
gen es
tu vieron
ent onces
ven ez
ol ing
ro o
regu lar
war ner
d ro
can adi
con tent
z ed
di es
its elf
sing le
tu m
phys ical
referen ces
ar ab
c ro
por ts
to ol
be come
re fund
re ason
s to
commun ica
estu dio
cin co
os os
caracter ísticas
cu er
or den
ap ps
kno w
apl icación
even to
compro mis
elim in
res o
g io
aten ción
v ul
so porte
caix a
can ciones
bater ías
desarro lla
occiden tal
par tes
cas i
me tro
varie ties
a fr
tric t
am ong
presiden t
pe ter
th es
fre qu
us es
us ually
the ory
ali an
ge or
coun try
buil ding
gre at
jam es
su c
j ust
mi r
cas o
se cu
and ro
lle v
princi pios
an teriores
ad qui
jo in
el lo
compañ ía
cryp to
pro ceso
d ó
ho y
pa go
s elec
di to
ish ing
uni versidad
ban ca
dete ct
men sa
epitheli um
inf ancia
el éc
cat án
yu catán
er ó
hiz o
o cu
arg ent
esti lo
pas ó
incluy endo
y g
ex ual
femin ism
mus ical
ed ia
cri min
tor s
cali for
extern al
techno logy
individu al
e ty
lo ws
applica tions
ex cep
la ted
ac cep
s ch
a vo
n s
p m
ke y
di a
cá mar
lanz amiento
tex to
commun ity
t un
ad ul
españ ol
lla mada
vis ite
al ber
eléc tr
acu ñ
indi o
ic amente
is te
vi ol
sy n
establ ished
c lo
some times
introdu ced
cas e
acqui red
d am
t é
au thor
cre ated
pre ad
res ul
pu t
coun cil
docu ments
member s
par ty
re ach
ol d
spe cific
ho l
ha el
mic hael
c are
in vol
fam ily
os o
ni ño
cor ri
se de
i as
r up
or io
tar de
pes ar
dist in
vi ó
tur ismo
ne go
pa quete
plata forma
tran si
signi fica
el o
pr on
p ad
ador a
us a
bio chemist
oling o
du olingo
ta ña
sex uales
f ís
incluy en
vé ase
poten cia
igu al
medi ante
di feren
di vers
exclus ion
t ch
p in
m bo
arti st
r m
pa k
pi lo
s pan
justi ce
contro versi
califor nia
ct s
spe ech
fi li
perio d
ci st
in du
fun ction
sour ce
li g
nor thern
concep t
clas s
scho ol
quar ter
al th
fe ature
iz e
las t
si r
ass ist
acu er
g ri
em pe
ne o
h on
are a
tra ta
departa mento
hab er
marke ting
bancar ia
vehícu lo
ona to
campe onato
moun tain
man és
west field
aliz ación
a ún
cr iter
cell s
tem per
le go
famili a
inter pre
proble ms
dis trict
def en
ab les
ad verti
ar ch
com mission
c s
g s
dic tion
in de
o le
pro pa
cle ar
par i
inclu des
k ind
requ est
re turn
br and
su re
win ner
identi ty
cor respon
fe ed
la test
ct os
oper ating
as ist
ti do
ñ as
f al
gr atu
g un
investi gación
tar je
v í
g adores
i ó
í fic
medi ados
latin o
femin ists
mil las
rad ical
tor ney
at torney
alter na
other s
ex pan
equi val
me asure
por tu
committe e
k ar
per form
pro to
reco g
fe w
s ent
bo dy
ho w
ple ased
ch as
bi b
g on
con ver
tu al
l ista
participa ción
adqui ri
su g
ist ro
ven ta
el la
ingen ier
estu di
rela ción
fo to
ho la
ho me
éc n
t écn
ho mos
car re
profesion al
public ó
gr ado
am bos
aproxim adamente
sul tan
a ta
estadouniden se
co lu
x p
bl an
exclusion ary
au di
indi an
so ld
cr u
i an
char les
is tic
com pati
tral ia
aus tralia
for ce
ce o
ent or
fr on
respe c
an other
em is
ario us
v arious
lic en
with out
par is
mus t
ant as
atta ched
bel ie
ne ed
avo id
qu isi
fe c
un t
clas e
regis ter
ten i
exper i
f el
des crip
ente mente
v amente
recei ve
c lar
em o
rá pi
dig ital
ab ili
ta mente
ren o
selec cion
product os
inter es
disponi ble
organiz ación
ay uda
epitheli al
wol f
med al
ac el
cu atro
y ó
ol óg
sig los
pos teriormente
ciu dades
estu vo
​​ ​
én dose
públ ica
ur ban
bro ad
j i
equ ality
link s
gener ally
a to
me as
vis i
elect ro
man n
mar ket
ha ving
se tt
fri end
li ve
import ant
engine er
j ack
experim ent
fun cion
der s
di entes
están dar
writ ing
to k
últi mo
proble mas
nues tros
m j
mic o
hind ú
cre cimiento
re conoci
quien es
estr en
cu ales
power point
go d
ad ap
ci vi
chris tian
pr os
be an
ped ia
canadi an
fre ed
us ion
ori al
computer s
tech ni
p ic
per mit
low er
mag ne
defin ed
on al
sub si
sco t
commer cial
p y
ys is
uti li
ach ie
continu ed
d ates
ini ti
jap an
cent er
ro w
hel d
compe ti
appro ach
ne ar
und s
acuer do
man o
bib lio
re min
form as
febr ero
gran de
th ir
al ex
cen tr
polí tica
y os
es tru
ser ía
art ícu
le ar
dire cción
ad u
ar á
se cre
o tor
vent as
actualiz ación
se a
quer ido
h ac
re vis
vul ner
electr ónico
d }
{ d}
math rm
k wh
des nu
ti erra
is las
import antes
antigu o
j ay
tra ción
re inos
ari as
alcan zó
mbi a
femen ino
os as
comp il
s cen
di ale
conser va
russi an
freed om
fe der
bri dge
fran ci
re v
pa ul
ha te
hal f
cr os
n ed
ty p
f aster
m c
pa th
bank ing
rich ard
shor t
con ne
da ys
limi ted
bi g
pass word
res t
an as
jo ur
áre a
fund am
part ner
cr is
n es
a van
en fr
puer to
regis tr
obje tivo
anun ci
b es
c ele
últi ma
pu esta
ci encia
á r
tecno logía
gra cias
cial mente
porno gráfic
o id
man x
ir land
me tros
fuer te
mus ul
soci edades
econ omía
indepen diente
program as
án dose
mas cul
region al
clas si
ta i
i tem
r ace
program ming
ex plo
se qu
ad d
o logy
a wards
g b
sta ted
wa ys
w ater
é té
soci été
th omas
pi e
i ght
hold ing
no tes
ef fici
da tion
coun ter
and re
read y
you '
ch er
can ti
intel li
jue gos
sion es
re fle
c and
im medi
m ali
o x
pró ximo
of er
cer r
pho to
me z
pay ment
val or
al go
des tin
espe cies
rus sell
man es
hist ór
gru pos
men or
lleg ó
ca den
ir a
m br
et c
re tir
su ite
x ico
criter ia
contin ent
au ton
span ish
repla ced
st an
auto ma
wo man
sit es
lo go
ci vil
as ing
lo u
the ma
e ther
m ur
soci ety
fr ance
v on
iz ation
pri v
employe es
s cri
s un
co lla
y ed
r ang
rela ted
ente d
proble m
jour nal
invest ment
pro vide
aler t
esti ma
tter y
to day
pu estos
ci endo
o ta
at ten
ex tra
respon se
mater i
cre a
cor p
he cho
velo cidad
s ter
edi ción
tal la
xi ma
immedi ately
ad dres
b on
g al
ex pe
de be
ci en
da ción
pá gina
re com
señ or
dise ño
de tall
aster oid
pal ab
britán icos
pun tos
bu dis
fre cu
distribu ción
mé xico
propi edad
ra j
wi k
venez uela
mor ph
ga y
ai re
dou glas
h ill
m ph
comple x
am bi
ab r
cre en
ter ror
el ves
m uni
s qu
musk 's
an cient
ur es
fi ve
it ch
ter ms
se para
ci ties
stru c
as su
ra y
fr ac
ver se
acu um
v acuum
previous ly
const ant
pa in
ros s
subsi di
b ul
el es
pos ts
ga te
le ft
sa fe
e as
ul ed
p c
finan cial
is sues
poten tial
ear li
remin der
de part
mes sa
ful l
prote ct
is sue
hel p
ins ur
ab ri
forma ción
cu ar
h r
ment os
conse jo
cu m
graph ic
it as
al to
cia ción
pl us
au ment
g ó
tarje ta
detall es
soli ci
ter cer
roo de
man son
bater ía
dise ñ
vuel ta
concep to
incl uso
pak istán
mate má
liter atura
for mar
t ori
gén eros
esta ban
siti os
di eron
f lu
ar in
season s
n is
hard ware
inst all
pr en
fo under
con tain
bas ic
the ms
is on
as pe
l gb
argu ed
po ly
me chan
f act
ex p
cons ist
ma thema
typ ically
it z
ga z
se y
gu er
rele ase
bo o
anal ysis
ni e
tiv ity
addi tional
ful ly
ste p
re cent
og le
go ogle
fa il
requi re
prote ction
activ ity
su m
car d
insur ance
s elected
qui te
có di
si em
uni on
d ado
vic tor
mo di
f is
cer ca
pri or
po dr
infe cted
ele ction
premi um
des car
mu estra
ima gen
na cionales
indus trial
enla ce
p ó
o portun
v ía
z ar
fic ar
sal ud
cli ente
ju an
segun dos
carre tera
bre taña
us ar
tra je
alber ga
fun ción
capa cidad
eta pa
britán ico
af ir
iz ación
cen tros
territ orio
con e
comer ciales
conoci da
so la
sin o
ub ic
ib bean
car ibbean
al em
dri ve
enter tain
popu lation
je an
h indu
jur is
mente d
inv as
sup ported
form at
thems elves
al ong
at or
l or
mat ch
la ck
cas es
mas s
indepen dent
ins te
si l
min or
tic le
ch r
s pread
publ ished
in ts
colla bor
is ed
tre at
am o
ni ght
recei ved
pp y
f y
up coming
concer ns
curr ent
indus tria
cic lo
an nu
cal cu
g ente
char ity
ingenier ía
realiz ar
g ado
p ta
es cu
é tica
oportun idad
car los
di do
res ol
deri vado
escen as
mode los
ho mbres
cas os
la das
loc ales
cre ó
gi ó
má n
gan g
dic e
origin almente
es pa
primer as
anti l
il la
bo mb
co pi
bo x
spo ken
inter ior
de but
du tch
res iden
declar ation
thes is
em er
x x
b ab
porno graphy
au dio
si x
ar is
tu p
e volu
mic ro
ne u
n el
sci enti
inde x
p ra
manag ement
b all
ber s
incre ase
d ance
da ted
s ched
it es
inter est
ac ade
ad van
dete cted
down load
exci ted
ac tions
je fe
activi dades
perio do
pa ción
re em
cambi os
mar ca
áre as
s able
mal ware
i re
gir a
conferen cia
segu ir
mis ión
realiz ado
gan ar
mic os
urg ente
pro ces
aqu í
eth ic
homos exual
ho mer
irland a
t one
medi da
xi x
hab ían
influ encia
liz ación
comer cio
títu los
dio ma
i dioma
may ores
persona je
bras il
portu gu
n t
wo od
z ón
gen ous
he a
en cryp
bo ot
f abr
g il
d le
f lo
bo w
ac es
k an
s creen
c d
re in
go ld
andro id
be gan
se arch
st one
col or
in ner
plan et
ra ther
to ok
rad io
qu an
gi ven
la ws
evi dence
rela tion
hist or
mean ing
object s
magne tic
om y
indus tri
glo bal
to m
sub scrip
c ement
men tation
phas e
news letter
anal y
referen ce
ex change
ty pe
fi x
e ast
polic y
depart ment
ap ply
pa per
códi go
canti dad
an ual
siem pre
no ta
corpor ation
vi les
mó viles
zon a
pro ce
consu l
pl ic
ley es
co labor
asist encia
pan talla
lanz ado
de por
s can
th ing
hor as
partici par
i to
éd ico
de cir
gan ó
di endo
comple te
prue ba
cl ic
so cio
doctor ado
medic ina
pro medio
cuer po
especial mente
ci ma
it ud
mar ath
af gan
su ele
primer o
ti pos
histori as
ó l
l án
argent ina
medi os
movi miento
can ales
caden a
ti eron
ded ic
entertain ment
res to
ab e
n g
stor m
u x
afr ican
do c
vi et
indi genous
ac a
peo ples
ch al
is land
ii i
t ores
ab and
en s
trans gender
pi b
ob lig
g la
follow ed
design ed
ti er
el on
an ima
scho lar
lun ar
practi ce
ro und
ith er
quan tum
ci t
dist ance
un it
stu dy
w ide
ch ap
mer ged
g or
s top
ch am
laun ched
shar ing
aliz ed
on y
up dates
pur ch
tradi tional
ir ing
c redit
compromis ed
ar quite
ru ta
gen ce
lead ing
an terior
se par
cámar a
mu cho
ac to
z ado
re cu
arti ficial
comple to
f á
ad é
in media
mar tin
c ía
mand arin
be er
eléctr ico
archi vos
consi gui
im á
su k
hy un
carr eras
respon sable
polí tico
auton omía
se is
ci to
gri e
mu erte
pat ro
bo m
del hi
sultan ato
nor oeste
budis mo
el las
an teriormente
popular idad
y as
latino américa
sup ply
ter os
ter f
a tr
scrip t
vis ual
k ong
produ ce
br u
ci pl
dis cipl
primar y
buil t
fa ther
aband on
gir l
fil m
ad ded
occur red
franci sco
ro bin
critici zed
bo y
dif fic
m m
direct ly
le ast
mem ory
tic ally
claim ed
physi cist
sci ence
book s
ci e
ari an
is s
ta ken
fr ame
f as
a gu
in ing
work ing
so lar
foun dation
suc cess
bu d
organiz ation
tech n
h p
valu ed
de lay
cli ent
concier tos
m í
feed back
annu al
co le
li bre
apl icaciones
ir se
cam pañ
d re
conf lic
ori os
enfr ent
ho tel
u t
con tras
cur sos
escr it
produ cto
c ciones
empres as
ac adé
ac ciones
e fici
pub li
ev itar
gan ado
ci dades
vehícu los
acel er
desnu do
términ o
ís tica
ve la
pro vo
ar k
des plaz
fun ciones
patro cin
tiem pos
condi ciones
len gua
ct ores
pose e
gu ay
ci da
ha i
common s
ex tr
d ll
n in
de pu
ch ur
mid dle
pol ice
f red
us age
fo x
ing ton
b ic
ci s
ri te
w rite
bl ue
major ity
multi ple
critici sm
k ed
ac quisi
adop ted
standard s
remo ved
es sen
a go
communica tions
ha vi
pro per
ac ross
g ation
can not
im per
defini tion
an ts
fin ite
velo city
mil es
pen s
is le
contin ental
wal d
lan des
z bank
aban k
pa ign
w el
energ y
ge ther
w ed
event s
i' m
o me
g ing
ap ple
to o
so on
pro f
ho use
an th
techn ical
ck s
con test
don 't
de ad
it ales
gu ar
qu in
actual idad
minu tos
en e
exper ien
ten e
no te
ent as
confi gur
equi pos
invi tation
ili dades
s ali
qu ed
infor me
ex tran
opera tivo
recu per
of re
confirma ción
cli entes
de m
reser va
acti va
pres encia
ase gur
or g
a h
mi te
ac ces
lla ma
pay pal
mensa je
segu ro
sexual idad
caix abank
men udo
gang sta
vo z
multi media
com parti
imá genes
vic tori
artist as
dej ó
s ó
a tra
ocas iones
d ían
britán icas
indi os
gu pta
mic as
as im
ífic o
á mica
gin as
pá ginas
ten ían
prop io
apare ce
inf antil
den tes
sus crip
im edia
wik imedia
mee tup
an os
ar ca
com ics
ta ma
ar es
tele vision
h ong
des tru
conse cu
women 's
ari es
di e
res our
si e
k ur
item s
’ s
us h
fran k
for med
influ en
origin ally
twitter 's
organ is
institu te
techni ques
al lows
l it
l f
deci sion
de sig
cam paign
subscrip tion
ta king
ind ic
lon ger
r ing
attem p
gr and
sched uled
c able
c v
ro le
co ver
op portun
ho urs
lo ttery
pack age
feren ce
s cam
a fect
respe cto
on io
tien do
exist en
comien za
st art
pro pos
clas es
bu en
llev ó
lle var
j ó
ex ped
anti gua
reg res
esto y
aso ciación
lar es
car go
man tener
me ta
qu eda
b ús
me j
import ancia
im pres
é dito
ing res
via je
reci bir
des k
compu t
{ f
dete ctive
sy lla
ti jo
acer tijo
d l
k w
representa ción
publ icación
informá tica
km ²
bert ad
desarro l
el as
idi omas
la go
com ún
ej ér
perman e
dic os
términ os
o bras
má ximo
domin io
fi los
result ado
val le
men cion
crí ticas
su ces
tras la
produ cir
diferen cia
similar es
one er
pi oneer
v d
tour nam
s el
cs s
k ill
dr ama
pro vin
ba h
geor ge
descri be
hos t
work s
hy po
z i
s cul
as soci
thir d
bo ur
fin es
govern ments
ca u
lgb t
des pi
philosop hy
incre asing
re pe
par ts
ty pes
gi es
as tr
pli ed
sy m
there fore
wa ve
agre ement
ex act
al li
v ant
ex pla
sign ed
read ing
oper ations
sub scri
mer s
ne cess
to gether
bir th
experi ence
loca tion
product s
attem pt
sa ve
provi ded
mi ght
recom men
go ing
bran ch
solu tion
priva te
devel oper
re vi
wor th
opportun ity
f la
chang ed
f light
lis ted
compe ten
compan ies
an to
com is
m ados
int ent
form al
n an
carr era
ab ier
lu cha
na ción
pas o
ox ford
deli very
a gen
pas a
am or
en vi
fun dación
activi dad
au mento
of ic
pa pel
ti da
tien es
ha z
mes es
us ted
f eli
trans fer
ping ü
jo ker
corri ente
penínsu las
chem ical
u ci
campe ón
ci cl
tic amente
l istas
rev istas
con junto
ig les
c era
eng ala
b engala
z os
conqu ist
fl ore
hindú es
ex iste
iz a
traba jos
ado les
ví de
colo mbia
lu z
últi mos
señ ales
un ci
com po
x ml
eno te
on enote
es cal
sw ed
well s
fi re
fem ale
op position
ti fied
movement s
ctur es
ment al
mu se
ed ge
abili ties
w iz
japan ese
con ce
cre ate
feder al
su it
mi gr
inste ad
be gin
cia ted
princi ple
especial ly
frequ ency
th us
r t
dy nam
min i
di vision
glas s
materi als
bo und
pro posed
wa ves
be y
it alian
an ia
c m
recor ds
li a
mar y
s we
sal e
he alth
qu ick
fore ign
requi red
lu x
hel lo
ho pe
gi ble
representa tive
re ply
gratu lations
con gratulations
tr ack
lear n
op in
respon sab
ind ica
fundam ental
or din
it an
gen era
l óg
polí ticas
prote cción
exped i
dese m
r ami
for tun
di da
ap lic
situ ación
face book
mej ores
requi ere
cr édito
x y
in versión
conta cto
inter és
bel t
tis sue
c ad
vil lan
g ales
bill board
sen cil
dis posi
may as
divers as
pad re
tradi cional
titu d
mil itar
conver tir
tri bus
tis mo
mo gol
cho la
chal uk
asi á
comenz aron
tex tos
indepen dencia
cone ct
civi lización
ual mente
rela ciones
espe ct
clasi ficación
peque ños
ez as
lí der
dic ho
h é
espa cio
ali ano
d vd
hi bi
ten nis
optimiz ations
com pi
desk top
nor m
adminis tr
pal a
a pari
ps y
loca ted
ud hr
particular ly
refer red
r ar
vir on
en viron
chan nel
regu la
wiz ard
do t
j ose
sou thern
k in
no table
co inci
aus tr
fo cus
n bc
organiz ations
al leg
integr ation
acquisi tion
educa tion
foun ded
yo ung
despi te
si bility
so ciated
as sociated
plan ets
gro und
ne ga
ex o
in fer
e ither
obser ved
appro xim
com porta
re public
is es
commer zbank
fi gur
indus try
par ent
sion al
company 's
s v
laun ch
cor ner
pla te
incre ased
discus s
bin ary
gio us
spe ak
res tor
remo val
at lan
ha ppy
u me
open ing
than k
belie ve
ran ge
confirma tion
ro ll
au d
es c
est ad
cre ar
cre ación
econó mica
espe ciales
pro b
sub mit
employe e
miem bro
secu re
ben e
cal end
li der
dis pu
para ción
reg istro
mag n
tok yo
artícu los
er ía
i dades
constru cción
dist ancia
vi dad
mali cious
cam po
v ac
ac ab
ta ur
reso lu
pres ente
tur as
fic ado
ofer ta
din ero
te or
g ue
of reci
f ono
tel é
veri ficar
le e
neces ita
{f }
ard ment
bomb ardment
ark ham
g adas
inv entor
medal las
edi fi
qu í
ter o
dere cho
ty n
fic ción
re carga
encuen tran
co ck
p ista
descu bri
esta ción
polic ía
an za
reci bió
vi ven
rápi da
fr ente
í fer
pl antas
element os
ter cera
estable ció
so ber
ne gro
al la
r í
adminis tración
den te
public ado
human os
afgan istán
vol vió
c adas
o cur
pos teriores
ún icamente
mas i
aut ores
iz ada
pa tr
' the
mon d
swed ish
ol der
li br
gui de
gr os
hen ry
con tempor
i gh
chur ch
ll er
de ca
bio logical
w is
cre ation
ber g
mi x
re ve
pilo t
exam ples
enti re
li p
y n
stu dies
vide os
str ong
tur es
bla ck
al d
mic hel
or b
bo t
al ways
me ans
be havi
exp and
ang le
condi tions
struc ture
scienti st
ac cur
defin e
on d
out side
mo on
l ength
sto ck
l t
ste in
mu tu
e o
on ce
up on
ar ticle
publ ica
com es
inter face
p son
edi tion
re ven
collabor ation
perform ing
g am
descrip tion
fin aliz
stra teg
u gh
look ing
fac tor
en ga
ou gh
ar ri
st ore
win ning
mon itor
sus pi
estima ted
lle gar
hi jo
ide as
t ante
per tene
reem plaz
event os
us ión
un as
den cias
fica ciones
a ero
bar ri
activ os
addres s
ac tive
int eli
ti mo
gar anti
pa ge
cele br
ten ido
mó vil
cono cer
ol í
e ur
const ante
ten emos
re ca
identi dad
episo de
rock s
region s
r }
có mic
tone ladas
pi ta
n vi
ob scen
cat ól
esco cia
ho mbre
​​ ​​
cond ado
utili za
sencil los
profesion ales
na ciones
a gencia
fran ces
án do
consider a
im puestos
men ores
autor idad
expan sión
agr ic
habit antes
cultur as
ob tuvo
mit ad
cor ona
conqu ista
filos of
conoci dos
musul manes
compañ ías
segu ido
s ket
indepen dientes
referen cia
r um
i mo
no mbr
ning ún
co pa
apare cen
latin a
su d
sa int
metro pol
tournam ent
dis k
mor gan
co ast
les bi
tec ture
archi tecture
ar an
ad am
em per
an n
st on
dis crimin
ency clo
de an
mechan ical
chap ter
poli tics
bro ok
te en
dis continued
priv acy
a es
h at
ph er
ho mo
sub sequ
remain ed
cu t
off s
de cl
platform s
element s
se an
us i
individu als
n ic
spe c
j ar
se ven
wh ether
pat tern
res ist
ta kes
ini tial
conven tion
obser v
del y
wi dely
tic les
electro magnetic
approxim ately
s pain
l h
ad vice
sug gest
vie ws
ke ep
progres s
manag er
for ward
i' ve
fri day
sa ving
pa id
high er
n ers
promo tion
acade mic
f ast
tain ed
to wn
gre e
you' re
regard s
suspi cious
cre e
cu ota
ques tions
pier re
ho gar
m r
cal idad
ve y
partici pan
thre at
plan es
propos al
al im
teni miento
re a
cu lo
prop ia
tall er
bre ak
estru ctura
apo yo
mon te
prue bas
cer can
nue vamente
s á
her rami
aj us
di za
res puesta
entr ada
of rece
res taur
ami gos
pre gun
us d
gi da
di das
p ér
qu é
con gres
pu es
er ror
cryp t
al o
detect ado
pro ve
ha ga
pingü ino
nvi dia
ej as
ab ejas
co ches
auto móviles
mascul ino
cal or
porno gráfica
obje tos
ily n
mar ilyn
long itud
him no
instal ar
c és
tyn wald
el lan
kind red
gu itar
palab ra
u to
d ando
desarrolla do
cr á
copi as
ang lo
mo go
sí mbo
acuñ ación
territ orios
produ jo
consider ado
eta pas
cambi ó
í gen
europe o
p los
ras h
ch u
espe c
gráfic os
para guay
per ú
form ó
t bol
má tica
clás ica
emi tir
en fo
aso ci
stream ing
his pan
s ac
s ar
pron unci
mex ican
se c
cu re
super ior
me tal
ma to
gi ant
muni ci
ac ciden
william s
d c
log ist
ch ica
ho u
cultur es
juris diction
associ ation
reli gious
constitu tion
princi ples
way back
ta tions
sco tt
classi fied
tai wan
se ats
fun ctions
ma gaz
e ver
pro test
ri ver
tool s
st ory
nam ed
cos t
er y
i ed
earli er
perfor med
bo dies
initi ally
aris to
led ge
sur face
tr ue
co p
refer s
who le
gre ater
li m
res on
ex pli
ne ver
con text
mo tion
pos es
can ton
russi a
g l
former ly
b au
is en
ti a
lea ving
ti t
ef for
subscri bers
vement s
s la
ch el
e ded
at ory
la p
gu ard
we' ll
ing u
stre et
io us
star ted
ta ge
cur ren
month s
messa ge
lin es
tic ket
air line
expe cted
pu eda
arquite ctura
esc uela
e fec
wan ted
form ado
j eron
b un
ún ico
intelli gence
ben ef
partner ship
cris is
trim estre
cum pli
actualiz aciones
er r
presenta ción
al mac
mejor ar
alg una
john son
victor ia
pro ced
ander son
de vice
trabaj ar
to mar
ob ra
ul ti
có mo
lleg ada
apro ve
en or
li bro
disponi bles
r é
nego cio
de b
a vis
p eli
ci dos
financi era
rap id
invi tación
ac ce
foto grafía
dis cu
ph ishing
adi cionales
apren der
jer os
tu d
infor mar
com unic
ayud ar
{ v
activ ex
am ous
diale ct
pi ezas
permit en
absor ción
colu m
temper atura
parti dos
má xima
nor ue
archi vo
agric ul
equival ente
consigui ó
é x
fís ica
it ario
human o
informá tico
me cán
der a
gener ales
par la
o la
inten ción
gener almente
fi ere
derro t
des cen
tradi ción
ter as
ejér cito
mon ta
en señ
ori ental
rí os
vi jay
ori ente
compr en
antigu os
ho m
re produc
princip io
asim ismo
g idos
audi encia
ad ro
c ados
trans mi
origin ales
lanz ada
v tu
it aliano
pi es
compil er
g d
na tive
ed itor
medic ine
i k
f an
hea vy
ja in
har a
eas tern
re fin
o li
eth ics
amer icas
p ped
redu ce
re bel
em pi
ca ch
stand ing
resour ces
a king
a del
opti mal
n c
ex is
w r
ed s
el s
k ore
son g
lin ux
cr at
tex as
f usion
ima ge
was h
wash ington
pa cific
adverti sing
fa ult
su pre
me t
al ready
twe ets
own ed
se mi
scot tish
ation al
las h
varie ty
lou is
tar get
sub st
ca us
through out
rela ti
un its
rela tivity
common ly
econ omy
scot land
v s
la t
agr ico
travel s
ag ue
sug ges
r ul
th ri
register ed
lea ve
up dated
recog n
ni tion
be tter
at ors
pas t
w ish
ti m
gro w
sa y
saving s
sett le
accep t
a way
y et
ar ily
suspen ded
data base
ch at
andre w
a ward
bu y
dif ference
her mano
prác tica
con tiene
p lu
sen ti
mem oria
conven i
n un
con clu
m adas
dire cta
ser á
ra te
i tation
as un
a v
hab ilidades
almac en
por que
fe cto
ul ar
éd ica
proporcion a
su el
concier to
dó lares
ini cio
entre ga
as censo
fa ke
fes tiv
inter nacionales
minis ter
prote ger
financi ero
ri es
bús queda
jo ven
can ce
seleccion ado
ren e
gráfic o
{ r}
vol cán
par á
pul gadas
sig ue
denomin ación
« the
bow ie
sus titu
villan os
ton es
ele cción
super fici
utiliz ada
di jo
dro gas
h itch
mar cas
es tran
graf ías
nivel es
opera tivos
en ciclo
en cias
pro fun
desplaz amiento
l á
sha k
fund ada
g ama
cu yo
ís tico
derro tó
termin ó
é tico
gobern antes
bat alla
cas as
cono ce
ma ur
sur gi
ac cion
as cen
apari ción
deci dió
hu bo
ú tbol
f útbol
í tu
cap ítu
sola mente
empe z
a des
re pública
i v
as h
assist ant
mac ros
ling u
go th
lit tle
pro ta
episo des
b and
gra ham
ar th
form ats
ca th
fi f
ma kes
ro me
de ro
m am
li e
le gi
pr ose
k al
run ning
imple mentation
má qu
sp ir
method s
cra ig
man u
e e
sta ge
disco ur
bi d
alex ander
b ad
inten ded
imple mented
edit orial
d ating
p us
r he
ly ing
liber al
de vices
ta b
compati ble
pr ice
cam bridge
de al
la bel
b bc
bas is
u ght
le o
deri ved
jo han
so und
h id
diffic ult
fa ir
effici ent
lar ger
al most
wh ose
phys ics
spe ci
liter ature
pos tu
allow ing
subsidi ary
bank en
w ent
s che
author ity
bo urg
institu tions
agrico le
tar ge
pro min
fir m
p se
team s
promo te
tr ust
sa tis
lea der
thou ght
compar ed
solu tions
go al
mo ving
own er
purch ase
ar rang
child ren
g ement
f antas
sk ill
inst ant
gi ve
ro om
ap pre
r ando
edu le
announ ce
fe chas
hab la
pas ado
biblio te
communica tion
na cimiento
ejecu tivo
in conveni
actu ales
b ás
plan e
pue blo
de ba
campañ a
pres u
sta tus
recor d
min istro
b res
lic encia
n ico
bro wn
segur os
mar t
mil l
diza je
apren dizaje
document os
con vi
u ta
ac or
de z
activ ar
pare ja
rápi do
gui en
al guien
obje to
aler ta
prác ticas
nos otros
noti ficación
telé fono
s r
le vy
squ amous
tis sues
shak ira
t na
tel eno
ga ines
infer ior
mode lo
cat al
sim pson
na ef
s naef
fect os
en fer
propi et
a ves
consu mo
son ido
dis minu
al tas
adul tos
éx itos
álbu mes
publ icaciones
° c
har uto
leg ales
d ores
inte gran
en car
li bras
toda vía
fá br
ba jos
econó mico
contro lar
tes is
inclu ida
permi tió
fuer zas
lugar es
ca í
estable cieron
natur ales
s as
dent ales
ci dentales
oc cidentales
si dad
qu ía
cli ma
e jer
xvi ii
ag ara
an agara
vijay anagara
t ard
bas ada
europe os
com edia
sen tido
la dos
mis mos
víde o
sket ches
en chu
loc aliz
ins pir
estru ctur
funcion amiento
warner media
man os
su fri
re ales
crí tica
ed ra
hé ro
dic ha
ca ta
depu ties
o ce
mo du
ho t
g y
jose ph
divi ded
europe a
el le
si mon
ver e
popu lations
ac ting
ci tiz
li ga
essen tial
stru ctures
encryp tion
tur ing
mathema tics
h un
po w
y en
practi ces
frequ ently
t su
ra ised
car ri
conserva tive
k id
dete ction
in sta
le ague
hon or
si ze
addition ally
provi des
ph ones
de fault
safe ty
law suit
official ly
am ed
af fili
you th
vis m
cri me
forma tion
sh if
s at
meas ures
appear ed
re ces
s low
sym bol
ro te
w rote
cho ice
ti o
bey ond
en ces
compu ting
me tre
ki lo
equ al
b ing
char ter
z z
mo l
ger many
on na
lux em
bran ches
b los
es ter
f low
transi tion
jo ined
de cre
diction ary
shar ed
d one
customer s
in side
sa ying
in fr
super vis
cer em
necess ary
quarter ly
recog nition
pon sor
po ints
p per
s lo
accep ted
c entre
amo unt
dist ingu
pri me
confir med
ded ica
conta ins
pre par
invi te
colle ction
emplo y
do l
dra w
don ate
res et
f ill
es o
pri ori
ini ci
minu tes
regard ing
tas a
g ada
ci ente
conoci miento
fu entes
conoci mientos
ci entes
comun icación
mor ning
cu anto
encontr ar
ver de
reser vas
tor neo
a compañ
pr ac
ba ja
se cción
opera ciones
e valu
fr ica
re cep
quer emos
estudi antes
ro b
com ent
pa gar
aba jo
d '
ag reg
ci tas
c ando
auto má
n d
la da
em erg
as is
pron to
i endo
si to
alg ún
solici tud
text {
c dot
sh tml
m shtml
fire fox
green land
stra tified
morph em
pornográfic o
ma estro
femin ismo
pare jas
ex uales
mejor as
ñ ez
w iden
des liz
on atos
campe onatos
her os
fic heros
pes o
revolu ción
bur go
bor der
mí ni
norue ga
van nin
compon entes
po dían
expl í
dis cos
hitch cock
só lo
fu ente
ci das
informá ticos
i ero
ingen iero
li bertad
logr ando
trim onio
mostr ar
aument ó
tama ño
ta ba
hab lan
logr ó
es as
desarrol lar
un idad
escu elas
le tras
fer a
re fiere
convertir se
oc é
numer osos
com ba
mé todos
rey es
caracter iz
ent ales
ú r
y eron
adi ó
idi onal
mer idional
sur este
maur ya
ad ha
mag adha
frecu entemente
public aron
enchu fe
empe zó
ini cialmente
cab e
di versidad
at lán
difer ente
prota gon
comple tamente
lla mar
respec tivamente
sus tan
realiz a
ri ó
cons iste
o cho
introdu jo
alem ania
p ico
hai ti
r ue
del an
install ed
mac in
bi os
r al
z an
tur ner
mos a
uni versi
s ang
ven us
ta m
plan ta
ren der
spe aking
d al
tos h
chica go
gener ation
de ath
viet nam
proto col
inc en
colon ial
re action
cent ur
tre a
di vide
number s
aliz ation
j ac
is tics
spir it
li ving
wr ong
sp in
a ver
mu d
o mi
g ame
magaz ine
s and
je ff
cor te
ma chin
tru th
contras t
man i
mo us
cre ating
cas ting
web sites
li ved
stan ford
legisla tion
primar ily
research ers
respon sible
function ality
restric ted
ch ie
ac tors
k y
secre t
promo ted
su ed
ren a
hen ri
la tter
gre ek
tin o
o h
cros s
vel ength
wa velength
g ely
lar gely
event ually
t z
k r
the ories
expli cit
medi um
no ted
uk ra
b ou
s ant
abo bank
r abobank
l '
c n
h s
mil est
co py
mi ke
rele ases
w inter
profes sional
reven ue
ct ing
impro ve
s pr
do ing
sta ff
ro les
s ponsor
expres s
i' ll
ar s
li k
f fe
remo te
re ports
link ed
f all
al p
star ting
don ation
pro ven
execu tive
sub ject
cia te
appre ciate
offic es
curren cy
identi fied
sch edule
ap point
bal ance
ab c
po t
instru ctions
noti fication
utiliz ar
to u
herrami entas
seman as
men es
podr ía
vol ver
cuar to
re tro
cámar as
oper ación
alcan ce
do ble
bu ena
proye ctos
de ben
cion ado
esti ón
adi cional
ex itos
electr on
z ada
s of
escrit ura
cer ti
sab er
numer ous
m édico
can cel
ver if
festiv al
continu ación
ped ido
pare ce
y ar
p id
peque ño
discu tir
pas ar
xy z
tar ía
as te
apro b
resol ver
qu adro
tri dent
brook s
bas in
lay er
canton ese
phone tic
teleno vela
homosexual idad
igual dad
mem bran
cad ura
widen ing
adoles cen
ar ran
igles ia
edifi cio
° f
l lu
elec ciones
human a
snaef ell
total mente
e fectos
plan eta
de bajo
cer ía
ad á
can adá
mas a
escri to
fís ico
a gru
oficial mente
mu estran
foto grafías
yed am
yos hi
itar ia
divers os
mo to
enciclo pedia
reci entes
ren om
may a
artícu lo
fon do
esta ciones
per ió
parla mento
cier to
ven dió
marath as
ampli a
dif í
escri bió
cul to
r ama
puer tos
océ ano
peque ñas
cuar ta
cli ve
guer ras
p uso
bas ado
pos terior
situ ado
religi osa
pue blos
filosof ía
regi ones
al u
zon as
pal la
ocas ion
clás ico
desarro ll
comer ci
dinast ías
norm almente
utiliz ado
tiz ación
públ icas
reconoci miento
v aron
aspe ctos
escen a
hab il
mez cla
atlán tico
diri gido
transi ción
port ada
es os
sie te
distin tos
int as
dist intas
po día
estren ó
fa z
estr eno
vis to
american a
bar ber
atur as
anima ción
iz adas
trans misión
suscrip ción
on sky
stor onsky
nun ca
consider able
gu ion
macin tosh
er up
pri vi
stu dios
anim als
h ero
man if
man a
psy cho
nar ra
class ic
prose cu
ju di
crimin al
environ ment
ado pt
co ven
discrimin ation
arab ia
ap plied
lu is
empi re
concep tual
archi ved
par all
process es
execu table
ta bles
cle an
pow ers
mas ter
ma ins
net t
grow th
au gur
discour se
ca pe
open ed
mon u
co la
disco very
parti es
pre view
mark s
compu tation
reve al
descri bes
bo b
controversi al
en ded
mo ved
e va
in su
separa te
en for
di ed
mas sa
por tion
claim s
sim pli
dis information
ur l
mis information
a im
re produ
po in
scholar s
know ledge
nor mal
orb its
ent y
tw enty
mar s
or bit
contin ue
ma xim
achie ved
var ia
respec tively
g ap
trans mit
on to
se ction
abo ve
nu clear
dire ction
pre dic
speed s
compon ents
di men
em it
u red
min im
dist ant
effect s
measure ments
e ous
king dom
gr ad
s pare
corpor ate
industri el
lh b
atu red
fe atured
f é
a tive
mp tion
k it
gar den
invest ors
mo ve
tra ining
strateg y
discus sion
lik ely
sho ws
lo ck
reach ed
ci li
fu ture
w ant
co in
crip tion
we' ve
sen ior
de u
advan tage
rando m
en sure
reason s
up s
wh ite
noti ce
ship ping
lo an
e labor
ili dad
cos as
mar cha
no che
reg reso
comis ión
g ando
presu puesto
tem pr
experi encia
imp acto
nego cios
di bu
cand ida
plan i
con vers
inteli gencia
vers ario
des bloque
ú a
per fil
f alta
j en
agr ade
cy ber
sos pe
ofic ina
pid amente
técn ica
contra to
institu ción
comp ra
publi cidad
cier re
comput adora
fon dos
go v
hypo thesis
water ston
be c
membran e
compo unds
varon es
ju gador
com ic
reces ión
pres ión
t n
alem án
adolescen cia
nave gadores
an exo
al tura
gen itales
tra jes
fábr ica
expres ión
con cen
trans porte
gh s
an cho
ram sey
ir landes
convi erte
permi tir
hogar es
br en
mul der
estadouniden ses
superfici e
con seguir
pa ges
ac tos
conten ía
integran tes
estándar es
realiz ada
renom br
ch ic
españ ola
campe che
ori dades
aut oridades
ning una
palab ras
per mis
inter cambio
comien zo
relacion adas
as u
afir ma
ro jo
polí ticos
emper ador
estable cer
estable cido
exten sión
k ush
per sa
for man
gu as
á tica
peque ña
entor no
ci mientos
ológ icos
marath a
vi ii
desta can
finan cier
p one
ar tes
act ores
ón imo
us ado
iz ar
t ando
formar on
ce dentes
ced ió
mar có
provin cia
chi le
ven es
jó venes
denomin ada
defini ción
form ada
viol encia
de más
cen ta
capítu lo
realiz ó
inter faz
consider ada
ma tr
mis iones
mi o
bern ard
k ka
uni x
morph ic
infe ction
be ta
movi mientos
ho p
vis u
share point
optimiz ed
b und
b is
pa tri
ad ult
he teros
re am
inst ream
ma instream
ide ology
bal la
domin ant
vi lla
fri ed
bud d
f s
g abri
ci an
cath ol
ma ha
des t
n h
fac es
d ica
treat y
g and
contempor ary
n ature
afr ica
cri tics
centur ies
appro pri
trea ties
expres sion
religi on
behavi or
encyclo pedia
fin ding
parall el
dynam ic
h il
b ell
dy nas
part ícu
influ ence
ar ith
k h
bur y
liter ary
ste ven
po e
we alth
crip t
ca ted
sup ports
muse um
en ough
p ac
de mand
pr ise
ch and
lo gies
ju d
ri val
str ength
manu fac
volu me
re mains
em phas
los t
me tric
to wer
in augur
t te
is ra
ly n
gen o
af fir
at tribu
bab y
si mu
tu red
scul ly
austr alian
prote cted
um p
don ald
do g
claim ing
ad vis
h und
t ts
massa ch
z el
bri tain
com muni
mat ters
pp ing
journal ists
liam ent
par liament
am n
usi ve
organis ations
histor ical
concep ts
begin ning
k ir
gus ta
mi a
ab ly
requi res
impro ved
subst anti
gor don
colle ge
ar c
valu es
expres sed
sour ces
process or
fron t
over all
s cal
astr ono
cros sing
las er
the ore
argu ment
ori enta
tex ts
im plica
small er
distribu ted
accur ate
relation ship
alterna tive
sho wn
h l
s lower
conse qu
visi ble
n at
vir gin
llo y
gi an
gén ér
s par
a x
gu lf
cro a
milest one
sh el
la x
tur ning
te ach
st ories
iz ing
resul ts
th ink
ho li
integr ated
contr act
tes ti
in put
b log
th urs
shi ps
revolu tion
en able
enga gement
fortun e
alp ha
en try
world 's
publ ish
ph il
earli est
colle ct
the ft
fe es
sen d
tr end
dead line
da vis
propi as
inclu ido
colabor ación
en cu
hor ario
competen cias
efici ente
man tenimiento
con soli
inv ent
az go
ba ción
docu mento
res tr
progres o
s ara
últi mas
car i
mar ía
twe et
c ti
ins crip
desem pe
partici p
ani versario
confir mar
dra wing
lo ter
cre ado
produ cido
verif y
r enta
ún ica
rá pidamente
no va
au ctions
inmedia to
u de
anun cio
fac tura
inv itar
pier das
pró xim
men tación
u dos
sp am
ca usa
im os
ent en
pros titu
mosa ic
que bec
ni ñez
femin istas
que en
asteroid s
mejor a
fren o
lu ces
auto pilot
aceler ación
nave gación
cómic s
lo co
mbo cadura
dese mbocadura
pan ama
fran cés
aqu ellos
configur ación
ter race
lat ín
sec und
car ril
fra gio
neces idad
mi to
der »
ben der»
« gender
con tienen
dem anda
prác ticamente
mid lands
ag le
e agle
es fuer
circu ito
present an
car b
colu mbia
ab und
suel en
core a
hac en
orden ador
comporta miento
cu los
posi ciones
espe cie
ti llo
a tribu
crá ter
a per
u u
gir as
f ase
xvi i
ag entes
viven cia
anim ales
pro hibi
mogo les
on da
dé cadas
ofi ciales
gobern ador
tier ras
is lá
expedi ción
fund ado
escri ta
dec án
ha cien
espe cias
fabr ic
su minis
hi jos
us ando
cla ve
sigui ó
ra í
er en
v édico
alcanz ando
ej em
ológ ico
organiz aciones
directa mente
entr ó
númer os
últi ples
m últiples
l lan
urban a
exten dió
fici ente
r ía
ami entos
geo graphic
lla mados
co ti
t ada
tor no
bas a
ges tion
total idad
present ó
ini ció
blan co
hi cieron
inclu idos
ci mo
de porte
convir tieron
produ cida
exclusi vamente
aqu el
gráfic as
cu ya
ti éndose
ta ciones
portugu és
american o
ani me
z hou
j ing
sh ang
u la
ex e
metropol itan
premi er
fif th
c pu
compil ers
microsoft 's
mac os
licen se
cap it
mber t
la mbert
u ro
in cu
men 's
ital ia
ser ved
m ale
cr ist
no vel
syn thesis
cer am
ífer os
as a
at as
sing les
on k
gay ama
na gayama
ele v
em y
sh un
f os
pr u
work ed
ar ty
mil ler
p d
g len
al one
cathol ic
th a
si a
r ica
bol sa
resolu tion
so viet
mor tal
tradi tion
med ie
er ic
g m
mes o
lo op
ho od
sol ve
f en
blo od
cha ir
du ty
invol ved
tre e
au ction
dan i
han na
hu mor
jun ction
ri d
c used
ste ph
lo a
ex clu
dej ando
contain ing
sell ing
inter ven
f fer
s l
poli cies
blo ck
chie f
n pr
hund red
ser s
use tts
massach usetts
communi ties
exist ing
ic on
form ing
leg acy
pre de
suc ce
ad ding
defini tions
bro ught
el ess
f lash
attemp ts
aristo tle
increasing ly
one 's
m h
cons ists
ou ter
contro ll
maxim um
process ors
depen dent
rough ly
sen se
mic al
astrono mical
se en
virtu al
theore tical
us tra
i um
specific ally
le on
re frac
propa g
expan sion
meas ured
de mon
c ly
gr up
rup t
take over
l ists
j al
perman ent
g ia
génér ale
e g
c ze
pari bas
aus tria
vo cab
process ing
chr ist
fel low
effor ts
rul es
comple ted
determin e
com pla
cor di
gam es
fo od
clos ely
tas k
par ents
em ily
thurs day
effici ency
state ment
mat ter
fa cili
mar ri
pl ans
treat ment
week ly
in er
pati ent
port al
mor row
to morrow
af fe
me et
sky pe
it 's
process ed
wa it
sim ply
appoint ment
eli gible
mis s
pre vent
assist ance
nor mas
redu cir
all í
lle ga
ón ica
plata formas
par que
itor io
p esta
acce der
g ala
promo ver
result ó
confir m
in si
relacion ado
inv it
quer ía
de ber
hab lar
priva cidad
tu ro
ón icos
atta ch
ho b
ma ñ
r ic
reci entemente
j ero
log in
ti vidad
es pero
coun t
pla zo
corre ct
mu er
emple o
de a
expe cta
<emoji> ️
premi os
vi en
dire c
li do
ic es
sospe chos
abili dad
lí mite
cambi ar
congres o
se min
o port
compro me
pen diente
ingres os
moder na
gus taría
profes or
fr u
fi que
feli cidades
prove ed
represent antes
bas ins
in organic
gd p
produc ers
f ta
atlan tic
shi eld
id al
colum nar
diale cts
partícu la
ling o
rest ling
w restling
vis iones
mun e
goth am
ter res
ellan a
or ellana
ol ina
tempor adas
ps ico
tor re
ga e
car a
ed ison
ever green
ases ina
ju gadores
al lo
quier da
iz quierda
com bus
cor red
lin as
caracter ística
agu as
cur ra
me c
su fragio
depen dencia
o cul
biblio grafía
cali ficación
femen ina
cuen ca
tur quía
fer ro
ex ter
pren sa
zel anda
logr ar
not as
se ctores
tro p
p istas
inter na
individu ales
con sta
disposi tivos
teor ía
con verti
ori da
fl orida
die go
ígen a
par ro
par ís
k il
famili ar
gol fo
cap tur
redu jo
victori as
ex tien
st as
excep to
orden ó
circu lación
de tr
re cha
ap ala
no mbres
to mó
ko ta
shi va
n ada
poten cial
símbo lo
rela tivamente
geo grafía
sa ta
di r
gobern aron
tr ó
rein ado
inclu ía
extre mo
a fi
ar ían
í genes
or ígenes
é p
con texto
prob able
y ab
s án
to ma
ir án
histór ico
úr qu
t úrqu
xi ii
chaluk ya
asiá tico
mar í
religi ón
dor ada
jain ismo
man tiene
ór gan
di ez
product ores
teni endo
d ich
restric ciones
correspon diente
ocu pación
real idad
bu m
t nt
héro es
cu ad
dur ó
des apare
reno v
te mática
adel ante
dist as
conten idos
cor tos
a je
clás icas
ini cios
conser v
revolu t
p il
inc ur
g ers
sp y
vulner ability
h all
so m
mo ore
particular mente
em bed
optimiz ing
under lying
de si
des pread
wi despread
browser s
distribu tion
ap y
con version
ray mond
ser ena
k ab
ar que
artist s
ti les
john ny
ir ak
han a
aver age
n it
fried rich
ar cha
re gar
m ys
play ed
so unds
hor ror
ni j
al as
ad y
ci d
fel t
ra w
sing a
asi an
sou the
gu en
op tional
gros s
vio lations
cli mate
th in
fi es
combin ation
graph ical
struc tured
th ings
encryp ted
me tic
fic tion
ma p
contain ed
ag ed
tor y
glo b
car l
minor ity
ho o
i ba
hos ted
fre y
mo ther
program mer
compon ent
co u
argu es
resul ting
philosop her
demo cr
ph ar
fra ud
carri ed
conserva tives
pi ke
tt on
viol ence
ur as
broad casting
pla in
cri tic
to wards
rhe tor
produ ced
com pli
invas ion
subsequ ently
declar ed
ad s
pos ted
gro wing
as ked
adverti sers
ac ts
clos ed
is lands
dou ble
enter ed
ur al
bir d
ren amed
affili ated
squ are
cir c
fa ith
incl usive
w all
incl usion
adop tion
activ ists
remain ing
her ed
deri v
descar tes
philosop h
repe ated
where as
op tion
be hind
ve ctor
inter fer
ur ing
near ly
ju li
inter nal
pr in
pli es
fe ctive
ab solu
class ical
aga in
mir ror
nu cle
v ity
di ver
g li
hel m
wil helm
refrac tive
similar ly
fam ous
appear s
par ticles
respe ct
prac tical
kilo me
exact ly
do mes
h m
er n
lt d
bi a
h ung
cze ch
luxem bourg
re constru
j in
h it
as signed
char ge
plan ning
developer s
depar ture
s atur
titu de
quick ly
lun ch
birth day
let 's
fe el
pro m
tri p
pro file
categ ory
interes ted
op tions
ess or
prof essor
friend ly
affe cted
resol ve
you' ve
d at
engineer ing
inconveni ence
inter view
invest or
h ur
gi ft
set ting
pos it
qu o
exci ting
h iring
atten tion
invol ving
alcanz aron
bibliote ca
responsab ilidad
tou ch
comple ta
qu ir
vi vo
com paración
tri bun
log ías
can c
anti ci
com ments
cand id
reci ente
pres er
re uni
tecno lóg
impro vements
imple ment
buen os
fic o
tr á
ha ya
ten dr
restr ing
sara h
abier ta
ador as
car ta
trabaj ando
quer idos
iz ado
e fecto
an í
lear ning
cal le
Á frica
mensa jes
com mand
mali cios
aliz ada
bo le
an cias
ofre cer
clar o
recep ción
mill ón
id ado
cu idado
car gar
vi er
enor me
cion ados
estudi ante
vis a
escri bir
estar á
avis o
minister io
respon da
nues tras
sospechos a
iz ados
su puesto
cion ar
present ar
asis tir
interes es
re cla
gar cía
eur os
ten ga
reca ud
pornográfic as
ero tismo
ori arty
m oriarty
sv g
geo log
jun ctions
lla bic
y llabic
morphem es
eró tico
il ine
fe udo
argent ino
ap at
gan ando
mad re
ro us
mo tores
pla id
ps ic
cen sur
bar ro
sel va
ama zón
min er
volu men
cá pita
mon taña
oce an
con sa
estad io
ele y
bom bas
instal ación
disposi tivo
á culo
form atos
contr at
medal la
az ul
pilo to
af lu
abandon ó
noti cias
contro les
por tación
combus ti
bah ía
llu vi
li bra
munici p
di era
ing les
virtu d
ten ant
eu tenant
li eutenant
cier tas
compati bilidad
ne as
el em
elem ento
lle va
ba jas
esfuer zo
si erra
w u
f res
ampli o
no tor
s ello
ng eles
Á ngeles
guitar ra
din ámica
per files
mar gen
ú o
d úo
ver ano
comparti ó
aper tura
agru pación
can tante
super vivencia
el ia
al tos
mbi to
á mbito
aliz ar
man e
defen sa
enti dad
empez aron
denomin ado
hispan o
consecu encia
español es
gua tem
participar on
comun icaciones
ad mi
argu mento
í fica
p ele
aprove ch
pu do
fabr icación
derro tado
ar mas
le vant
detr ás
ob st
cris tian
difí cil
chaluk yas
am ar
justi cia
visit antes
caí da
har sha
continu ó
ne os
ab es
hacien da
inform es
v ían
contro la
shun ga
permane ció
fun dad
len guas
com posición
gr ada
car on
cordi ll
regis tros
gan ges
ejem plos
deca dencia
limit ada
matemá ticas
numer osas
desarroll ó
hindu ismo
v édica
enta mientos
otor gado
avan ces
masi ado
de masiado
É l
mu cha
dich os
coti di
lleg aron
tradi cionales
aut ón
ac os
habil it
c ían
adquiri r
prop ó
deb ía
pad res
a vent
so mbr
ari amente
emis ión
conoci das
mun di
trans misiones
ubic ado
vtu ber
car tel
bor de
constitu ent
venez uel
legisla tive
modu le
co hen
i red
cha ired
ele va
nomin al
sk in
pi on
inter media
pro fil
h d
tri g
sign atures
tel em
edi tions
ang el
ther apy
lesbi an
fran ch
j ones
econ om
cos tu
p las
aes the
mac ro
fran co
lu m
cine mato
scul p
pain ting
ok o
am as
r er
ar di
k ins
distin ct
dri ves
bra h
et as
y an
famili as
ta ins
men o
bor row
por tra
the o
en em
w m
emer gen
under standing
phi lip
satis fac
ol dest
por e
singa pore
cour age
peoples '
pur pose
ser ve
a der
ic c
war s
w ick
com posed
legi ti
medie val
arg ue
un e
in her
archi te
condi tional
de cor
pattern s
con quer
equi p
vi al
ab str
representa tion
al an
re cur
analy tical
machin es
arith metic
execu tion
bur ied
et ary
deli ber
girl s
investi g
auto mo
repla ce
kore an
dri ven
s list
craig slist
j ury
i ties
ai res
th s
defen se
dy ar
omi dyar
mul tin
l s
cir cular
sen s
min d
ti que
i ved
tre as
def end
y er
mat t
men ta
char t
b ly
algorith mic
mix ed
opin ion
condu ct
allow ed
sp aces
ris k
ju dge
lay ers
f fici
investi gation
insta gram
rhetor ic
network s
co vid
at ori
cre ator
offer s
bo ts
world wide
con dem
migr ation
sta ting
aspe cts
w at
ci ting
de em
ono un
pr onoun
tiz ation
call s
pre fer
pl it
techni que
en ab
reson ance
hi p
expla ined
earth 's
evolu tion
con ds
se conds
astr on
mi ze
en cies
pas sing
ef fective
pul se
exten sions
determin ed
sign al
be comes
chr on
sugges ted
assu med
for mu
mathema tical
requ iring
incre ases
veri fied
fr am
experim ents
a ether
fo ot
imper ial
histor ically
ob server
regard less
up iter
j upiter
rad ia
up per
rela tive
eng land
sw iss
portu gal
ly onna
jor dan
h ell
pr us
if fe
deu ts
ba i
af fect
res ign
res ig
sell er
part ners
pe t
da tions
exten sive
or dered
spr ing
presenta tion
go als
holi day
ti mel
c tives
is ing
mon day
pat ent
ra chel
vent ure
reach ing
ca used
arrang ement
al ar
inter n
l ity
uti lity
i phone
apo log
w d
jo y
restor e
per fect
atta cks
appro val
fund s
i ted
ori ties
au th
commer ce
is is
ál isis
an álisis
consider ar
exist encia
vol unt
co ordin
proces os
ed o
sur vey
adminis tra
pres ti
spo t
exper ts
ale j
t areas
fun cional
cumpli r
bene fi
go t
vo cat
fu turo
est é
encontr ado
g estión
almacen amiento
pre ven
su cur
gratu ita
some thing
den ts
b ado
am ena
acadé micos
network ing
ju gar
is a
alcanz ado
v á
descar gar
simple mente
pregun tas
fá cil
te o
envi ar
neces ario
ace p
be ca
ele gido
cien cias
atta ck
aument ar
inmedia tamente
cre dito
enta mente
oport unidades
necesita mos
inten to
contr ase
ke ada
ami go
mail to
sal udos
veri fique
revis e
informar le
at ario
técn ico
eró tica
eró ticas
angle up
tri angleup
big triangleup
{v }
nij dam
terres trial
no th
territ ories
lu lar
sylla ble
pronunci ations
da kota
thri ller
th eli
c rom
cu bo
homos exuales
ix a
aca ixa
vid acaixa
controversi as
pilo tos
mecán ica
ro cería
car rocería
mil la
fe to
con son
amazón ica
anth ony
explo tación
al fred
cat á
mus ume
alas ka
y endo
municip io
consul tado
clasi ficaciones
catal og
añ ad
añ adió
suminis tr
diseñ ado
suspen sión
b él
cicl ismo
man comunidad
utiliz ados
dere cha
on zas
enfer med
mé dicos
tr adu
utiliz an
victori ana
pen siones
curra ghs
corri entes
plan o
míni mo
es ca
pe el
parro qui
ingles a
ga él
bar ra
z one
femen inos
comien zan
cho v
par cialmente
pla cas
un idas
o mán
consu mid
den sidad
prote gido
ple o
represent ar
posi bilidad
igu almente
adquiri do
c ina
le tra
capa cidades
pon en
vuel ve
san ta
ubic ada
itz á
d arse
cin tur
lu ch
contr ario
sober ano
kil ó
asi lo
extr ater
ma trimonio
frecu encia
competen cia
hablan tes
jay apala
gan aron
universi dades
tem plo
n ó
asu mi
cier tos
militar es
cam pos
su ro
relacion ados
tradicional mente
extran jeros
h í
ci tos
fra g
pr ín
j ado
domin ante
kur u
com and
ocu pa
es en
pon er
co bre
th al
cier ta
cordill era
exten día
gi os
exten si
sur gió
gobern ó
fund ó
i ales
surgi eron
tra ku
rash traku
indi as
int elec
comerci antes
me can
co tiz
de res
reg las
antigu as
situ aciones
dic has
ante cedentes
estre lla
re ti
cerr ó
inter rum
vis uales
con mem
ele gidos
denomin a
si mo
identi fic
tar se
sali ó
excep ción
utili zó
ex tin
blo ques
adul to
pi edra
trasla dó
controversi a
v ist
mor ales
vari edad
f usión
transmi tir
ad quisi
propi os
barber a
convir tiéndose
ofic inas
main land
bu da
mad rid
venezuel an
he im
poly morphic
pi de
pay load
vulner abilities
trans port
neu mann
ran som
ex hibi
dou bles
pri x
adi um
cr y
program mers
mo dif
broad cast
mo vie
bre w
disco ver
deci de
tool bar
edit ing
ri ve
ed rive
on edrive
bund led
v inc
vo cal
hi er
la ur
pe u
s port
tit led
sw im
ceram ic
y oko
en ka
g are
arro w
tis tic
ar tistic
concep tu
gil es
y in
per fe
regar ded
gol den
produ ction
muse o
arth ur
libr ary
h ans
em an
depu ty
y ang
tradi tions
judi cial
democr acy
dist inc
ab uses
be au
it ary
oblig ations
ish ment
ru le
am ble
citiz ens
bin ding
an ca
wis dom
cul min
colle cted
diffic ul
incre ment
u mer
ex port
em en
instru ction
gi ves
inv ented
in ven
automa ted
sequ ence
gover nor
ca che
v ast
rar ely
c ket
scan ning
len e
tal k
pan de
id s
sett led
p it
enter prise
sil ver
dre am
techno logies
c é
je f
ma h
pla ces
the at
demo cra
treas ury
rapid ly
il ed
fe ar
co ali
lar s
ac cused
ac tor
benef it
publ ican
inten do
n intendo
alleg ed
sou ght
je wish
ten d
fun ded
na zi
ka th
provi der
pic ture
chris to
ris e
conflic t
fal se
pre val
high est
messa ges
has h
ab use
tr ump
reported ly
influen ced
redu ced
hard core
ulti mat
lay offs
simpli fied
buil d
public ly
offer ed
lar ry
attemp ted
is ted
share hol
re brand
pro files
est y
f ying
ed ward
ob tain
dis mis
argu ments
ri a
combin ed
s plit
great est
co ok
fix ed
o is
star s
graph s
el ds
fi elds
stra ight
clos e
pla ced
n one
rela tions
ima gin
di um
di am
} {
w ise
sh ado
se em
in finite
lim its
con clus
depen d
occur s
g ali
ent z
lor entz
exclusi vely
elec tric
ra tio
show ed
en as
ap parent
extre m
sign als
view ing
uni verse
dist ances
inter val
domes tic
shi re
ad ing
swe den
spare banken
consu mer
mon a
cham ber
ital y
ir ish
fran ç
iffe isen
ra iffeisen
z agre
deuts che
s pa
bn p
ex ce
ang eles
archi ve
test ing
cele bra
sus tain
pro je
pa ir
leader ship
calend ar
detail ed
docu mentation
tal ent
every one
i' d
s mart
resul ted
ne eded
discus sing
g em
ex pen
pan el
high ly
pass words
support ing
circu m
identi fy
do or
fa cil
pe ace
apolog ize
proce ed
friend s
en han
fore ver
crypto currency
dis rup
uni que
registr ation
your self
respon d
delay ed
war ning
n 't
fr as
en con
rest antes
bier to
reci én
con ex
n án
recuper ación
he ar
j im
bi endo
co leg
participan tes
cel ona
bar celona
benef its
alej andro
program ado
emple ados
ace pt
cercan o
calend ario
campañ as
po d
un irse
alcanz ar
ra ya
at orio
conferen cias
sal a
ab or
sali da
hab i
scrip ting
aero puerto
jap ón
res u
mañ ana
pu estas
mon it
posi bles
op ciones
po cos
result ados
p é
ca te
in qui
med idas
person ales
re visión
promo ción
í qu
vi ajes
compromis o
elimin ar
esper a
és ta
n ores
qui ere
in vers
blo c
in nova
hab ido
revis ar
con tes
esper amos
re for
destin atario
pornográfic os
un cut
comple mentos
ren deri
ha dean
spy glass
ba ch
co y
mc coy
na fta
ra il
theli um
cubo idal
sh í
sylla bles
cry st
obscen o
doctor ados
vuel tas
br is
lingo tes
conven ción
vol can
pu bertad
sty les
gun s
pará metros
concen tración
act c
ho us
n ac
car as
cat woman
dic rous
lu dicrous
car gador
e pa
k ien
ia e
censur a
fer ti
abe jor
min as
desem pleo
r aces
escal ar
am arca
tien das
op ción
tí p
gu ang
le tas
ác ter
car ácter
reg gae
le za
bel leza
diri gida
ro bar
máqu inas
comporta mientos
cach é
institu to
atr ás
mo tiv
pl ás
ra zón
cicl ista
denomin arse
ent an
secund aria
catól icos
ú an
su iza
adu anas
corred ores
ofre cen
ex terior
for t
cr onk
fa una
fl ora
reci ben
alcan za
aqu ellas
kir k
cast le
otor gó
con jun
esco lar
representa ciones
lan g
elimin ación
ha ciendo
y emen
cat ar
bre gi
su bregi
s elección
olí mp
val ores
compu esto
pes ca
kill er
influen ci
deci sión
afir mó
gr aba
combin ación
acciden te
ces is
dió cesis
archi vado
expl ic
pó ster
ab revi
asa hi
finaliz ó
igles ias
pri mi
refer irse
descubri miento
guatem ala
p án
cata cly
sue cia
bas ados
ancia ción
fin anciación
gabri el
ber nam
gu bernam
dé cima
vi era
su elo
porta ciones
kiló metros
permis o
europe as
esta bilidad
trat ado
mar i
esti los
ale za
fis c
cerem on
nu tri
em ente
po cas
obst ante
nores te
b ap
derrot aron
ba j
cos tas
t án
fuerte mente
s fera
mó sfera
at mósfera
i va
tan a
crí tico
to me
go a
end ra
tem plos
te z
gla d
ta ka
ón icas
ará bi
kush án
n á
x u
vi aj
suro este
g lands
z amiento
grie gos
ro l
grab ados
ri que
sata va
de clive
escrit ores
cole c
vi das
all á
art ístico
ases in
prín ci
inclu ir
investi gadores
encontr ó
qui era
k as
diferen ci
origin aron
bi eron
« la
cu yas
correspon de
aliz ado
proven i
gr ados
apo geo
com unidades
agr í
estructur as
moder no
si j
rash put
conquist ó
n au
estable cimiento
poten cias
mil en
histór icas
it arios
depen diendo
tr ama
us ualmente
re vel
adoles c
rus ia
ten dencia
ci fra
suscrip tores
autón o
encon traba
ár abe
máqu ina
ecu ador
ini cia
a parte
f ama
cuad r
incluy ó
propó sito
llamar se
es pir
bau tiz
dé cimo
y un
fi la
man tuvo
ocur rió
lleg ando
one y
enfo que
cartoon s
mer ang
boo merang
lanz aron
dedic ada
c aba
produc ciones
jer ry
to x
i jing
par mio
ris parmio
bru ce
del ta
ra e
b é
oc ta
hack ing
re plic
i p
sla m
embed ded
ch rome
jun k
j um
power pc
compo und
subsequ ent
t x
clo ud
official s
s car
ele ctor
pe ar
cam p
compr ises
inter sex
heteros exual
desig ner
r hy
lingu istic
or as
be t
poe try
identi ties
h ang
ko i
sh am
four th
pe pper
al co
exten ded
visi ted
ing var
dis tr
s inc
ben jam
crea tive
his m
he art
lor d
ide o
borrow ed
ro ot
bour ne
z y
ber lin
ja zz
ther s
co as
ved a
n ick
an ge
isla m
pd f
publ ishing
emergen cy
significant ly
main tain
vere ign
so vereign
vi ve
hand s
southe ast
cor rup
person s
meeting s
committe es
stra te
representa tives
spirit ual
mand ate
it arian
di verse
work ers
deba te
appropri ate
per spec
character istics
nor ms
ac m
ne igh
rela tively
categ ories
complex ity
inst ance
consist ing
oper ation
discipl ines
abstr act
t '
se ts
k on
constru cted
defin es
si an
he ur
execu ted
return ed
ma ps
en de
vas cript
ja vascript
sur ge
esta te
ag ing
co ll
ste ve
ti ms
vic tims
har ry
good s
play er
k el
de x
exist ence
se at
director s
en se
virgin ia
fac tors
u es
re pu
marke ts
sa ys
gil bert
du al
the ater
r on
sing er
ja co
he in
s ports
son y
boy co
los s
mit es
isra el
reveal ed
steph en
fica tions
sa w
ctur al
computation al
ter ing
popular ity
ci de
loa ded
ze al
ind ican
repla cing
pres sure
wi ki
indepen dence
respe ctive
gro unds
acces sible
tion ed
bra z
to ler
e vol
ultimat ely
ffici ent
dar k
christo pher
sh ut
ap i
trans pho
la bour
en force
hand ling
argu ing
cis gender
elec tions
adverti se
ar ticles
purch ased
re turning
poin ted
agre e
respon ded
ad ic
remo ving
along side
business es
har ris
gran ted
s ri
le ts
pic tures
prede cess
resign ed
vi g
us tr
main ly
n il
ga ve
new ton
th eless
op pos
recogn ized
em p
pres ented
pres ence
main tained
b ce
mel t
ca vity
ros a
franç ois
co g
f ou
ca uses
interfer ome
meas uring
preci se
calcu la
par se
ima ges
de ep
pol lo
cra ft
sw itch
see k
er ci
cy cle
posi te
excep tion
stor ed
hu b
invol ves
travel ling
pho ton
v ary
par ticle
uni fied
experim ental
mo tiva
offic er
ac cel
ti sm
al bert
max well
minim um
ulti mate
human s
view ed
br ad
alli ance
ini an
ukra ine
w y
jer sey
k ia
mon t
us b
incorpor ated
cy prus
licen sed
rele vant
b b
activi ties
show ing
exten d
r d
recommen ded
wel come
hos ting
fund ing
engine ers
all en
par k
skill s
fail ed
vo te
wed nes
ti tle
os t
conne cted
pi ent
st ances
circum stances
pro pose
cho ose
pi red
bud get
require ments
care er
pres cription
short ly
de le
dedica ted
p ick
prepar ed
exper t
sup por
in fo
gree ce
quo te
remo ve
técn icas
estad ísticas
integr ada
enten der
inform ó
plu g
cam ino
ele gir
ing reso
ed an
pu edan
bas tante
pres entes
su al
hab l
utiliz ando
enta ción
ri do
efici encia
ven der
introdu cción
li bri
lider azgo
participa ciones
cen tra
acer ca
dej ar
trá fico
err ores
mi ami
jue ves
re p
res pal
du l
ar do
proced i
compr ar
de mos
públ icos
modi fic
barri o
exclusi va
extran jero
hos p
destin o
cambi ado
malicios o
recuper ar
offer ing
inscrip ción
al tar
gr adu
ra zon
desempe ñ
acu te
garanti zar
an si
pregun ta
de ja
vuel o
bien estar
li da
h á
comp te
cance lado
ries go
peli gro
automá tico
com place
descu ento
hor ros
a horros
com para
pér didas
cerr ar
re dito
reno var
gan a
en os
ban cos
tien da
econó micos
ofreci endo
bien ven
reg al
art ística
eró ticos
cin ética
as sen
ma assen
bi ke
vis ma
renderi zado
crat ers
catacly sm
fis cher
physi ology
discover er
bio logist
x html
ts cape
ne tscape
flore k
rene wed
franch ise
settle ments
er ik
prote in
bas ement
acel lular
mon os
vocab ul
vietnam ese
ph ono
ma tical
pla ins
intelli gible
cine max
pal mar
palmar és
gram matical
ans ell
acuñ adas
matr iline
religi osas
min a
le thal
}} }
masi va
automo vil
hous ton
quin n
har ley
en osa
ven enosa
grab ar
ts a
nh tsa
gas olina
co eficiente
re genera
gi ro
combusti ón
mó du
tras era
depor tivo
motor s
tras ero
licen ci
distribu id
ot to
quí mica
propiet ario
tra ye
adquiri ó
trop ical
flu jo
frances a
di dad
mana os
bras ile
ina e
abejor ros
ó p
redu cción
tas as
efec tu
cur va
croa cia
coinci dencias
incu b
a hn
i qu
j ama
cil ind
coun ty
ju ven
ed g
l ich
metropol it
ta bla
z ados
determin adas
ses iones
provo ca
la bs
da ñ
caixa holding
bos ton
hard y
f ór
ca y
cient ífico
qu illa
coment ó
w ine
grab ación
sen os
rt f
sal to
cer ve
pier nas
cu entan
primar ia
al um
san idad
catól ica
john 's
registr ada
depor tes
lí neas
carre teras
des censo
tra to
va por
ferro carril
poli lla
jur í
circ un
dis ol
introdu cido
so port
abri r
espect ador
termin a
crí ticos
ci ento
tr iz
extrater res
so bren
agricul tura
g aler
der by
ra zas
ca za
fun k
pie za
plo itation
il las
comien zos
mos traba
fr ía
scen e
m tv
graba ciones
concep ción
sin tió
car ne
créd itos
ly mp
matemá tica
il er
no ven
grup al
fo tos
ment ales
ped idos
volu cr
in volucr
hi ho
mas hiho
junk yu
ho on
on és
jap onés
pe ti
director a
enem ig
conect ado
esta tu
ar reg
mane jo
diseñ ar
profes ión
pun ta
el os
ís ticos
r ico
h ó
hab ría
dur a
pen insu
int ana
qu intana
g ados
le wis
music ales
a co
bom ba
consider ados
es car
abri ó
nega tiva
fue go
os cur
colon ias
si guen
mac au
re ina
esper anza
ofreci ó
entr aron
oblig ados
discipl ina
cre ada
ca yó
pos a
ver so
cla ves
qued ó
iz am
inten si
im puesto
declar ó
guer r
i ber
capa z
is ion
propa gación
per dió
man as
mon arca
extin ción
us ó
lar ga
raj pu
sin d
adam ba
k adamba
integr ación
lí mites
alterna tiva
logr aron
símbo los
c í
d ico
na tivos
contempor á
grie go
ac titud
sober anos
gobern ado
comun es
invas iones
fam osa
grie ga
gobern ante
ejecu tiva
bu distas
espec ífic
ve cin
decl in
cultur ales
sán scri
bom bay
pobla dos
enta miento
olí tico
res tos
tri onal
ten trional
sep tentrional
túrqu icos
rashtraku ta
la zos
sh ram
llan ura
ap adas
jan apadas
hier ro
as entamientos
financier os
su ficiente
g ura
ir regular
par o
tam poco
ah í
ch ich
ha in
alo j
reco pi
t aron
sol itario
parti ción
espec ífico
previ amente
tum br
acos tumbr
anunci ado
cari be
incorpor ó
constru ir
destru ir
lanz ar
us ados
aut én
mo tivo
regres ó
he chas
retir ado
d ada
adul ta
fran qui
lo gan
logo tipo
cab all
v ales
por centa
agreg ó
emis iones
depor tivos
var ía
i ble
form almente
comenz ando
mundi ales
ap enas
produ ctions
asoci ado
oper ado
ar ena
be ijing
pol ish
cas sa
ri e
ni ko
cryp ts
va ult
it é
è ne
eu g
d ney
mer ger
ou est
pa g
sue z
ô ts
p ôts
dé pôts
tur no
bo li
as amble
defen der
sam ples
de cryp
trig ger
residen t
c lon
cree per
ca using
parliament ary
gi e
he i
val ley
st adium
bar t
ori gina
profil ing
tt lene
bo ttlene
ame ters
to ire
compi le
con cre
re write
render ing
po cket
o ve
gro ove
z er
exten sibility
conferen cing
info path
scan ner
pri etary
pro prietary
she et
log os
er i
inter cep
people 's
pre ten
com pos
audi ence
fac ts
photo graphy
hi to
s s
ab eth
stand ardi
fran z
r onal
habit ual
man uel
i mi
to l
benjam in
gl ory
z sche
et zsche
dis pone
ni etzsche
soli d
an ish
up anish
ved as
nor ma
pin yin
ste al
har mon
d har
cas ion
oc casion
mi me
bri an
ches ter
re fu
roll ing
deri va
d un
om ni
hu go
christian ity
pla to
mal ay
don es
jos é
per pe
human ity
excep t
compla ints
lo t
da ugh
mil itary
h in
san ctions
ad her
famili es
elimin ation
coven ant
achie ve
news paper
freedom s
constitu tional
cri mes
jac ques
promo ting
dig n
cach ing
line ar
redu ction
en umer
cr ack
par adi
un like
function al
use ful
mat es
ali ties
ambi gu
char ts
em il
la mb
table ts
dynas ty
cla y
ac le
eg yp
gr y
inst ances
d 's
the me
leg ally
proper ty
er 's
dam age
commit ted
dist ur
shar es
el lio
redu cing
cap abilities
automa tic
kore a
wh it
jef frey
ebay 's
multin ational
theat re
actu ally
bra in
cons cious
per s
co ined
tes ian
car tesian
publish er
ck ing
v ard
im pul
li es
ib m
as ser
dis ney
is sued
sh ell
ch ing
manag ed
controll ed
nam es
ad l
h emis
head lines
zeal and
feren ces
graph ics
restric tions
protect ing
ser ious
tra f
attribu ted
har m
ph r
cam i
po or
d d
sho t
explo itation
ran king
d ang
bl ed
transpho bic
f ts
iden tical
ga ins
pro hi
descri bing
ban ned
stu dio
impro ving
pr ic
hi de
re plies
follow ers
appear ance
supre me
ll s
da ily
fec tively
ef fectively
pro mis
fil ed
decl ined
re je
cons pir
condem ned
bo ld
grap her
po ol
to ld
owner ship
re vers
en com
deem ed
g g
lin da
congres s
inten tion
ac ted
st el
e ight
conclu ded
johan nes
hid den
vari able
isla mic
advan ced
scientist s
ga u
preci s
resist ance
gu re
continu ous
r adi
rang ing
publica tions
yo un
ques tion
ga in
electron ic
shor ter
extre me
indica te
cons tra
cos mo
a part
model s
je t
posi tions
propa gation
syn chron
tele phone
pre ce
la b
orienta tion
dynam ics
approach es
every day
in tu
assu mption
observ ations
explicit ly
design ing
agre ed
numer ical
exce ed
era ted
z ero
ame ter
inste in
e instein
sen si
eous ly
instant an
propa gate
radia tion
travel led
kilome tres
re tail
tr ading
lloy ds
er land
el k
g el
sant ander
j ans
ire land
mutu el
k os
at las
b z
p bz
s ka
opera tive
ar men
as sign
anim al
qu ality
experien ced
fol lows
on going
c ture
tru cture
instal lation
repla cement
ple asure
cerem ony
achie vements
timel ine
f it
investi gate
ans wer
tru ly
testi mon
ffe e
co ffee
de fici
availa bility
top ic
organiz ing
dis cre
success fully
wi re
y i
counter ed
accept ance
prof it
experien cing
ses sion
invi ted
chang ing
conne ction
gran ts
gi ving
explor e
guar ante
z es
speak ers
bre ach
for get
g ent
short listed
tempor arily
rene w
appro ved
a wa
arri ve
gr ade
up grade
de posit
gh ted
as ap
fe e
pi ano
responsab ilidades
plani ficación
a condi
logr os
il le
descu bierto
pre cios
conex ión
nán dez
j ard
present ado
us te
escr itorio
tecno logías
proporcion ar
n ace
vi ene
segu id
pertene cientes
se gui
ac lar
cre ando
mu tual
ti mos
materi ales
actualiz ado
estu ario
ti dos
benefi cios
esti mados
departa mentos
v ino
com plic
vocat oria
con vocatoria
llevar á
bu g
asun to
en sa
com partir
res e
descrip ción
di fic
resu men
su ced
pa gos
li te
re an
condi ción
trat ar
cos to
distin ción
ari al
re comen
int entos
hosp ital
pró xima
infect ado
agen da
u c
stu dents
dis count
exitos a
pre cio
sá bado
finan zas
espir it
so y
emo cionados
aplic ar
ne z
arran que
mar ia
expecta tivas
gener ación
des carga
cance lación
re o
auto móvil
v ío
en vío
be cas
su ma
esti mada
pas os
impres ion
un ir
asi ento
actual ice
in ver
t á
exper tos
contrase ña
hac keada
gan aste
ro bo
don ación
play boy
obscen idad
prostitu ción
relati vista
am stel
privi legi
me teor
a cid
spec tros
poly mer
j script
ker son
mer kerson
or bach
mar ie
anglo phone
lon gest
moun tains
dan ish
arc tic
rail road
in al
k eley
ber keley
monos yllabic
un intelligible
ti be
py x
cr ater
refin ería
der ick
me tales
pos turas
psico logía
an tro
lán du
g lándu
ú tero
na ger
má nager
geo t
peu geot
fi at
che v
emo cional
re master
dar ty
mat ón
tox inas
in mune
hi edra
ades las
categor ías
asist encias
de grada
fri ger
re friger
te cho
min io
alu minio
entre gas
edifi cios
cambi aron
conmem ora
profun do
cal dera
comba te
mam íferos
in idad
recor rer
cay ali
u cayali
mar añ
lu encia
conf luencia
vi esa
atra viesa
no mad
sim ples
o br
ca pita
dé fici
per dieron
portugu esa
en tra
retir ó
ha il
din amarca
comp one
an ón
univers itario
m pe
exist ía
incub adora
hiz awa
yos hizawa
lan der
clasi fic
pp p
nie ve
bas ton
edg baston
cated ral
aflu entes
p ton
h ul
determin ado
ejecu ta
accion ista
pas aría
acor p
caix acorp
fór mu
comple tar
si lla
terrace »
cion amiento
edi ciones
g ica
individu os
th y
qu el
enfermed ades
nat al
pres taciones
is ión
j ada
bil ing
it arias
mu elle
li ver
ex portación
en carga
regu lación
hill s
pro puesto
ay res
g nu
f ó
bar co
temper aturas
ade cu
mh k
óg ica
ambi ente
super visión
parroqui as
por tes
lla ves
man esa
legisla tivo
sigui endo
irlandes es
cel ta
bar ras
cin ta
mostr ó
re producción
« el
club es
s edu
ini cial
j era
f ér
exten siones
limi ta
on u
galer ía
ni fer
consumid ores
represent an
demo grafía
bás ico
alco hol
mas as
esta tus
son ora
presenta ciones
pla tino
reco le
neces ariamente
hac ía
don g
tai w
taiw án
quin ta
comparti eron
anunci aron
you »
realiz ando
per os
ra peros
dul ce
abrevi ado
one '
gh wan
jun ghwan
dic k
proto colo
enemig os
no vela
tric es
deci siones
natur aleza
la ciones
condu cta
eléctr icos
inter faces
evolu ción
puer tas
car men
cu ba
tri ple
reconoci ó
vin cu
pare cido
cab an
provi ene
ind ígena
bap ti
cen o
aliz a
dur as
hon duras
cintur ón
pro mul
escen arios
anunci ada
partici pó
trabaj ó
declar ación
gubernam ental
ist ía
amn istía
de ton
pele a
permi tiendo
pi dió
alim entos
po bre
vir rey
a pe
« un
presiden te
com ité
ve inte
rean ud
venta ja
aqu ella
ib érica
frances es
solici tó
fir mó
t ác
fact ores
representa ba
qui ta
mogo la
r ac
ob tuvieron
region ales
evolu cion
costu mbres
pin tura
tom ando
da ños
propi edades
sa que
significa tivo
econó micas
derro ta
ocu p
cristian ismo
ab ad
hy der
distr itos
asun tos
le jos
ori as
prote ctor
descri bió
produ cidos
xi i
chem ira
ca chemira
sultan atos
ta miento
exten der
invas ión
blan ca
g w
ü edad
am bas
trim on
ci entos
k ara
ar u
ti das
man ia
some ter
cer o
g aron
y ue
mar in
roman o
religi osos
estable cimientos
vi vían
kab ul
ri da
b ac
favor e
nota bles
continu aron
compe tir
acuñ ar
monu mentos
patrocin io
pér dida
in ta
tre inta
ra gupta
dic as
gre cia
comba tir
bus car
monta ñas
min ación
prínci pe
mur ió
enseñ an
icon os
sac ri
cre ciente
inten sidad
ne gra
gand hara
exist entes
posible mente
conflic to
ma j
bi har
figur as
emer gencia
social mente
cer ámica
raí ces
proveni entes
consider an
pun yab
pas aron
ab arca
conser van
sánscri to
pobla ciones
ocas ión
medi ción
h ary
hi elo
moder nos
rebel ión
incur siones
p and
ocasion ó
man ten
intelec tual
sang am
surgi miento
ár qu
milen io
imper ios
ca ción
mecan ismo
colo car
órgan o
compren de
ac tivo
op v
entre tenimiento
dici endo
do le
mal a
re curr
famili ares
tradi ciones
lengua je
ré cor
realiz aron
fil tros
trans mite
estructur ación
re estructuración
des continu
col ores
re torno
víde os
ata que
mer cados
estu vieron
divi dió
espect adores
al ine
segu ía
g idas
ser ían
lla madas
seg mento
sustan cia
dra gon
toon ami
desta cado
dedic ado
he chos
pesta ñas
mar at
te atro
poder osas
ch icas
consist ía
compu esta
car ic
ori ent
proce dentes
pan regional
vtu bers
mem or
prosecu tors
school s
patr ick
yu an
unicredit 's
ec b
stre tch
unic redito
pati ents
en rich
esta mp
roman ization
bene ath
r and
v ich
br us
ien ne
mexican o
con ces
to ir
comp toir
vic toire
min ster
west minster
po le
id ó
mad uro
con tem
and r
sen ate
ac as
legisla ture
asamble a
re boot
sign ature
ordin ary
free ze
pak ist
flo ppy
mar ina
thou se
ke vin
protest s
ho ward
at p
c ci
sor t
man ual
origina ted
th on
py thon
l ts
ag nos
compati bility
speci fication
re plica
sky drive
bas es
ur age
ento urage
ag ent
elector al
ev angel
but ler
stream s
research er
pre mis
g ates
ch ia
om es
e co
gre er
' gender
ing e
fr inge
administr ation
ex hi
mel od
tur al
fuer tes
po ttery
franco phone
ana to
fil ms
sculp ture
character istic
vers ary
son gs
son s
an ni
da hl
most ly
on wards
nit ure
fur niture
ex ces
jack son
vis h
e pi
t ang
eth ical
rit ual
fili al
archa ic
me ant
w ade
no ble
budd hism
ur an
p is
di v
min ded
gre co
re c
some one
tra its
gu y
portra yed
bin der
star red
super star
can cer
bro thers
coas tal
sh u
shel ton
mer ri
ha wa
rou t
expl an
con fu
in dones
com b
in spe
difficul ties
monit ors
mee ts
later al
gen ital
no tion
strate gies
advis ory
un ity
conce ived
a par
op posed
du ties
sh r
en shr
gen eva
pp iness
ha ppiness
co ded
arti cu
citiz en
do ming
tor ture
government al
dign ity
ga ined
ali enable
do i
an ne
ed y
men chov
special ized
in teg
v able
pres sion
the tic
kur tz
resour ce
enti al
stor age
ti e
expres sions
la ce
we ight
ker ala
introdu ction
vari ant
determin istic
necess arily
produ cing
trans lated
thir teen
real ity
el se
m n
wi fe
my th
le x
ra cial
pse udo
represent ing
t c
equ ity
ellio tt
divi den
tri e
re trie
cas h
n ine
agreement s
coun ted
cons or
car bon
cam pus
pro vision
founder s
man age
country 's
pat ents
competi tion
st ores
ben ch
as ton
liz ed
work space
ack now
den nett
dani el
ap is
min e
los ses
hein rich
antici p
hel en
to ward
participa tion
coali tion
thre aten
cen sor
supre ma
ci ted
ber ger
writ er
acqui re
mani pu
ac cus
re publican
vi i
pe ak
pla ys
fas cist
call ing
colon ization
acti vely
hate ful
traf fic
recei ves
hu a
la ting
qu it
block ed
trans par
viol ent
phr ase
sell ers
de pic
por n
enfor cement
du bl
ti k
sur vi
targe ting
strateg ic
cd h
c cdh
b lu
m ps
tic k
compli ance
al ph
com bat
s cr
prior ity
power ed
interest s
aim ed
ti ers
iz es
s elect
com ment
appe al
com ply
fe wer
activ ist
contr adic
restor ed
gen e
hand le
so le
rev am
execu tives
fi red
per cent
alleg ations
vers y
contro versy
platform 's
res em
car ino
succe eded
min orities
eth nic
amn esty
poli tici
acti vism
recent ly
organis ation
lgb ti
g reg
it ude
re ct
scienti fic
h off
cep tion
cover ing
ali g
w it
arab ic
re au
bu reau
per e
gu lar
shif ted
orb ital
perio ds
esti mate
ta tive
refle cted
a pollo
la ten
circu it
equival ent
char ged
op posite
absor bed
br ing
con den
repres ented
determin ing
ti ght
mechan ism
p si
ph ere
propor tional
turn ed
ren ce
shado w
enti ties
be am
velo cities
car ry
situ ations
recor ded
vio lated
im possible
labor atory
ta ting
level s
depen ding
fram es
import ance
ill ustra
measure ment
emit ted
c les
no tation
sto od
iner tial
ø mer
r ømer
depen de
lo ans
ern st
ali ana
slo ven
roman ia
v est
h ed
ther lands
ne therlands
geor gia
ha us
nor d
g ne
den mark
vol ks
is hi
soci e
han del
di on
zagre b
an z
gi um
bel gium
armen ia
assign ment
gu est
arrang ed
lin ing
frame work
promin ent
care fully
ga ther
ch all
br un
expla in
th om
s li
consu mption
week s
i table
sponsor ed
fin alized
sh ine
dri ving
cli ents
as tructure
infr astructure
ho ur
cos ts
ama z
curr ently
sv p
recogn ize
under stand
tempor ary
impro vement
month ly
ca ke
val id
wednes day
sta y
won der
uni ties
port unities
op portunities
mas sive
see king
activa ted
ra ti
safe guard
fe it
ter y
reci pient
vulner able
au then
facili ta
marri age
settle ment
situ ation
sta ble
eas y
candida te
il lion
sen ding
over due
pos ting
activ ation
sign ing
transfer red
ί α
deli ver
sal ary
nego ti
ap plic
exclusi ve
r are
fail ure
un us
lu ck
dra ft
fla g
any one
jack pot
board ing
book ing
media te
im mediate
a ware
mad am
track ing
un expected
ant onio
cos tos
labor al
opin iones
de fecto
par ar
had ra
an fi
volunt arios
podr ían
li ger
tribun al
z á
canc ías
mer cancías
a vi
trabaj adores
ris a
candid atos
asegur ar
m ando
valu able
colabor a
alim entación
corpor a
libri o
vier nes
capa ci
mé todo
publi ci
rele v
fel iz
c ál
lun es
condu cir
conflic tos
it en
solu ciones
contribu te
hob by
activ ado
inf ra
us ada
ab ra
as ign
t area
as ig
re cuer
uda ción
candida to
am ento
pa ga
compañ ero
tok io
da ciones
m édica
ca ja
relacion ada
ac abo
ví cti
jor ge
feren cia
ingenier os
pe z
car gos
cambi a
su je
trans acción
í amos
loter ía
tele f
ud c
mes a
incre í
ig nor
revis a
le ctura
gan ador
instru cciones
ins cri
de la
resolu ción
wil son
va ción
ayud arte
bus cando
ne te
investi ga
jan e
significa tivamente
vis ita
descu entos
actualiz ar
acce de
ex pir
inform ado
in nov
in versiones
lla me
comprome tida
recla mar
i pad
dis fru
próxim os
reg alo
veri fication
confir me
recaud ar
en fa
ha ys
mas tur
p }
element al
ro zamiento
nc bi
med line
mus sen
ras mussen
ger d
le ase
extensi bilidad
cr ust
meteor ites
ec cen
al chemist
the od
planet ary
chemist s
fa vic
s lt
x slt
nc sa
man heim
fic tional
ai red
ju ana
ti juana
earth qu
miner al
canada 's
rang es
geolog ic
p pi
si ppi
sis sippi
mis sissippi
qu elon
mi quelon
america 's
imper ative
der m
cr ine
endo thelium
epith elia
ess els
extr acellular
g ly
taiwan ese
ish an
ta ishan
vocabul ary
trans cription
conson ant
nac ular
ver nacular
dynas ties
ha kka
hain ese
shang hainese
k kien
ho kkien
lingu ists
gi bility
intelli gibility
tibe tan
amer ic
eli to
k elito
paraguay o
paraguay a
dete ctives
provo car
ll or
bil le
ths child
ro thschild
fre derick
fal si
con for
kar l
adul tez
femin ista
glándu las
inter sexuales
limit ado
ple x
kur t
lock down
mole cular
co e
ab arth
ro let
chev rolet
di visiones
ber mu
ctor ia
traye ctoria
n ba
dark ness
jar os
sombr ero
cro c
con sola
bat girl
he lados
way ne
indi ana
segur caixa
ho land
x box
visu alización
proye ct
ant ía
gar antía
din á
sens ores
car gadores
ch ofer
t ador
val ve
re cargar
trans forma
regenera tivo
degrada ción
diseñ ó
yo ta
to yota
habit áculo
be bé
verti ente
erup ción
en cima
b ó
kurtz man
iz ó
carb ono
amazon ia
bo les
ár boles
profun didad
colo mbi
iqu itos
flu vial
marañ ón
lí qui
at in
exter na
und é
gas es
significa tiva
défici t
bla ir
mad amente
extre madamente
jen nifer
bur ton
provo có
w alter
c c
round about
quarter bridge
tra zado
ir ía
cic letas
a ke
chi gan
mí chigan
acciden tes
catá logo
op cional
wi pe
s wipe
apare cer
conjun ta
funcional idad
empez ando
er ie
r uso
varia ción
rock »
consa gr
subsidi aria
sucur sales
ín dice
mil án
ester linas
ic ket
cr icket
juven il
pun k
propor ción
re corre
soli hul
medi as
inst ala
produ ciendo
producir se
i vos
director io
mayor itaria
determin ada
ejecu ción
ata car
habit ualmente
l las
estre llas
conne ctive
super ado
kit t
perió dico
di verti
al ab
all music
law rence
histori etas
graf o
cu bier
da ve
extien de
ab uso
frank ford
ome ga
converti do
s pi
abier to
bél gica
cin es
ru g
cerve za
vers os
mi dad
ale la
par alela
residen tes
cat or
mortal idad
to logía
qu ia
leg almente
cap aces
v ín
porcenta je
ti stas
clasi ficado
car tas
míni ma
o cio
liver pool
oper adores
adu an
reca udación
tes oro
financier as
espa cios
est ando
ver a
co linas
balla ugh
ú med
h úmed
pe ces
z or
acu mu
preci pi
incen dios
cla us
na tivo
gaél ico
labor ista
castle town
cuer pos
manes es
ang l
irlandes a
cal f
al titud
magn us
vi king
cel tas
situ ados
pla za
pul p
pe c
an na
cient ífica
mi edo
ac triz
contras te
to que
ho las
nic holas
canadi ense
cru z
cu bri
monta ños
ter reno
at mos
ban o
jordan ia
hab iendo
atra er
capit alización
minor ista
af ro
cabe za
exter no
am ish
peli gr
explí cito
ali en
f bi
notor ious
atr acción
sub género
continu a
nombr ado
irland és
n ice
disco gráfico
anual mente
recopi la
asiá ticos
lan za
r ick
te cla
jer emy
jes u
entr adas
acadé mico
institu ciones
der as
il lo
guard ar
den es
ór denes
constante mente
pán ico
á ticos
disco gráfica
s ép
llegar ía
previ as
« i
two '
estar ían
diferen cias
cor ta
wo o
ong woo
je ongwoo
do young
hy uk
e hyuk
ja ehyuk
ji hoon
mascul ina
ag ente
pl ante
mejor ado
inclu idas
desarrol lan
é ticas
present ando
determin ar
legisla ción
proces adores
au tó
program adores
mater ia
super an
comput adores
hu med
raí z
Í n
cor t
monte jo
x xi
b á
chich én
cas tillo
is po
ob ispo
fra y
ent end
timo logía
e timología
explor ador
pon i
di á
l itor
pet én
t ados
desarrolla dos
ha w
ale y
he aley
mús icos
so vi
ent ar
produ jeron
distur bios
johan n
desig nación
ci era
es p
enfrent aron
sold ados
denomin ados
blan cos
ady ac
civi les
ori ales
r ás
mad rás
landes es
fac to
do ce
tro pas
introdu cir
inter nos
señal ó
asumi ó
en claves
aprovech ó
re conocido
o z
dire cto
permit ía
a ur
super ó
mez quita
ces a
bi da
tra jo
extien den
enfrent ó
h ari
go les
rena cimiento
fen ó
afgan os
g im
re tener
arábi ga
musul manas
hyder abad
all es
var a
de va
br once
man tuvieron
matemá tico
contribu ciones
ís mo
á ticas
si va
contribu ye
ju i
pre domin
mar aj
g üedad
anti güedad
ch ino
glad és
ban gladés
aru pa
kam arupa
constru yeron
va ka
y án
ch on
h unos
apo y
art ísticas
permi tieron
gan te
ár abes
lle vado
vi entos
ru tas
on omía
llev aron
marí timo
asoci ados
z ir
vie jo
par to
derrot ados
descen dientes
patrocin ador
arquite ct
mal wa
derro tar
patrocin adores
acer do
s acerdo
modern as
an ía
ejér citos
perspec tiva
gobern ada
pu tra
convertir ía
dom és
di vin
cual quiera
ata ques
an ta
c lan
mon ar
budis ta
flore cieron
ub icación
histór ica
ológ ica
escal a
ay ana
alcanz aría
tard ío
vecin os
organiz ó
dios es
ocupa ciones
probable mente
urban ización
vé dicos
contribu yó
evi dente
exist ían
fron tera
li za
yar at
gu yarat
lap so
ne pal
di eran
v inci
ori entales
vas tas
mys ore
xi v
matemá ticos
palla va
med iter
i eron
shram án
filosof ías
enti dades
cola ps
condu jo
previ o
accion istas
super ar
fi gura
video juegos
su ce
re almente
adolesc entes
fr ase
trat an
per u
conta ba
popular es
visit as
realiz ación
ecu atori
interrum pi
gener ó
audio visuales
sufri ó
emi tió
qu into
ur u
pac ífico
form ando
aline ación
clás icos
é simo
vig ésimo
glo mer
lanz aría
ue ve
mostr ado
promo cionales
ri endo
toon ix
titu lada
se cciones
emi tido
estren ado
pu ff
​​ ​​​
tri un
sex to
perman ente
episo dios
tendr ía
ti cia
i vamente
fantas ma
caric aturas
ir on
fili an
zoom 's
andre a
ka za
o lo
u z
stretch ing
em ir
colu mb
pa trimonio
ter ies
c tu
cas ual
– present
nico las
bs d
v b
mil an
sum mer
pon t
du pont
re located
bank 's
pag nie
com pagnie
es compte
d' escompte
lyonna ise
mobi li
victor y
gua idó
presiden cy
turno ut
amer al
ws ing
bro wsing
cur ios
pre v
p ng
modif y
remo vable
b bs
hos ts
v la
infect ing
wil d
ex ists
ine t
at t
to pe
vent ures
de terior
fer man
hei ferman
cham pion
mas ters
bu gs
ton y
bottlene ck
opti mize
xi li
au xili
accep table
o em
pronoun ced
vari ants
participan ts
su ites
dro pped
introdu ces
mbi an
stand alone
mo use
ci lia
ri g
terf s
bi e
mi e
explan ation
run s
premis es
lea ther
lesbi ans
trans sexual
ten si
de gree
suggest s
m ack
ir ri
combin es
vari es
or al
asse m
nar r
com position
aesthe tics
acade mia
universi ties
goth ic
mar cel
impro vis
a ve
n en
c bs
j ou
hito mi
e ve
regular ly
l ers
sham isen
洋 子
enti ty
mar gare
r ö
shif t
ac r
ac res
provin ce
standardi zed
bur g
ary d
ach im
kamprad 's
roman a
ronal d
w art
n arrow
psycho logy
sa ved
ro d
upanish ads
ap as
expla ins
po em
– giles
wade –giles
u pe
con ci
r ab
b t
defini tive
hu mil
k night
identi fies
mutu ally
temper ance
be ar
c tual
le ctual
intel lectual
virt us
ad ise
par adise
ri der
tr ick
rock y
child hood
tr ess
sci ences
ro po
t man
th o
boo gerd
em u
ita ge
her itage
modi fied
confu cian
pro pon
progres sive
cau tion
ma tic
gener ations
bel gian
pros per
great ly
legiti mate
socio logical
philosop hi
ed dy
indones ia
ju dic
territ orial
consider ing
comple ment
cour ts
addres ses
appear ances
ses sions
bili ties
si bilities
is ms
eng then
str engthen
instru ments
sustain able
develop ing
s audi
agen cy
colon ies
enshr ined
liber ation
bab ly
pro bably
stu art
contribu ted
li an
cas ti
mac y
writ ings
loc ke
scrip tures
relati vism
en cour
lin ed
neigh bor
la v
check ed
h ence
un known
sim pl
sub problems
environ ments
tas ks
pir ical
em pirical
evol ved
lamb da
car ds
pre cur
deca des
realiz ed
love lace
crypto graphic
su mer
in se
ch au
vi lle
per sian
ety mo
out put
condi tion
cap tain
retrie ved
franci s
pir ate
bur ial
le gen
juris dic
con centr
us s
ma ker
respon sibility
ti ff
deliber ately
chand ise
mer chandise
counter feit
bo ys
invol vement
pi g
stein er
pande mic
war ren
f ish
regula tory
inter im
cap ability
k art
tain ing
ti um
bu ck
gu m
jud g
infr ing
gu il
ya hoo
expan ded
reven ues
me g
manufac tur
accoun ting
hi red
relation ships
mah mud
da q
nas daq
char ges
hor iz
per forms
amo un
so ul
emphas ize
led ged
acknow ledged
conscious ness
ka te
des tro
k um
institu tion
k ers
sen ators
democra tic
commission er
favor able
end s
in junction
in ti
boyco tt
r ent
affir med
p ush
wa ke
repeated ly
accus ing
pass ed
pl ed
alter ed
p ater
nota bly
auth ors
bla tt
ona than
pal est
dro p
exclu ding
poten ti
display ing
entire ly
vo ice
cor tes
th ro
try ing
lloy d
miz ed
government 's
monitor ing
ass ment
har assment
modi fication
stu died
academic s
str on
propag anda
mis leading
bi as
life time
deci sions
check mark
en ding
corpor ations
automa tically
ras es
ph rases
war ded
s ms
ap pointed
user 's
controversi es
sur round
moder ation
quar ters
head quarters
termin ated
off line
j onathan
conspir acy
am id
ri o
refer ring
we ak
mar c
kr ish
termin ology
anti semi
visi bility
label ing
rebrand ing
fac ed
bran ded
ac carino
y accarino
cons ent
symbol s
g all
ter med
compar able
color ado
calcu lations
fl or
assu ming
distingu ish
gali leo
mi le
s n
spe cu
emp ty
ro ger
substanti al
enab ling
p to
deba ted
certain ty
fast est
mar sh
demon str
substanti ally
dimen sions
at us
ap par
ke e
calcu lated
e el
dire cted
ca ult
fi gure
light ly
s lightly
fix ing
interferome try
determin ation
rad ar
laten cy
trans it
pie ce
limit ing
integr ity
dis per
correspon ding
nega tive
stop ped
repres ents
absolu te
fr action
reemplaz ado
genera ted
depen ds
other wise
arti fact
r ates
xi es
gala xies
man ner
separa ted
transmit ted
ex cess
ne ither
vio lation
mul tan
posi tive
hu gh
qui to
ch ro
vis tic
relati vistic
appro xima
ro tation
implica tions
intu i
inv ari
geo me
establ ish
cy cles
per me
ra us
isa ac
under stood
accel erated
gra vi
magne tism
consequ ences
explor ed
extrem ely
instantan eously
w ich
an nia
brit annia
socie ties
ukra inian
ser bia
mar ino
co w
sk i
j on
n l
k re
th u
hung ary
in dos
fin land
af t
va kia
ku wait
st en
č ka
for tis
hs bc
figur es
success ful
targe ts
incorpor ate
publica tion
resig nation
dic es
submit ted
chall eng
newsletter s
e cho
vol un
continu ing
consider ation
play ers
attach ments
contribu tions
hi on
fas hion
na ted
desig nated
effor t
ship ped
hi re
need s
satur day
ha p
pho tos
fin ds
dr in
he y
recommen dation
restaur ant
ques ted
re quested
project s
cat ch
as k
will ing
bri ef
linked in
can 't
concer n
fe b
pay ing
ero us
v essels
fin e
trans action
ph ia
open ings
sion als
profes sionals
de e
lea ders
distingu ished
α ι
bit coin
return s
ear n
approach ing
ob tained
identi al
re t
random ly
cancel lation
activa te
ro mance
setting s
sum mit
sto len
trans actions
u thor
una uthor
sub mission
compu tación
bibliote cas
dese a
sal ón
com pre
correspon dientes
i me
quir y
in quiry
bi dos
reci bido
profes ores
su ger
apl ica
entr en
qu en
v are
pesta ña
x ia
bu eno
á menes
ex ámenes
experien ces
organiz ado
program ada
segui miento
t ari
atten d
cole cción
em in
proveed ores
p int
bre ve
re cursos
obje tivos
ad misión
equi librio
gi as
tal e
pro puesta
co les
ér coles
mi ércoles
nor man
co bro
ult ad
deber ía
tar ia
apro bación
gus to
respon der
incluy eron
tarje tas
ple años
cum pleaños
avan zado
te ór
escr itos
av ance
pre paración
break er
ul ta
ab el
con tar
du des
ad junto
tal entos
des pe
dibu jo
procedi miento
ore o
po demos
v esti
reci be
recomen daciones
ad ver
reco ger
depor tiva
prior idad
qui ero
no via
gan ancias
regal os
razon es
comenz ar
fi esta
g ith
bloque ada
suspen dida
lis to
promo cion
compr as
íqu ese
comun íquese
anunci ar
emple os
elec tri
recom end
in vo
lleg ado
po ur
inter acción
organiz ando
ases or
a é
mit ente
pr ésta
ex teriores
v u
vi vien
Ú nete
acadé mica
bi an
si ento
qui én
gr ant
si ga
ta mos
cono cen
gó mez
at entamente
invi erte
due ño
exper to
ten ta
esper ando
su erte
g mail
docu mentación
proveed or
sub cultura
sex ploitation
ef cake
be efcake
pen thouse
ac trices
enfa tiz
ofi lia
sex u
mastur bación
defini ó
sexual mente
{ p}
} k
script style
– frankford
buck ler
na go
col nago
brus elas
ra as
k ker
de kker
privilegi os
adop ción
ne pt
eccen tri
bri um
im brium
coll ision
mel ts
imp actors
her mann
juli us
isra eli
cop ist
spectros copist
ther ine
nutri tion
cryst allo
medic inal
hy dro
ft p
m sie
cros so
ry n
market –frankford
ther lyn
sou therlyn
bur en
hat tan
man hattan
premier ed
den is
cur ie
bapti ste
blo cs
ico m
car icom
sud bury
ani um
ur anium
zo ic
cli mates
temper atures
high lands
ach ian
pal achian
ap palachian
m ya
physi o
la kes
bermu da
indi es
sett lers
europe ans
man en
hi manen
graph ically
emy r
n emyr
han nemyr
home brew
levy 's
all man
st allman
im mun
im mune
mos omes
des mosomes
prote ins
bas al
en tries
han yu
morphem e
mi grants
im migrants
vo wel
pro tour
i legal
omni visión
exclusi vidad
desnu dos
ap ia
ve ter
qui al
do ctores
class ics
bille tes
fu ese
elimin ó
mar ti
pr enta
a fec
qu iler
al quiler
chi ri
bet ty
iber o
ci cio
ejer cicio
matriline ales
var ón
ure z
mad urez
reproduc tivo
hor mon
va gina
ka z
fla ir
ys s
enfrent ándose
quel ine
tien de
es tras
expres arse
li das
absor b
document ales
genes is
distin tivo
anal ógica
ab yss
rena ult
ad mite
p ese
campe ones
transmit ía
r ada
cilind rada
automovil ismo
psic ológico
grab ó
acab ó
gan za
ven ganza
pá jaros
ta pájaros
pan tapájaros
es pantapájaros
ban e
cin em
efectu ar
gh ul
night wing
exclusi vo
hero es
consigui eron
satisfac ción
o il
holand a
pan eles
si vo
cam ión
fr ío
diná mico
palla dium
fron tal
high way
án gu
produc ían
clima tización
so porta
condu ctor
ol in
super char
fís icamente
octo valve
eléctr icas
con sigue
vol ta
módu los
li tio
delan teros
delan tero
pan tes
ocu pantes
ved ad
gra vedad
satur n
wa gen
volks wagen
fabr ican
re pos
fil tro
aceler ar
to mada
sir vió
ling s
ink lings
licenci ado
har vey
te in
fel ds
dibu j
absor be
xi do
dió xido
canti dades
m esti
tr inidad
i ban
ves pu
lluvi as
cal entamiento
constitu ye
Ó bidos
later ales
z ú
õ es
m ões
soli mões
ni lo
agricul tural
ol ini
om al
sub tribu
e uso
sub familia
bio logía
par ás
ida e
sal vo
instal ada
b icos
tró leo
pe tróleo
quin aria
ma quinaria
consecu tivos
inf lación
that cher
margare t
mo z
hacer se
d son
aud rey
ar re
mem orial
la ure
cicl istas
he ight
stan ley
es cand
requi eren
video juego
poten ciales
mi ti
crí menes
seleccion ar
desliz amiento
f ases
titu lado
fundam entales
signific ado
ton o
g atas
critic ado
ti cias
re tuvo
e tra
alab ama
guang zhou
dispu ta
tradu cción
ten is
foot ball
be at
c fort
án cfort
fr áncfort
mater ias
mis ta
en en
provi enen
caí do
he ath
war wick
con fer
solihul l
du ro
peli gros
fabric ante
dej ado
in n
solar is
di ario
administr ador
infe cción
añ ade
ejecu tar
realiz an
produ cen
infect ados
ejecu tables
má ticos
consider adas
tent ar
aprob ó
in mobili
funcion a
secu encia
fórmu las
pre via
añad ir
hacer lo
mar tillo
alar ma
inv entos
expl ica
funcion ar
dani els
kirk land
an ey
gre aney
ma go
motiv ó
espect áculo
al cal
ig gy
actu ar
inici ar
g ía
acab ar
alien ígena
continu ar
asesina to
comand os
particular es
j p
renombr ada
peti ción
pat entes
tor onto
pat ente
luxem burgo
ar it
defini ciones
cion ario
pan tal
jue ga
rug by
pes cado
de ada
acompañ ado
escu do
do bla
órgan os
t ario
de cen
natal idad
ayud ado
separ ados
sustitu ido
esta tales
don tología
o dontología
hs s
d hss
pe ct
ga han
coleg io
esca par
cap illa
ofre cía
nú cle
re forma
ican a
frecu ente
especial izada
sur gido
biling ü
estre cha
dubl ín
velo cidades
sion istas
bru ta
retir ada
licen cias
c ú
que tes
ch amente
estre chamente
pu diera
supervis ar
organ ismo
econom ías
mar inas
bro o
cer ro
ugh old
ma ughold
r n
r ara
vuel to
disminu ción
cor to
adecu ada
ci elo
sal v
registr ar
ab og
jurí dica
tribun ales
o posición
ren un
ver des
vo to
m anda
bus ca
ci bles
fen cibles
incorpor ación
ac ta
dr u
ándo lo
man ann
consi go
bancar io
vo tar
demo crá
ud al
a pa
defini tivamente
inteli gente
tros pec
re trospec
opin ión
rese ña
posi tivas
ni el
villan o
book er
reci cla
no ctur
escen ario
descubri ó
re tratar
aus encia
cri men
evi dencia
f at
tw a
extraterres tres
mito logía
pl en
acu íferos
pla ca
hid ro
anato lia
m ese
ocur re
aud í
s audí
aero puertos
desi er
loc alización
geo gráfica
r abes
Á rabes
emir atos
saudi ta
oper ando
olímp icos
estr at
ra za
oh io
absor bió
trat ó
co o
emis ora
senci lla
fas is
én fasis
br on
rhy me
men aje
inspir ación
ler 's
john s
an e
pri vado
tor io
significa tivas
vocal ista
rum ores
lanz an
excel entes
co ol
r ista
guitar rista
ch ase
ch ada
regular mente
acadé micas
ap ur
per der
co cina
pas cual
satisfac er
mo les
pue bla
vari antes
ve ge
Á l
afect an
hab ili
team érica
nor teamérica
minu to
o lymp
b ona
ini ciales
fan áticos
mo tivos
m »
mm m»
« mmm»
conceptu ales
co escrita
espe cific
arti sta
revel ó
debut ar
caden as
es posa
bar ry
confi anza
ri dad
integ ridad
esper ado
especial izados
univers itaria
electr ónica
proces amiento
cal cular
aplic ada
jun tos
or ange
d z
n idos
exis tir
lla mó
explor ar
pol is
pre his
mé rida
izam al
t ún
adqui ere
cuen cias
diá metro
ca vi
á tico
litor al
gobier nos
anunci ando
local idad
á frica
sud áfrica
rit mo
i vo
grad ualmente
presiden cia
magn itud
aní es
viol entos
mul titud
cu yos
perió dicos
ex portaciones
r ían
dis ta
caus ó
constitu yó
í do
educa tivo
design ado
de bió
acuer dos
rom pi
s ico
pér sico
explor ación
tri to
dis trito
ci éndose
in estabilidad
sing h
si jes
separa ción
trans formación
an uales
muer tos
contro verti
shiva ji
ze b
ang zeb
aur angzeb
re formas
sh er
const antes
reemplaz ar
inaugur ó
sant os
fundad ores
ceremon ias
us aron
irri gación
hari hara
pro cla
v emente
bre vemente
mer lán
ta merlán
eur asia
pub med
el u
mam elu
musul mana
colon ia
islá mico
gim en
ré gimen
ata có
sul tán
gaz ná
conoci ó
sha his
l ámica
is lámica
hu bi
consider arse
fi jo
indic ar
sha hi
ag res
comple jo
rajpu tana
hindu ista
bil it
de bilit
fic os
común mente
raj endra
bio grafía
vol vieron
alian za
au ten
fic ó
proporcion an
na taka
kar nataka
gi eron
war a
ti as
suces ores
t ung
al chon
cient ífic
pa z
ab ar
ti ma
vas co
ó bal
crist óbal
in da
mem ente
tri but
pens amiento
co ta
jer as
ab hadra
emper adores
tempr ano
satava hana
ec ían
es cla
es tric
di miento
qu iz
tr ono
chand ragupta
hí bri
fron teras
per sia
nue ve
il u
mencion a
ter apia
teo logía
religi ones
fundad or
conclus ión
v at
asoci ada
escri bieron
ó sof
fil ósof
occiden te
or todo
ay as
esta tal
ch ala
pan chala
notable mente
re públicas
de idades
refle ja
ígen as
ind ígenas
caracteriz ó
agrí cola
b ales
o las
distin ta
c ere
su gi
arque ológicos
des aparición
urban os
sor pren
co las
des h
pra desh
ne olítico
ser es
princi pes
ham br
tempr anas
invas ores
lan ka
pra ti
mediter rá
india »
religi oso
desta ca
origin ó
ac ero
havi ra
ma havira
gau tama
maha janapadas
usi eron
colaps ó
flore ció
domin ios
suces ión
avan zada
pertene ce
sal en
fol le
invers or
lí deres
diam ante
reconoci mientos
dur ación
su fre
añ a
cion arios
so br
hom ónimo
suce de
tí pico
auto bús
interpre tado
experien cias
vist os
productor a
pe or
exten sa
cu es
ecuatori ana
esti liz
american as
ult á
sim ultá
inspir ada
cartoon ito
franqui cia
retir ar
día z
uni fic
liter almente
seguid ores
ab lo
p ablo
apare cían
uru guay
afect ó
ambi ental
diri gidos
ap os
parti da
trata ba
espirit ual
bautiz ado
ped ro
desta cadas
é mon
k émon
po kémon
kid s
ri vales
super iores
desta cados
con tó
competi ción
acces ible
b ados
tun es
lo oney
ni ñas
ed d
v aca
bra vo
matr iz
especial izadas
no ved
atlan ta
we play
nomin ations
ac re
en ix
ci sco
tri an
aus trian
cent ers
geo graphy
ro ma
kaza kh
tes a
in tesa
ins bank
vere insbank
physi cian
barri ers
niko lay
seg ment
dr al
ca the
occasion ally
v au
philip pe
geor ges
eug ène
è re
b ue
subsidi aries
asse ts
l' ouest
th é
é e
pronunci ation
trans lation
su v
ard s
mark ed
parti ally
ch á
andr és
st ro
install ing
re pair
gla cial
prev ented
ther mal
ke ys
by l
copi es
infect s
ami ga
pit ts
clon er
produ z
reprodu cing
ino is
ill inois
un k
bor ough
ly a
co oper
re form
sha h
a ther
cru tin
s crutin
i ga
cu p
f ans
tour s
champion ship
w ta
syn tax
com plica
competi tor
anal og
par ameters
bl er
compu tations
compi lation
dif usión
dro pping
lts c
predecess ors
dig it
adap tive
toolbar s
di agnos
gd pr
pe er
ado be
cli p
du b
front page
pric ing
down loaded
libre office
promis e
men tations
imple mentations
fre ely
pack s
b bon
ri bbon
men u
men us
doc x
ly nc
conf used
od f
si w
lis a
v ba
divers ity
vinc ent
s chem
lar d
chris ti
con vinc
com mo
mis ter
mar gin
wm f
m wmf
re infor
trat or
ar en
bis exual
norm ally
iz abeth
el izabeth
as si
le ge
thre ats
gap s
dif ferences
further more
writ es
fle ur
la fleur
bas si
re ject
identi fication
te ur
k un
compos er
sing ular
di fied
i ci
str and
anima tion
archite ctural
gas tr
scholar ship
nin th
ad ri
cal li
mean ings
pa pa
co vered
at ari
me o
uk i
ka wa
us hi
n ab
dr amas
h its
y ō
fla t
car s
te a
daugh ter
eng dahl
tes ta
ele ven
he ct
el m
far m
munici pal
å land
sm åland
var o
sa ge
oppos ites
log ists
strength s
feel ing
des er
e at
li me
propor tion
ra ta
be coming
ka i
truth ful
steal ing
norma tive
da o
di u
con t
w ab
dou bt
ham mad
mu hammad
humil ity
bah á
cor on
lu var
val luvar
div ine
ta mil
de pre
confi dence
extre mes
pru dence
dis position
cul tiv
ex cell
tra it
fil mo
mel bourne
organiz ar
sun shine
sp ent
va go
tri vago
ta y
ro ber
im prenta
na th
hawa ii
geor g
abo li
sus an
h ir
x v
che an
top ia
cor n
economic s
spe ctive
per spective
mor ality
ad vo
we il
sharehol ders
ef f
li ves
sa ke
li ms
mus lims
ra ja
inde ed
no thing
sub s
pur sue
asser t
en jo
being s
reprodu ctive
fi able
se cular
pre va
r ational
or f
i us
wh y
philosophi es
de grad
b ind
ase an
ad judic
hemis phere
quarter ed
head quartered
le ma
con sen
ob li
judg ments
promo tes
o mous
auton omous
distinc tion
respon sibilities
beau ty
mu ti
mi es
author itarian
bro ader
doc tr
m its
achie ving
ra tified
icc pr
imp acts
health y
den ied
strong ly
division s
n ami
mous ly
religi ons
part ly
dispu tes
colle ctive
conven tions
gand hi
secu red
influ ential
en coded
civi liz
thin king
v it
ob liga
bound aries
emerg ed
foun dations
encour aged
bel ong
in alienable
inher ent
univers ally
categor ized
clos er
tre es
o ization
mem oization
super ficial
mp to
as y
eas ily
sys tema
appro xi
over head
execu te
ser ial
era tive
it erative
classi fication
un conditional
ima ging
vi ly
hea vily
inter actions
ex poses
tes ted
kind s
replic ating
recur sive
precur sor
or acle
egyp tian
de sir
re ly
sol ving
heur istic
sup posed
tri ed
keep ing
docu mented
kid d
steven son
all an
ir ving
legen d
origin ating
control s
de fe
st ones
a warded
ba ge
den ying
critici sms
club s
ari ties
ar med
mar ine
gli de
chair man
en ig
lip kart
f lipkart
elim ina
enter ing
market place
bid ding
pros tores
f c
partner ed
secur ities
where by
min ing
room s
st al
integr ate
horiz on
the or
arri val
ke p
f law
cog ni
sen sor
ry an
conne cting
s tem
per ce
har vard
ma kers
vo ic
ell en
x on
for um
il legal
feder ation
machin ery
r uled
own s
li x
na z
ado lf
he ard
dismis sed
am end
dol lars
mur der
f als
qu iring
ac quiring
cro wd
s pike
categor ization
im person
pres idential
autén tica
jo e
suggest ing
re actions
green blatt
geno cide
ous and
th ousand
affir ming
ta g
company ing
ac companying
for ces
targe ted
enfor ced
potenti ally
wiki pedia
bob by
desig nation
do x
braz il
transpar ency
a aron
baby lon
dif fusion
fi ght
land ing
him self
gh an
to dd
f ell
ris ing
lgbt q
dang erous
tik tok
pan or
og ue
dial ogue
u ters
re uters
stron ger
focus ing
blu es
enga ged
sl urs
state ments
di versi
advertise ments
manag ing
pay ments
priori tiz
rea der
en ables
fil ter
fail ing
valu ation
succe ed
elon jet
success or
hundred s
la id
secret ary
tom my
twe e
concer ned
a w
po ll
tr us
wat ch
revers ed
sharehol der
ins pired
trans form
un fair
vir al
out lets
suspen sion
gro k
do main
se ded
super seded
bur gh
n ist
t ely
ke pt
i ghts
we ights
indica ted
michel son
prefer red
proper ties
gen s
extra ordin
never theless
ren é
present s
belie ved
pos sibility
e ye
un certainty
syn thes
obser ving
co her
display ed
precis ely
ver sus
kno wing
too th
s tri
wh eel
fou cault
ize au
f izeau
re defined
dia gram
de du
di ameter
ced ing
pro medi
sat el
ul tra
sta tion
switch ing
ex erci
mp tions
assu mptions
require ment
ce ased
subst ances
den ser
tre ated
po lar
s ity
scal e
z ation
qu anti
constra ints
c ales
varia tion
cita tions
suc ces
th ick
adop ting
dete ctor
on ic
caus ality
str ing
op tical
ro tating
con texts
appear ing
formu lation
sum mar
in fin
clo cks
consequ ence
na val
dimen sional
speci fied
nam ely
un clear
bound ary
gravi tation
per tur
electro magnetism
postu late
postu lated
cl er
study ing
commun ic
sensi tive
pur poses
ex changes
biblio graphy
conver ted
se as
over seas
d ale
itz erland
sw itzerland
k oso
mos cow
al fa
po land
spare bank
l p
automa ta
we gian
nor wegian
ga ge
mor t
hung arian
i ers
bank iers
el and
k ol
lyonna is
ell sch
ges ellsch
slo vakia
fun ct
de funct
ko mer
r c
handel s
dion ica
te dionica
š tedionica
mb ena
sta mbena
ber bank
k ent
asse t
co operative
er bai
az erbai
v t
de vo
head s
blo cks
aud it
atten ding
te er
thom pson
see ing
tru ctur
res tructur
an cy
ori te
sugges tions
discus sions
recommen dations
swe et
sched ul
provi ding
in ser
introdu ce
y al
thri ll
pie ces
request s
deci ded
innov ation
ge ts
sen ce
ab sence
r svp
discus sed
week end
contribu ting
back up
high li
a tives
initi atives
partner ships
by e
access ed
revolution ary
produc tivity
bo ost
fo lio
port folio
arrangement s
s pen
chos en
en countered
pl s
gu id
coun ts
a id
k ick
fir ms
lux ury
τ η
ar rest
f ly
sen ger
gener os
pay er
tax payer
ir s
disrup tion
play ing
winning s
cyber security
cover age
cre di
res ume
pen al
unauthor ized
fortun ately
en roll
afect ada
respe to
ci fras
dig itales
tr acción
comenz ado
se m
efec tivo
compr ó
<emoji> <emoji>
integr al
v ital
hay an
quin ce
disponi bilidad
ent ro
encu entro
liger amente
trim es
el ena
gon zá
ide al
for me
program ar
men sual
habl ando
mar co
aclar ar
recor dar
recor rido
titu lar
ger ente
separ ado
neces aria
tech corp
inter rup
fon os
telé fonos
te gias
estra tegias
requ is
for tale
l ín
conten to
re unirse
consul ta
uel to
tempr ana
complic ado
adquiri das
electr ónicos
mar tes
ti ficación
cor reg
cál culo
ho jas
exam en
mostr aban
member ship
habi tación
estar án
infra estructura
termin ado
dific ulta
ajus te
ten dencias
ten go
comple tado
actu ación
ex posición
comunic arse
envi ada
emple ado
fis cal
li dos
histori al
re z
pé rez
personal idad
sucur sal
ro pa
confi den
produc tividad
increí ble
com ando
stu dent
amena za
correo electron
escri be
corre cta
sal udo
trans ferencia
interes ados
herrami enta
l ó
des can
re vo
gue z
mi go
con migo
ta te
gith ub
ses ión
agrade cer
certi ficado
aprove char
act úa
gan adores
men ú
g ase
coment arios
corre cción
tí nez
mar tínez
entr ar
señ ora
celebr ar
vo us
u ma
ã o
técn icos
aé reo
otor ga
pasa porte
gra ve
tes or
agrade z
án sito
tr ánsito
invers ores
cita ciones
nor a
asegur ador
reno vado
seleccion ados
informar te
tur os
fu turos
actualiz a
expir ado
semin ario
excel ente
a er
in version
bienven ido
ob tenga
en ví
poten cialmente
diri ge
hab le
ayudar lo
ben é
post porno
pros exo
heteros exuales
determin a
il ustra
trat arse
in morales
an ónimo
explí citos
plás ticas
in moral
est ética
val i
n vs
p ci
llor ente
nal ley
thor nalley
equival encia
{ mec
x {mec
mbo x{mec
{ cases
}k x
x }
{ t
the ta
nl m
sep ta
imo v
ek imov
don ck
y donck
hoo ydonck
conf ex
super confex
wan tum
k wantum
fre ire
bel kin
í cono
im al
plane tes
lows ki
id lowski
sch idlowski
reson ances
eccentri cities
mol ten
cre tion
ac cretion
cur y
mer cury
per kin
har old
theod ore
l us
ti g
dol ph
bat teries
phar ma
dou ard
iso late
crystallo grapher
f laws
moz illa
privi leg
l cie
win inet
configur ation
cook ies
favic on
v ml
s mil
x sl
tran et
in tranet
pioneer ing
coun ters
ri pped
o van
don ovan
rö hm
cur tis
lo os
loos ely
gi u
cin ct
pre cinct
con vic
prime time
an ita
bris coe
attorney 's
revi val
wit ness
an omal
on tario
co tton
hu mid
precipi tation
volcan ic
acces sibility
plate au
th mus
is thmus
coast line
ar my
west ward
az tec
agricul ture
cro ps
isi ana
lou isiana
subregi ons
ü ller
nor se
bat t
po ld
leo pold
epith el
kum c
to logy
his tology
clus ter
ther mo
plas ma
ker atin
layer ed
cavi ties
sur faces
her bert
pr c
or tho
trans liter
à n
ī ng
dis yllabic
nucle us
valle ys
magaz ines
loan words
im ported
guang dong
speech '
gh u
arti facts
inf le
dun gan
liter acy
e on
ise ta
cam iseta
triun fo
go le
fil mes
sen sa
ro mán
me trajes
largo metrajes
cinemato gráficos
us tración
theo log
theolog iae
m d
le gum
pru dencia
colo quial
autor izadas
incorpor a
confi g
extra er
ard on
jur ado
continu aba
crom well
realiz adas
vy an
vy vyan
exe ter
grab adores
precios os
conmemora tivas
j ano
ds m
p ia
amor oso
me yer
en tiende
chiri quí
bo quete
bar ú
cent en
ci pación
eman cipación
presti gio
mascul inos
pon der
fé minas
patri ar
estr ó
teor ías
usu ales
ferti lización
trans género
arc ales
patri arcales
corpor al
vel lo
o varios
us ia
pa usia
meno pausia
stor me
im mortal
richard s
kaz arian
des calificación
sur render
mi cide
ho micide
a zo
jac queline
o lu
a }
c }
bou guer
ich i
tx n
iz ai
ke izai
compi tiendo
cu po
histór icamente
termin aría
ci elos
s cat
eu x
distribu ir
esco cesa
lesbi anas
ga ys
di mir
vla dimir
lo tte
char lotte
tras pasado
com pen
clar amente
ad illa
pes adilla
nega tivas
gol pe
ma estra
exp los
sub marino
óp tero
ic óptero
hel icóptero
captur ada
super fuerza
patr ón
mat ones
pingü inos
ra 's
h ush
s ónico
plan ear
ju g
plays tation
travel ler's
preci aba
de preciaba
introdu ciendo
hon da
glob ales
comenz aba
aliz adas
bo om
ma tri
ine la
cent inela
g entes
propiet arios
reci biendo
condu cción
ap unt
tér mica
ángu lo
blue tooth
ver tical
preci sa
telem ática
defin ida
super cargadores
adap tador
tác til
inter cambi
circu itos
cambi ando
recicla je
uni forme
ason ic
pan asonic
k g
refriger ación
ultra vio
par ab
retro vis
ru eda
for os
ay u
br d
encu entre
ci ller
can ciller
gui la
tensi ana
mer tensiana
er io
f lan
ri dos
merri am
erup ciones
ma z
cen iza
iss n
real ista
guar di
suspen historias
del ante
fantas ía
liter ario
ap reci
hac ían
felds tein
bi ta
a ci
típ icas
preci sión
va jal
car vajal
li dad
facil itar
par ed
an des
can tin
investiga ciones
ta pa
o puesto
pen etra
colombi ana
tr amo
pin zón
signific aba
guerr eras
le ticia
qui pa
are quipa
que br
líqui do
ca udal
illustra ted
be es
j r
anth op
reproduc tivas
independiente mente
car p
parás itas
mel ífer
ap idae
cú bicos
elimin ado
li tros
octa vo
noven o
im portaciones
undé cimo
l ina
integr ado
im burgo
ed imburgo
renov ables
energ ías
le che
pes ada
alta mente
result aron
bil lones
de uda
consider aba
sal arios
activa ción
carb ón
só lido
ampli ación
dam án
di ar
hu dson
dal las
cru ce
col isión
side car
s nu
hand ley
sign post
thri e
gu thrie
governor 's
moto cicletas
ben nett
hail wood
al ow
ung alow
b ungalow
cone cta
corp us
e ce
cán ica
bal cánica
ál ica
it álica
ina va
escand inava
ro dea
ma dera
suministr ar
la u
compati bles
mi um
co ins
restric ción
bot ón
ú per
s úper
de do
desliz ar
complement arias
re bo
con os
ro ja
univers itarios
mate en
desliz an
tr ía
ci les
difí ciles
con ced
compren der
sustan cial
finaliz ar
enseñ ar
extran jera
tic ales
anti les
inf antiles
le cciones
alum no
minis erie
patrocin ado
ru mano
sustitu ir
ri ka
fri th
típ ica
aus lander
ca e
represent ada
defin ido
pu diendo
me ga
jama ica
wh in
ino ticias
wik inoticias
po lon
reuni eron
diseñ ada
gal ard
asi entos
common wealth
le tismo
at letismo
inte gra
tor neos
ste el
pri est
manufac turas
lan e
po et
na cido
n ish
ran go
blan cas
experiment ar
mos eley
bos que
cubier ta
industri ales
warwick shire
parla ment
coven try
munici pios
metropolit ano
cer t
w ig
bu ch
ún ich
m únich
vir en
bi ológicos
sam bla
en sambla
avan zados
elev ada
ci fr
im posible
dire cciones
arran car
fic hero
bus can
abier tos
bat ch
pen drive
var ían
detect ar
ries gos
ca usar
interven ción
automá ticamente
act úan
sobre viven
al ad
b its
configur ar
bor rar
deriv ados
pre determinada
cu entas
ped ir
dou g
mor ris
dic amente
bás icos
man eras
of en
man tenía
paralela mente
redu cido
jaco b
tr en
simpson s
equival e
pun tu
em pat
om bre
sobren ombre
mencion ó
í simo
ra ción
admi ración
quilla je
ma quillaje
pe ta
em pieza
ar le
recuer da
art z
senti mientos
é pocas
n me
enseñ anza
permi tido
is mos
plás tico
cir u
tri logía
emo ciones
anti christ
promo cionar
hor n
be in
h ing
pol é
gla m
esen cial
soport ados
obser var
sig las
cre ados
cerr ado
cu estión
az ón
cor azón
jue z
lo ga
trabaj ado
pas ando
trata miento
re cher
tecnológ ico
wik cionario
abandon ado
enor mes
afi cionados
que t
c key
ho ckey
competi ciones
habl ante
experiment ado
consu mi
ve get
g ill
derrot ando
resist encia
corri endo
tr is
educa tiva
ob tienen
az adas
embar azadas
band as
cerr ados
pa cientes
jp morgan
ti era
monu mento
gu ía
añ adi
mary 's
re ver
phar lan
mc pharlan
esti pu
an tic
núcle o
vín culos
angl icana
ma estr
mater na
rev it
man ej
concen tra
fon ía
tele fonía
poses ión
circu la
eléctr ica
pose ía
le ta
s ado
im portación
mb itos
á mbitos
pa quetes
taba co
ab ando
contr abando
per tin
compar ten
i pa
individu o
gener ando
constitu yen
mon et
bal d
bor e
hect áreas
broo ghs
ha ven
or quí
tan o
ar bus
escar abajo
v istas
v estre
sil vestre
llu via
invi er
sép timo
cu mbre
sit os
recla ma
mi de
organis mos
yn n
rhe ynn
sal va
autóno ma
sal ario
gas to
pu tado
di putado
circun scrip
manda to
qued an
pasa portes
dis uelto
disol vió
fe cta
a fecta
oc de
encar gado
lle van
úr g
defini tiva
esco cés
viking os
manann án
un esco
í so
para íso
eleva ción
nu alles
cor nualles
inter no
per th
n ór
depen dencias
apa che
est and
estand ar
pro puestas
t antes
antil las
gestion a
denomin ó
o ox
man cha
innova tive
cre ador
men ción
sh ear
retrospec tiva
ándo le
mi ran
niel sen
descri to
v ada
fil mar
direct ores
interpre tó
elimin ando
mán dose
cam in
j ón
gran ero
trasla da
bb ings
ste bbings
emerg entes
sobren atur
ab rup
r ador
bow man
un dación
vo ye
cre tá
pal eo
sal ado
vi ento
conta minación
reconoci dos
lí bano
chi pre
d x
bien es
é g
estrat ég
cuadr ados
exis tió
propiet aria
correspon den
″ o
″ n
orden adas
co ordenadas
adquiri da
tr am
for est
competi dor
dedic adas
oscur a
ma fi
coo lio
orienta ción
del ic
l ento
mar ion
conten ían
b í
ho menaje
ab re
bas adas
nin '
o ch
school ly
vent ud
ju ventud
caracter iza
can ta
declar aciones
steph an
nas h
american os
jum bo
ren dimiento
ac ús
deci mo
tori os
multi platino
alcanz an
latin os
inconveni entes
dream s
apare ció
ar ista
wal ker
ak es
t rom
il ton
ham ilton
tecla dos
ham mond
cris to
austr aliana
sí dney
figur an
austr aliano
recole cción
ez ca
manten ida
ol la
ca deras
ru z
amar illo
tur istas
nombr ar
sir ve
g ón
elo gió
ley en
lar gos
d aban
re pi
dos a
que ño
mul li
at l
bu mes
Ál bumes
disco grafía
habili tación
ven didas
pe g
present ados
tru z
visit an
p ink
rec into
buen as
pro me
reboot '
' reboot'
finaliz ado
se úl
jin »
k jin»
ji kjin»
« jikjin»
noven a
public ar
con tando
three '
me »
f also
grup ales
lanz ados
encontr aban
apren dices
gu l
em ite
capítu los
zo o
james on
fil tr
secre to
cancel ó
ac redit
mar g
lóg icas
cumpli miento
discipl inas
pose er
mecán icos
cos te
form ales
neces idades
tele comunicaciones
exten so
re as
Á reas
termin ar
ex ponen
depen diente
industri as
fl ores
feli pe
ter rá
sub terrá
vir rein
ejer cer
chia pas
logr ado
españ olas
ca i
her nández
ap án
may apán
pot ón
cham potón
lóg icos
pal e
pl ena
ro to
bal am
tu l
bac alar
pere gr
comple mento
« no
qu iso
conquist adores
conse cuencias
pó tesis
hi pótesis
renombr ado
lu b
xu lub
chic xulub
cap itan
por ción
sup uso
brow ne
to car
con seguido
no venta
l entamente
aco gió
luch aron
separ ada
separ ó
tu viera
respon dió
divi dido
pre cedentes
cr itos
apo ya
macau lay
adquisi ción
reanud ó
v ini
colo caron
na wab
adyac entes
crimin ales
po deres
calcu ta
fund ando
ar los
ho landeses
es es
portugu eses
trat ados
nombr ó
ta ban
en rique
repres ión
segu idos
pa u
pes inos
cam pesinos
auxili ares
otor g
po m
comand ante
ll en
histór icos
ces ores
cre aron
prohibi ción
ak bar
oblig ado
g is
desta cada
intent ó
au ge
gram a
innova ciones
em ble
cion aron
sub ven
krish na
co t
con tener
bu kka
ham pi
na gar
localiz ado
bah mani
he cha
bier an
trans fi
s ín
na ció
result ante
mamelu cos
nó madas
pan yab
intent aron
mn ización
inde mnización
for zó
g haz
ghaz ni
gazná vidas
r at
bus caba
islá micos
cali fa
islá micas
ys ala
ho ysala
em pren
ampli amente
k ram
im án
escr itor
fam osos
localiz ada
bad ami
— en
ity a
ad itya
raj put
ped ias
frag ment
desapare ció
« los
consoli dó
q asim
filos ó
co lapso
jui cios
vac ío
destru cción
adi eron
trimon iales
ep í
domin aron
poder ío
es cultura
mi as
visit ó
viaj ero
cap itales
var man
tung abhadra
con te
a conte
res is
bir mania
aliz aron
na ciente
dist ancias
nd ico
Í ndico
histori ador
ar és
expedi ciones
pal o
ci co
gastr onomía
atra jo
gl oria
enor memente
tribut arios
men andro
me cen
indo griegos
lu chas
pu ente
han as
satava hanas
ocu pó
rique za
per ten
bus có
colec tivamente
pus hy
dis ha
mon tes
asiá tica
ari da
con fron
domin ación
hi la
tribu to
hindu kush
n anda
reuni ó
vi vió
divi didas
je fes
is sa
expand ió
enseñan zas
des afi
norte ña
feder ación
pare cen
mencion an
v am
le jan
noti cia
cul tivo
compren dido
y ente
há rata
ab hárata
maj abhárata
brah manes
promin encia
gr is
sán scr
s ans
ami tra
ca z
ar quía
organiz ada
abog ados
pas tor
tri bales
nor occidental
concep tos
fic ados
histori adores
ra k
exten dían
liza ciones
civi lizaciones
ita ciones
hab itaciones
constru yó
comple jas
urban as
hary ana
hal la
agrí colas
pe tro
apare cieron
nar mada
ín idos
hom ínidos
pobla do
pre historia
pro vinci
a hom
ja pati
ga japati
musul mán
astron omía
inv adió
prati hara
j ara
centr ada
mediterrá neo
pal i
testi go
cas tas
mon árqu
continu o
priva tiz
fin alización
perio dos
acep tar
folle to
obliga ciones
determin ados
sal ir
sá til
bur sátil
agre ga
paro dia
mostr ando
human idad
ás ticas
condu ce
cotidi anas
bor ra
t ío
sup one
én dole
gu es
bas an
ester eo
inc r
peru ano
récor d
sket ch
protagon ista
reproduc ciones
cues tion
pan am
regres a
redu ciendo
su cedió
mencion ada
di éndose
ól ica
interpre tada
red act
anim es
her manos
en san
or ar
cumpli ó
estren ada
bum pers
gestion ada
con formado
incl usión
mexican os
glomer ado
con glomerado
vi gente
diri gidas
aspe cto
re x
avent ura
anim adas
protagon izada
cab ezas
celebr ó
consider ando
anima ciones
man sión
vi endo
mar a
celebra ción
emi tida
vari ado
incorpor ado
caball eros
do o
ali dades
entre vist
present ada
avent uras
van cia
rele vancia
marat ones
is tió
ci ar
vo tación
estren aron
lo gra
destin ado
super poderosas
li to
dex ter
héro e
adquisi ciones
espe jo
latino americana
is cher
fle ischer
m gm
te ca
anim ados
residen te
noved ades
latino americano
cr un
produ cer
refle ct
pho enix
or n
ck o
ve c
w ir
shang hai
dy bank
bud dybank
roman ian
bu ffer
k ap
n pls
so ts
at f
pa olo
san paolo
medi ci
hypo vereinsbank
sco pe
ver bal
ran ked
domin ican
su man
po ets
pi i
e cos
attribu te
mar ty
re ign
cathe dral
visi gothic
under ground
to mb
chur ches
re lic
le um
hai tian
ér ic
éd éric
fr édéric
y on
i que
domin ique
fran cs
lu cas
gro upe
financi ère
gi on
ha v
cé ienne
la ise
borde laise
la g
participa ted
atlan tique
trans atlantique
constitu ción
un official
p suv
institu tes
territ ory
mean while
chá vez
car acas
pal ace
unic ameral
boli vari
k its
key log
mi k
dise ase
termin al
behavi ors
compar ing
tro jan
ho pes
he at
co oling
meta morphic
dis ab
decryp tion
decryp ting
en code
den tal
permit ted
un infected
kill ing
produc ía
acciden tal
dis ks
cr ash
man t
ho ax
destru ctive
leon ard
b stre
vi ro
ransom ware
ste alth
ph or
replica tion
b rom
ho un
ber ry
ba de
vo tes
cas ts
mayor 's
pat ch
organiz ers
we work
win s
fr itz
co llo
tournam ents
descrip tions
optimiz ers
lis p
complica ted
execu ting
ul ts
ni p
gener ic
assem bler
comp act
scrip ts
mu m
cap able
modif ying
tes ters
silver light
in ches
si zes
de bu
compil ed
tem pla
vi gation
na vigation
tab bed
ic ons
tr usted
cons isted
pro plus
sur ing
en suring
conclus ion
un less
ing ly
un bind
photo draw
dub bed
analy zer
stor ing
phas es
for ced
ada ta
met adata
u i
w id
communic ator
au tos
author ing
od s
book ings
vis io
sy mbian
por table
ec ma
siw yg
wy siwyg
over took
schem e
e vo
proceed ings
fa varo
al ice
compe ting
van ia
christi ans
aliz e
li b
si d
judi th
nan céienne
collabor ative
cla ire
narra tives
pre dominant
sha pe
essential ism
sy l
spe ct
tre vor
advan ces
la ps
constru ction
hu ge
re produce
dal y
pr is
wor se
ma ine
privi lege
is ation
dis cur
non binary
restor ing
ar ine
bio logy
femin ine
law ford
le en
kath leen
interpre ted
advo cate
' trans
gre ta
ad mit
omy n
w omyn
hi gan
mic higan
circu lation
diction aries
sen sual
at tr
educa tional
critici ze
a a
ca ge
scrip ted
f used
or ch
t to
ti mbre
melod y
writ ers
broad ly
tempor al
fol k
gen res
practi tion
manif est
pl ing
aesthe tic
wi der
ti le
cra fts
gram mar
curr ic
calli graphy
mic ally
lanz amientos
classi fications
ell ing
anni versary
al bu
gu mi
ga to
t ō
pe olini
ka ta
・ ra
sa ・ra
ur i
ishi kawa
nab ushi
on nabushi
yō ko
y ard
marri ed
el is
igh th
e ighth
lu d
math ias
youn gest
initi als
institu t
mat ches
bur ger
ma til
billion aire
od or
fe odor
cl c
o clc
l c
ca to
y l
— in
group ed
g man
mer ely
vol ent
bene volent
emo tions
llevar ía
f les
frank lin
see ks
crea tivity
teach ing
es cape
kar as
attach ment
s ess
pos sess
histor ic
truthful ness
s au
confucian ism
par am
lo tus
du ll
s tran
pas sion
senti ent
kind ness
ya k
fol d
budd hist
belie fs
mus lim
con cor
bat tle
se ctions
th i
les ser
bahá ʼ
ho ly
dhar ma
ta ught
ex em
ci vic
jud gement
co ward
lin ess
log ically
fos ter
— that
narra tive
io t
for titude
ν η
car din
virtu ous
avoid ing
excell ence
ho le
li ps
re conocer
trick s
tr um
per cus
ir d
we ird
star ring
gabri elle
tay lor
ange la
me ghan
sha w
an u
fili p
anth ropo
qu est
are t
rout ledge
pl ural
vien na
green wood
koso vo
re m
prin ce
in ary
cer pt
ex cerpt
co pe
man s
chau han
ni um
len nium
mil lennium
len s
su ffer
center ed
ga ted
exten sion
z ie
oper ate
p ino
us to
residen ce
sovereign ty
sta bility
de o
poli tically
propon ents
geo graphical
universal ism
reason able
od ds
soli dar
expen se
vel i
instru mental
preva il
ti us
hob bes
áre z
s trict
tras bourg
s trasbourg
person ality
malay sia
ca tion
interpre tation
th r
establ ishment
interpre ting
compar ison
op ted
opinion s
re tained
le vi
at ar
unic ef
ced aw
un h
ic escr
ic j
co ld
ci sm
ani mously
un animously
ell ed
cas sin
law yer
hu mph
an or
di plo
absolu to
prevent ing
bas ándose
human itarian
op press
establ ishing
rea ders
pur suit
liber ty
li d
obje ctive
am anca
ins isted
think ers
sla very
none theless
bat es
de bates
neighbor s
minim al
exam ining
gre edy
over lap
y d
flo yd
che ap
asy mpto
car lo
invol ve
simpl er
vari ables
paradi g
paradi gm
approxima tion
approxi mate
effici ently
sor ting
archite ctures
si bly
pos sibly
repe ti
l z
ru b
syn thetic
sol ely
enta ble
pat entable
can on
et ti
equip ment
decre ase
scal ing
inter active
focus es
sor ted
go to
ver b
pseudo code
analy ze
go es
k le
g ö
form aliz
parti al
ta pe
gin es
en gines
— the
es cap
inven tion
man us
d h
babylon ian
spo ke
tr action
etymo logy
ha ps
per haps
heur istics
m ā
typ ical
ster eo
else where
gre w
fas cin
ar res
cons ci
plo t
ed gar
hel ped
hun ters
neu tral
acquisi tions
auto mobile
investig ating
rul ing
è s
author ized
pro fi
tiff any
dam aged
dam aging
recor ding
mas k
har as
ser ving
bi ds
proce eds
jam ie
depic ted
glob ally
mag na
of ren
consor tium
controll ing
di lu
pr ices
sho pping
jo int
cro w
g ary
j ump
list ings
bench mark
ten ed
found ing
bro ken
ir ani
buy ers
commission s
ino us
le m
de noun
ger y
vi ous
ob vious
reje cted
some where
amoun ts
g le
dual ism
cep tions
pers ist
ste ad
sta tis
alterna te
pren eur
entre preneur
cha os
social ist
perce ived
sand ra
law makers
di xon
str ess
ft c
harm ful
r s
lo us
f lix
net flix
par amount
la m
wal t
emis oras
censor ship
character ized
dispu te
ful fill
gr ay
check marks
revam ped
stru ctural
suppor ters
ros e
fil tering
bi den
decl ine
conven ed
ta bs
li ked
ga ining
im ply
messa ging
new ly
ag gres
ak ed
moun ta
c bc
no ting
por ter
china 's
russia 's
reser ved
vio lating
inci dent
ili an
braz ilian
antisemi tic
sol ved
simu lated
vic tim
open ly
fle xi
out reach
insu fficient
pr ison
for bes
hat red
ra pe
rein stated
li kes
journal ist
ab et
alph abet
ap ped
thre ads
back ground
cement s
enhan cements
pos ter
custo m
fla gs
men tion
users '
smart phones
inter act
proper ly
tal ks
restric t
surround ing
search ing
plan ned
person ally
inqui ries
insi ght
cut ting
alleg ing
reje ction
spo kes
twee ted
rio ts
ico de
un icode
trade mark
h w
re direct
del ity
fi delity
refle cts
j ason
encom passing
counter ing
stru gg
continu es
restric ting
aim s
x ai
e tization
mon etization
predecess or
re branded
stone wall
in come
anima ted
ill ustr
gather ed
gall ery
magn itude
comple tely
mor ley
propag ating
conne ctions
boy er
be e
oppos ing
fail s
alig n
ā n
sen ses
mo ves
th am
philosoph ers
si vely
inter ference
sta tic
o ven
enab led
mo des
independent ly
accur acy
appar atus
kee ps
pas ses
l é
o go
ti ming
an gular
se es
brad ley
ab err
la tive
cu mu
quanti tative
accur ately
separ ately
tu ps
ell ites
sat ellites
an ten
tr illion
juli an
youn ger
recei ving
command s
recei ver
astron omy
micro wave
shor test
at orial
clo ck
ko v
sho ck
s –
frequ encies
p tion
diam ond
c res
observ ation
bi tr
ar bitr
g gs
put ting
}} }}
psi lon
vare psilon
behavi our
d ina
lu min
barri er
h art
vio late
ch y
par ado
si multan
tro pic
consist ent
satis fy
rela ting
space time
experiment ally
maxwell 's
invari ance
om it
es ium
ca esium
perme ability
const ants
sw it
do lf
we ber
edu ard
cel er
gu ess
trans parent
gravitation al
stra ted
demon strated
me tres
ces ter
ab bey
nat west
uk r
ch ad
tur key
bou ght
of mann
h ofmann
sloven ia
gaz prom
s ø
ten s
le ctores
fon ds
am ro
ab n
mort gage
tene gro
mon tenegro
v p
ta t
ten stein
ech tenstein
li echtenstein
ts b
alli ed
manufac turing
br altar
gi braltar
ex haus
ni er
is se
spar k
gesellsch aft
ak tien
in ity
d n
sa x
priv at
fin ance
ho using
red na
priv redna
ot p
is che
croa tia
g arian
bul garian
gar ia
bul garia
building s
gov ina
ze govina
her zegovina
bos nia
sh in
al ban
department 's
schedul ing
roll ed
s mo
ap pen
down town
e cli
challeng es
em ma
h ance
en hance
ho mel
volun teer
addres sing
order s
launch ing
sli des
brand ing
christ mas
cy cl
war m
restructur ing
apply ing
su itable
v orite
fa vorite
ti ze
' ll
wor ms
we ar
teach er
pl ant
atten dance
g one
agu es
colle agues
tit les
ad here
fore cast
ten ance
main tenance
condu cting
facili ties
mo ments
yal ty
lo yalty
thrill ed
testimon ial
ser vers
utili ze
tu es
din ner
collabor ate
compla int
ma '
perfor mers
obje ctives
kick off
tin es
gent le
pre para
a head
wonder ful
amaz ing
wish es
evalu ation
pat ches
tun ed
proto type
confi dent
sponsor ship
gra titude
team 's
any thing
ti se
join ing
le ans
highli ghted
bi es
celebr ating
preci ation
ap preciation
fill ed
tem plate
develop ments
ad just
candid ates
los ing
email s
pro ud
discre pan
ι κ
tica tion
authen tication
web mail
vac ation
who m
suspen d
yi eld
pi re
h ra
guid ance
invest ments
reco ver
win ners
intern ship
recommen d
dis aster
don ations
ɑ ɴ
ɑ ɾ
sys te
t led
enti tled
so phia
guarante ed
skill ed
compromis e
reco very
n ex
μ ε
ρ α
pri zes
j k
near est
un able
reg ret
ch t
ch ance
enhan ced
en joy
tax refund
deli vered
conne ct
ab ro
os ing
cho osing
pr inter
com urgent
unus ual
luck y
tic ed
no ticed
hen sive
compre hensive
credi ted
re ward
di ble
incre dible
job s
employ ment
com you
deli ghted
ur ge
click ing
auth orities
los e
un fortunately
trend s
hor arios
consul tor
en tiendo
sos teni
a is
n é
re paración
organiz a
di jeron
telef ónica
fu tura
ven ció
fer nández
us an
taller es
com ida
prob abilidad
le z
gonzá lez
confir mado
senti miento
c emos
ajus tar
v ías
administra tiva
pas ión
entre vista
pro mp
escri biendo
coleg as
insi ghts
z can
soci os
ch en
avis a
ampli ar
retro alimentación
reuni ones
pint ores
fir mar
tecnológ ica
funcional idades
acept ada
corpora tiva
pue des
v estuario
requis itos
fortale cer
capaci tación
empres arial
compañ eros
de talla
con ti
publici taria
veri ficación
ex ig
mand ar
re mi
mem bres
ā b
centr ales
tendr á
jer ía
mensa jería
tal ento
anun cia
ris as
ten gas
correg ir
li bres
emo cionado
ke ts
bole ta
invitar los
mon to
res puestas
comput adoras
ar du
dificulta des
comunic ado
esper ar
realiz arse
investi gar
regres ar
ar me
autor izado
confir mada
dibu jos
exitos o
tempor almente
s ich
remo to
medic amento
modific ada
seg ura
qu ina
podr á
convers ación
inqui e
vícti ma
está s
próxim as
li bros
per dido
vac aciones
uni da
renta ble
g ust
res uel
a fortun
exclusi vos
Ú l
ciudad ano
men do
desbloque ar
quer íamos
ist re
loter ia
ingres ar
identi ficación
vá lida
pla tos
restaur ante
i ficación
com parte
c cion
electri cidad
de bes
noti fic
cre cer
ju da
fácil mente
deb emos
asesor amiento
v amos
man tenido
re mitente
présta mo
especial ista
ele gida
feli citaciones
quer ida
fu turas
actualiz ada
acep tación
é is
ace pta
k t
comunic ar
apo yar
pu edas
re ú
solu cionar
seleccion ada
suces or
invi tamos
mis ion
emerg ente
inver tir
de je
via jeros
pla ya
ll ena
cre den
aprob ada
pla cer
aprob ado
ped imos
soli cita
por nos
aboli cion
fantas ías
degrad ante
sexual idades
zo ofilia
you porn
jen na
incorpor an
anti pornografía
snu ff
consa grada
thro at
hi per
fles h
col t
b dsm
mien da
en mienda
defini endo
explo ta
o qu
mas oqu
sexu alizada
popular iz
caracteriz ándose
prohibi da
leg alización
bus caban
pú b
vi cio
vio lación
novel as
explí cita
anón imos
il ustr
ac ci
n icación
for nicación
ist ó
ar istó
tr ico
us iones
al usiones
dis mo
ide ales
rela tos
vali éndose
prostitu tas
prostitu ta
exci tación
mes osa
ur st
lh urst
to lhurst
ap ter
lu p
gal lup
tica »
sometimes »
« charlotte
p dl
l bf
v }
}} p
text{ ext
flu ido
mecán ico
ter mo
consider amos
right arrow
{ pe
{ m
r }}
{ r}}
{ x}
{f }}
nu lo
b }}
text{ b}}
a }}
text{ a}}
text{ t
e }
t }
f ia
del fia
fila delfia
ges ink
neo profesional
dec ca
fle cha
gö lz
pop pel
vel d
lle veld
so lleveld
mail lot
Ó scar
ro lf
f landes
ne er
world tour
bis el
i bilidad
acces ibilidad
pri mir
sinc ron
des instalar
pre determinado
compon ente
tro jans
nept une
uran us
rati os
zir con
gne iss
di ameters
crater ing
swe ep
simu lations
radio metric
iso topic
come ts
ne th
ken neth
ren sen
sø rensen
giu lio
mik hail
lan t
ca therine
chro mato
z berg
ultravio let
aug uste
aliz arin
ic y
ur tz
w urtz
ru dolph
ger hard
do w
catal ysis
e del
fri edel
meth ium
pro methium
priest ley
pharma cist
eli us
frances co
anto ine
edu cator
ato mic
un es
mineral og
gi us
hydro gen
insta bility
sand box
privileg es
se ui
brow seui
v w
doc vw
sh docvw
url mon
i explore
ru by
mas cript
ec mascript
sp dy
re ardon
crosso vers
a cock
pe acock
syn dica
ba tra
explo ited
en counters
cam ryn
reti red
paris se
an nie
far ina
yp d
n ypd
br att
mur dered
ine tte
wolf 's
cra gen
mad sen
und za
dz undza
scen es
tro om
cour troom
little field
nbc 's
e path
epath a
len nie
prosecu tion
sus pect
re prise
eli er
histori an
tall ic
con fes
ds or
win dsor
tro it
de troit
popu lous
por tation
trans portation
– mexico
kill ed
ta ted
vas tated
de vastated
earthqu ake
earthqu akes
geo logical
anomal y
miner als
gae a
crat on
high land
sub tropical
ran e
temper ate
und ra
t undra
laur enti
physio graphic
peninsu la
geolog ically
pe lago
archi pelago
mon arch
britain 's
i ards
span iards
co operation
conquer ed
found land
new foundland
ber ing
bel ize
ca fta
land mass
seem üller
wald seemüller
vespu cci
americ ans
colon ists
las ted
sam po
lin us
protest ant
fin nish
copy right
hacker 's
ten ets
practition ers
immun o
secre te
di ges
swe at
canc ers
path o
meso derm
fila ments
la mina
flu id
meso thelium
endo crine
exo crine
ha tic
lymp hatic
cu to
secre tion
tra tified
udos tratified
pse udostratified
sha pes
ori e
j orie
mar jorie
k ang
survi ved
transliter ations
sub way
loan ed
nomad ic
j īng
homo phones
sylla bic
poly syllabic
co da
th ong
mor pho
方 言
houn ese
z hounese
south west
wu zhou
taishan ese
di m
sylla b
newspaper s
extensi vely
普 通
presti ge
conson ants
phono logical
phono logy
mounta inous
infle ction
cy ril
ie yun
separa tion
inscrip tions
trans cri
analy tic
ton al
ō ng
z h
漢 語
sal le
corred or
ang elo
contrat ado
má ticas
soft core
productor as
te ga
or tega
anti lla
pl antilla
ar ol
ñ arol
pe ñarol
visit ante
ado l
rober to
gole ada
guar aní
porte ño
cas s
mi ²
sensa cional
bél ico
román tico
argu mentos
bio química
ph d
y ale
ma cia
far macia
tor e
dot tore
veter in
ced or
doctor al
mag is
« doctor
philosoph iae
maestr ía
u dio
mpe g
ff mpeg
instal ado
moun t
produ cidas
rm g
chel sea
adjudic ó
olímp icas
liz ar
consider aron
mal »
tesor ería
centa vos
mir ke
s mirke
comple tó
to mado
falsi ficación
pen i
de au
on deau
bl ondeau
lingo te
acuñ ando
mud arse
trasla dar
bus hell
ele var
u th
tru ro
fic has
dan e
marti lle
tris ant
llan trisant
red one
medicine »
« medicine»
invent ing
w en
refer ente
apro pia
imagin ación
cogni tivo
tri ción
desnu trición
element ales
explic ar
tor nos
tras tornos
ro jas
eli as
re construcción
gue tes
ju guetes
pin turas
cri anza
inf ante
economy bookings
volcán icas
lingu istics
po tr
de ten
estren os
r ating
ándo la
power puff
pre escolar
ú menes
vol úmenes
v v
ibero americana
hid algo
matil de
garanti zó
garanti zado
legisla ciones
ponder ante
pens ar
roman os
patr iline
matriline al
po logía
antro pología
pro creación
concep tivos
anti conceptivos
reem plazo
reproduc tiva
gen os
estró genos
bu lo
i des
embar azo
ó vu
hormon as
em bri
oso ma
crom osoma
gen éticas
mus culos
la ct
qued arse
os omas
crom osomas
adolesc ente
fé mina
entr aría
k ay
bul ly
les ión
pla zó
gun ner
sab u
dre amer
mi versary
slam miversary
sacri fic
sacrific e
net te
des pedido
cre ed
re to
van cha
re vancha
gar a
reanud ar
hé ctor
non stop
fo tó
w }
disper sión
expres ar
dis olu
{ i
arit mo
log aritmo
pará metro
defini eron
bun sen
intensi dades
produz ca
lí qu
v ente
solu to
bar a
óg icas
emple a
general ista
im bun
sh imbun
ni hon
vi meo
os ter
ob tiene
identific adas
rome o
ë n
tro ën
ci troën
division al
auto motor
modi ficación
ascen sos
fisc alización
direc tiva
ór bita
tom ía
cos ur
mer cosur
permit ían
fisc alizada
c da
regi da
pe i
ca cielos
ras cacielos
scat ter
ro i
legal idad
sal ve
contrat ar
discrimin ación
l rc
wh lrc
n whlrc
nes ota
remaster izado
infer iores
vo gue
t ty
pre tty
r onda
speed y
promedi ando
derro tas
a cie
gu al
compen dio
ten sión
de ficiente
mo mentos
to mato
recaud ó
enfer mer
es sa
van essa
desarrolla dores
superfici es
compr able
met ál
secu az
comis ario
ad ir
ju gando
ro ban
tit ans
más cara
vo lar
plane ador
ún icas
mini atura
enfrent ar
entor nos
ent ado
qued ando
mutu a
landes a
fir ma
asegur adora
nis san
ígen o
ox ígeno
disminu ye
fabrican tes
stan cias
circun stancias
zú rich
acumu ladas
su fici
ion arios
conces ionarios
mp ia
automá ticas
pre visión
su do
son or
proyect ado
visi bles
á culos
p x
apunt ando
aero dinámico
pes aba
prop uso
secu elas
ocup ante
vuel co
prob ados
ment ada
preven ción
cintur ones
ol es
ven ti
cru cero
lla ve
vol ante
módu lo
tras eros
tan que
tiz ado
super cargador
suministr aban
superchar gers
cone ctor
el les
mu elles
levant ar
acondi cionado
habit uales
impres os
v ál
cal ef
resist encias
delan tera
ra ven
repos o
ru edas
ctor a
redu ctora
reci clar
car gas
ba jar
volta je
pes ado
cel das
sobre calentamiento
delan teras
pil ares
horizon tal
crist al
neu máticos
mar cos
radia ción
bloque o
hom bros
plan cha
retrovis ores
g t
hu i
funcion ó
oper aba
llev aban
red tube
criter io
revolu ta
« pornography
{ e}
low ell
pan gaea
geo graphically
outer most
q ieyun
se ud
suspen so
mo uth
pre ponderante
fis io
min nesota
plane a
adap ta
instal ó
maz da
fs d
má foros
se máforos
opcional mente
j aro
pá jaro
“ bird
pare cer
tol kien
pen dientes
cli mática
vari edades
vas cular
la va
domin an
tsu ga
per diendo
recor ridos
fac ultad
jes ús
pic to
distribuid ores
path ology
wer tham
al elo
par alelo
vi vi
des agr
tr icos
gu arida
bó veda
crip ta
cis mo
incorpor aron
william son
deb ían
fan es
edit ores
suspen se
hacer las
ed itar
nil los
tir as
uste au
co usteau
